{"<|endoftext|>":0,"!":1,"\"":2,"#":3,"$":4,"%":5,"&":6,"'":7,"(":8,")":9,"*":10,"+":11,",":12,"-":13,".":14,"/":15,"0":16,"1":17,"2":18,"3":19,"4":20,"5":21,"6":22,"7":23,"8":24,"9":25,":":26,";":27,"<":28,"=":29,">":30,"?":31,"@":32,"[":33,"\\":34,"]":35,"^":36,"_":37,"`":38,"a":39,"b":40,"c":41,"d":42,"e":43,"f":44,"g":45,"h":46,"i":47,"j":48,"k":49,"l":50,"m":51,"n":52,"o":53,"p":54,"q":55,"r":56,"s":57,"t":58,"u":59,"v":60,"w":61,"x":62,"y":63,"z":64,"{":65,"|":66,"}":67,"~":68,"¡":69,"¢":70,"£":71,"¤":72,"¥":73,"¦":74,"§":75,"¨":76,"©":77,"ª":78,"«":79,"¬":80,"®":81,"¯":82,"°":83,"±":84,"²":85,"³":86,"´":87,"µ":88,"¶":89,"·":90,"¸":91,"¹":92,"º":93,"»":94,"¼":95,"½":96,"¾":97,"¿":98,"Â":99,"Ã":100,"Ä":101,"Å":102,"Æ":103,"Ç":104,"È":105,"É":106,"Ê":107,"Ë":108,"Í":109,"Î":110,"Ï":111,"Ð":112,"Ñ":113,"Ò":114,"Ó":115,"Ô":116,"Õ":117,"Ö":118,"×":119,"Ø":120,"Ù":121,"Ú":122,"Û":123,"Ü":124,"Ý":125,"Þ":126,"ß":127,"à":128,"á":129,"â":130,"ã":131,"ä":132,"å":133,"æ":134,"ç":135,"è":136,"é":137,"ê":138,"í":139,"î":140,"ï":141,"ð":142,"ñ":143,"ò":144,"ó":145,"ô":146,"Ċ":147,"Ġ":148,"ġ":149,"Ģ":150,"ģ":151,"Ĥ":152,"ĥ":153,"Ħ":154,"ħ":155,"Ĩ":156,"ĩ":157,"Ī":158,"ī":159,"Ĭ":160,"ĭ":161,"Į":162,"į":163,"İ":164,"ı":165,"Ĳ":166,"ĳ":167,"Ĵ":168,"ĵ":169,"Ķ":170,"ķ":171,"ĸ":172,"Ĺ":173,"ĺ":174,"Ļ":175,"ļ":176,"Ľ":177,"ľ":178,"Ŀ":179,"ŀ":180,"Ł":181,"ł":182,"Ń":183,"Ġt":184,"Ġa":185,"he":186,"in":187,"Ġthe":188,"re":189,"Ġs":190,"on":191,"er":192,"Ġw":193,"Ġc":194,"Ġo":195,"at":196,"Ġb":197,"en":198,"it":199,"Ġp":200,"Ġf":201,"is":202,"an":203,"Ġm":204,"or":205,"ed":206,"es":207,"ing":208,"Ġan":209,"ou":210,"Ġin":211,"Ġto":212,"Ġd":213,"al":214,"ar":215,"Ġh":216,"Ġof":217,"Ġth":218,"Ġand":219,"as":220,"ĠĊ":221,"Ġl":222,"âĢ":223,"ic":224,"Ġn":225,"om":226,"ion":227,"le":228,"Ġg":229,"Ġre":230,"Ġe":231,"ent":232,"ll":233,"st":234,"ve":235,"ro":236,"Ġbe":237,"ly":238,"id":239,"ac":240,"ut":241,"ot":242,"Ġon":243,"Ġu":244,"Ġthat":245,"Ġis":246,"Ġi":247,"Ġst":248,"ay":249,"et":250,"Ġfor":251,"am":252,"ad":253,"se":254,"ow":255,"Ġhe":256,"Ġy":257,"Ġit":258,"ig":259,"âĢĻ":260,"ver":261,"ct":262,"ld":263,"ur":264,"Ġwh":265,"im":266,"Ġwe":267,"Ġr":268,"Ġas":269,"ation":270,"ir":271,"ith":272,"ce":273,"ter":274,"Ġwith":275,"ol":276,"ĠâĢ":277,"il":278,"Ġde":279,"ch":280,"Ġyou":281,"Ġcon":282,"Ġj":283,"ill":284,"Ġwas":285,"ke":286,"Ġse":287,"ers":288,"Ġat":289,"Ġmo":290,"Ġne":291,"Ġpro":292,"Ġfr":293,"Ġv":294,"Ġha":295,"her":296,"ate":297,"Ġcom":298,"ag":299,"un":300,"Ġ1":301,"ul":302,"pp":303,"Ġare":304,"Ġch":305,"ment":306,"us":307,"est":308,"and":309,"ist":310,"th":311,"op":312,"Ġ2":313,"Ġthis":314,"ain":315,"ri":316,"Ġ(":317,"igh":318,"oun":319,"Ġk":320,"Ġex":321,"end":322,"Ġal":323,"Ġsu":324,"Ġnot":325,"Ġun":326,"res":327,"Ġor":328,"ab":329,"Ġsh":330,"te":331,"ĠâĢľ":332,"Ġby":333,"âĢĿ":334,"ess":335,"Ġhave":336,"oo":337,"ity":338,"if":339,"ould":340,"um":341,"Ġfrom":342,"Ġtr":343,"ort":344,"ive":345,"Ġbut":346,"qu":347,"ant":348,"os":349,"'s":350,"art":351,"Ġle":352,"oc":353,"pe":354,"Ġab":355,"Ġsa":356,"ight":357,"ust":358,"red":359,"Ġpl":360,"Ġ\"":361,"ies":362,"ie":363,"Ġthey":364,"all":365,"out":366,"Ġme":367,"ack":368,"Ġhas":369,"Ġhis":370,"00":371,"ally":372,"Ġwor":373,"Ġwhe":374,"ome":375,"Ġdo":376,"ap":377,"ard":378,"iv":379,"Ġcan":380,"gh":381,"el":382,"Ġgo":383,"our":384,"Ġall":385,"ak":386,"ud":387,"ast":388,"Ġwill":389,"ren":390,"ear":391,"Ġar":392,"ge":393,"Ġad":394,"Ġsaid":395,"Ġso":396,"mp":397,"Ġwho":398,"ich":399,"Ġcl":400,"ide":401,"Ġus":402,"Ġte":403,"ough":404,"Ġout":405,"Ġli":406,"Ġtheir":407,"ame":408,"ans":409,"Ġmore":410,"ial":411,"ther":412,"Ġup":413,"Ġone":414,"ice":415,"ound":416,"one":417,"Ġco":418,"Ġnew":419,"ff":420,"age":421,"act":422,"ure":423,"Ġen":424,"ions":425,"ous":426,"ine":427,"Ġsp":428,"Ġcomp":429,"ong":430,"Ġac":431,"Ġabout":432,"em":433,"ated":434,"Ġman":435,"Ġag":436,"ber":437,"der":438,"ia":439,"Ġthere":440,"ore":441,"ime":442,"Ġoff":443,"Ġhad":444,"Ġam":445,"Ġwere":446,"ect":447,"ra":448,"Ġif":449,"Ġ20":450,"Ġwould":451,"Ġwhich":452,"Ġev":453,"Ġcont":454,"ip":455,"Ġro":456,"ake":457,"very":458,"Ġpe":459,"so":460,"Ġno":461,"ub":462,"ind":463,"xt":464,"iz":465,"Ġsc":466,"to":467,"Ġpo":468,"ue":469,"Ġwhen":470,"ks":471,"Ġbeen":472,"Ġrep":473,"Ġper":474,"Ġlike":475,"Ġwhat":476,"Ġyear":477,"au":478,"Ġres":479,"Ġfe":480,"Ġinc":481,"Ġsome":482,"ary":483,"ace":484,"Ġpr":485,"pt":486,"ign":487,"Ġother":488,"per":489,"ays":490,"Ġaf":491,"og":492,"Ġapp":493,"Ġdis":494,"ite":495,"able":496,"Ġpart":497,"ry":498,"Ġqu":499,"ass":500,"Ġover":501,"Ġtw":502,"Ġbec":503,"ood":504,"ire":505,"Ġjust":506,"Ġgr":507,"ile":508,"Ġthan":509,"are":510,"Ġalso":511,"Ġ201":512,"Ġhow":513,"ople":514,"ts":515,"ence":516,"king":517,"Ġshe":518,"Ġyour":519,"Ġmy":520,"ations":521,"own":522,"ical":523,"Ġpeople":524,"ress":525,"ree":526,"ose":527,"Ġthem":528,"lic":529,"Ġher":530,"for":531,"ance":532,"ail":533,"Ġany":534,"we":535,"Ġmar":536,"Ġbl":537,"Ġkn":538,"av":539,"ib":540,"Ġrec":541,"Ġtime":542,"Ġget":543,"Ġits":544,"Ġ3":545,"Ġcomm":546,"ase":547,"ru":548,"Ġfir":549,"ction":550,"od":551,"Ġpol":552,"the":553,"Ġafter":554,"ach":555,"ens":556,"Ġbr":557,"Ġpre":558,"ount":559,"of":560,"reat":561,"ord":562,"Ġour":563,"ian":564,"Ġinto":565,"vel":566,"ond":567,".âĢĿ":568,"Ġimp":569,"Ġ-":570,"Ġacc":571,"Ġplay":572,"du":573,"ult":574,"fe":575,"amp":576,"ory":577,"Ġfirst":578,"Ġind":579,"ident":580,"ition":581,"ors":582,"ings":583,"Ġser":584,"ep":585,"int":586,"wn":587,"ang":588,"ick":589,"Ġact":590,"ause":591,"Ġspe":592,"text":593,"hing":594,"ade":595,"ates":596,"ook":597,"vers":598,"day":599,"Ġ19":600,"Ġcould":601,"Ġtwo":602,"Ġonly":603,",âĢĿ":604,"lo":605,"Ġinter":606,"Ġhim":607,"Ġnow":608,"ious":609,"ild":610,"'t":611,"Ġph":612,"Ġexp":613,"Ġjo":614,"Ġsec":615,"Ġmost":616,"|>":617,"endof":618,"<|":619,"endoftext":620,"Ġdec":621,"Ġdes":622,"hed":623,"Ġla":624,"rent":625,"form":626,"Ġmay":627,"Ġback":628,"Ġbet":629,"Ġwork":630,"Ġpres":631,"ish":632,"ict":633,"Ġbu":634,"ink":635,"Ġsy":636,"Ġeven":637,"Ġcons":638,"Ġthese":639,"Ġdon":640,"Ġfo":641,".\"":642,"ning":643,"Ġ4":644,"ĠâĢĵ":645,"Ġunder":646,"Ġbecause":647,"ft":648,"Ġdid":649,"ces":650,"li":651,"Ġcr":652,"Ġagain":653,"itt":654,"man":655,"Ġstate":656,"Ġadd":657,"ons":658,"Ġatt":659,"Ġinv":660,"Ġevery":661,"Ġsee":662,"ater":663,"Ġob":664,"Ġwant":665,"ĠâĢĶ":666,"ved":667,"ise":668,"ck":669,"ne":670,"Ġke":671,"sel":672,"ual":673,"Ġyears":674,"Ġneed":675,"Ġ$":676,"les":677,"..":678,"Ġknow":679,"lud":680,"ents":681,"Ġthen":682,"Ġ5":683,"ublic":684,"Ġmu":685,"iss":686,"Ġsupp":687,"Ġcar":688,"Ġass":689,"cess":690,"Ġmany":691,"Ġlo":692,"ments":693,"Ġwhere":694,"Ġim":695,"Ġmake":696,"ced":697,",\"":698,"Ġbo":699,"Ġ[":700,"Ġright":701,"urn":702,"Ġmon":703,"Ġcol":704,"Ġreg":705,"fore":706,"Ġthr":707,"gr":708,"Ġrem":709,"Ġfl":710,"eric":711,"Ġmin":712,"Ġlast":713,"Ġwhile":714,"Ġworld":715,"Ġway":716,"pect":717,"Ġsm":718,"ject":719,"Ġcount":720,"Ġgu":721,"vern":722,"Ġed":723,"ull":724,"ational":725,"Ġwell":726,"Ġfin":727,"oup":728,"Ġcall":729,"Ġthose":730,"Ġpos":731,"Ġbeing":732,"Ġgen":733,"Ġdown":734,"ump":735,"Ġbel":736,"ty":737,"Ġdef":738,"ating":739,"Ġshow":740,"Ġinst":741,"Ġdif":742,"Ġrel":743,"Ġthrough":744,"lect":745,"row":746,"iew":747,"ily":748,"Ġgovern":749,"Ġear":750,"ason":751,"Ġinclud":752,"ving":753,"get":754,"Ġshould":755,"ased":756,"aking":757,"Ġsay":758,"ath":759,"Ġvery":760,").":761,"Ġmuch":762,"Ġform":763,"ited":764,"rib":765,"Ġem":766,"Ġwar":767,"Ġtoo":768,"Ġend":769,"ting":770,"uring":771,"other":772,"Ġbefore":773,"ities":774,"Ġdoes":775,"Ġlong":776,"Ġuse":777,"Ġteam":778,"ative":779,"Ġchar":780,"ys":781,"Ġreport":782,"Ġstud":783,"Ġmed":784,"Ġown":785,"Ġ200":786,"als":787,"ics":788,"Ġwr":789,"ower":790,"Ġbot":791,"Ġstart":792,"Ġsub":793,"Ġgood":794,"Ġameric":795,"ward":796,"con":797,"Ġdep":798,"Ġdem":799,"ange":800,"Ġsim":801,"Ġhere":802,"ters":803,"Ġgame":804,"omet":805,"com":806,"ific":807,"Ġsur":808,"ince":809,"Ġfun":810,"Ġcent":811,"Ġthink":812,"Ġsuch":813,"llow":814,"Ġent":815,"ock":816,"ues":817,"Ġwee":818,"co":819,"Ġhel":820,"ible":821,"ied":822,"Ġset":823,"--":824,"Ġinte":825,"old":826,"Ġmade":827,"Ġstr":828,"ble":829,"up":830,"de":831,"Ġstill":832,"Ġop":833,"Ġ6":834,"Ġcour":835,"ife":836,"ms":837,"Ġhigh":838,"rest":839,"Ġeff":840,"olog":841,"Ġgoing":842,"),":843,"erson":844,"ular":845,"Ġpar":846,"Ġlead":847,"Ġlaw":848,"Ġma":849,"tain":850,"ility":851,"ful":852,"Ġagainst":853,"ually":854,"ists":855,"its":856,"Ġprodu":857,"Ġtrans":858,"Ġthough":859,"Ġter":860,"ix":861,"Ġprov":862,"Ġhelp":863,"Ġoffic":864,"Ġtake":865,"Ġgovernment":866,"gan":867,"ost":868,"Ġsign":869,"Ġcap":870,"âĢĶ":871,"000":872,"stem":873,"Ġfound":874,"ves":875,"Ġread":876,"Ġcor":877,"Ġins":878,"Ġsch":879,"illion":880,"io":881,"ism":882,"Ġmat":883,"cy":884,"way":885,"Ġsays":886,"ween":887,"Ġpresident":888,".<|":889,"imes":890,"Ġmem":891,"Ġsomet":892,"Ġche":893,"land":894,"Ġnum":895,"Ġbetween":896,"Ġday":897,"Ġbro":898,"led":899,"self":900,"Ġdiffe":901,"Ġgroup":902,"Ġrun":903,"Ġz":904,"Ġsame":905,"Ġthree":906,"Ġgreat":907,"Ġreal":908,"ures":909,"read":910,"Ġpa":911,"Ġcur":912,"Ġspec":913,"ven":914,"Ġsystem":915,"uss":916,"Ġpublic":917,"Ġsince":918,"ton":919,"ution":920,"Ġaut":921,"cent":922,"Ġduring":923,"be":924,"ked":925,"ss":926,"Ġsl":927,"Ġdet":928,"Ġcompan":929,"Ġboth":930,"gg":931,"eral":932,"Ġ10":933,"ames":934,"ying":935,"Ġfollow":936,"Ġret":937,"Ġbig":938,"Ġ7":939,"Ġdr":940,"Ġaround":941,"hip":942,"velop":943,"Ġwom":944,"Ġsupport":945,"ah":946,"Ġsoc":947,"Ġfam":948,"Ġdire":949,"Ġtrump":950,"Ġnor":951,"ives":952,"Ġhand":953,"ph":954,"Ġreally":955,"ork":956,"Ġleg":957,"ather":958,"Ġused":959,"Ġsen":960,"Ġpost":961,"ale":962,"Ġext":963,"ouse":964,"hes":965,"Ġbus":966,"cept":967,"cer":968,"Ġint":969,"Ġconf":970,"cl":971,"ner":972,"Ġmet":973,"Ġcle":974,"ins":975,"Ġexper":976,"Ġdevelop":977,"Ġfact":978,"Ġanother":979,"Ġlet":980,"Ġlar":981,"Ġel":982,"pl":983,"pr":984,"Ġfind":985,"Ġhapp":986,"Ġnews":987,"Ġweek":988,"uc":989,"Ġcre":990,"Ġart":991,"alth":992,"Ġtal":993,"Ġ8":994,"Ġpolit":995,"Ġ0":996,"ger":997,".[":998,"Ġperson":999,"ool":1000,"air":1001,"ient":1002,"min":1003,"Ġput":1004,"az":1005,"Ġcity":1006,"Ġlook":1007,"Ġfar":1008,"Ġcommun":1009,"ax":1010,"ience":1011,"ever":1012,"Ġfil":1013,"ices":1014,"Ġiss":1015,"ave":1016,"Ġmark":1017,"Ġcontin":1018,"Ġuni":1019,"Ġ'":1020,"Ġplan":1021,"Ġmonth":1022,"Ġhome":1023,"Ġloc":1024,"Ġinf":1025,"Ġpower":1026,"bs":1027,"ines":1028,"Ġcamp":1029,"ision":1030,"Ġ9":1031,"Ġfew":1032,"akes":1033,"Ġlot":1034,"Ġlife":1035,"Ġtold":1036,"Ġpri":1037,"Ġopen":1038,"arch":1039,"Ġeach":1040,"ages":1041,"Ġopp":1042,"Ġinvest":1043,"ared":1044,"ically":1045,"Ġdirect":1046,"Ġdist":1047,"Ġsecond":1048,"ds":1049,"Ġadv":1050,"Ġref":1051,"ording":1052,"Ġchild":1053,"Ġhead":1054,"Ġresp":1055,"Ġrequ":1056,"Ġpolice":1057,"Ġbelie":1058,"Ġeng":1059,"iet":1060,"Ġnext":1061,"Ġpass":1062,"Ġpat":1063,"Ġbest":1064,"Ġintern":1065,"ash":1066,"Ġnever":1067,"Ġsomething":1068,"Ġpoint":1069,"Ġhum":1070,"med":1071,"cc":1072,"ata":1073,"Ġmil":1074,"Ġav":1075,"ially":1076,"Ġthings":1077,"Ġval":1078,"Ġvot":1079,"bers":1080,"Ġcome":1081,"Ġrele":1082,"ank":1083,"Ġdifferent":1084,"Ġserv":1085,"ention":1086,"ized":1087,"ute":1088,"Ġgot":1089,"Ġbre":1090,"ĠâĢĺ":1091,"Ġquest":1092,"Ġ.":1093,"view":1094,"ric":1095,"ned":1096,"Ġposs":1097,"ted":1098,"tern":1099,"Ġbar":1100,"Ġtop":1101,"ten":1102,"ets":1103,"erg":1104,"Ġcontro":1105,"Ġtech":1106,"thing":1107,"Ġmight":1108,"ody":1109,"wh":1110,"Ġstates":1111,"ross":1112,"Ġce":1113,"ier":1114,"Ġann":1115,"Ġhowever":1116,"Ġwhy":1117,"anc":1118,"ize":1119,"less":1120,"Ġhard":1121,"Ġcare":1122,"iness":1123,"Ġschool":1124,"ene":1125,"ants":1126,"Ġaccording":1127,"Ġfour":1128,"Ġinform":1129,"Ġnational":1130,"ield":1131,"Ġste":1132,"son":1133,"Ġwithout":1134,"Ġemp":1135,"Ġallow":1136,"line":1137,"br":1138,"Ġhouse":1139,"Ġtri":1140,"Ġra":1141,"Ġstand":1142,"ital":1143,"Ġfeel":1144,"Ġbuild":1145,"ness":1146,"atch":1147,"Ġmus":1148,"20":1149,"Ġsw":1150,"Ġseem":1151,"Ġwin":1152,"Ġincre":1153,"Ġturn":1154,"ittle":1155,"Ġcomple":1156,"Ġpop":1157,"Ġplace":1158,"Ġsk":1159,"Ġpercent":1160,"Ġeu":1161,"gram":1162,"Ġide":1163,"conom":1164,"ired":1165,"Ġimport":1166,"Ġseason":1167,"ret":1168,"Ġlittle":1169,"Ġty":1170,"me":1171,"Ġnumber":1172,"Ġair":1173,"Ġmillion":1174,"Ġmain":1175,"Ġcountry":1176,"Ġdisc":1177,"sh":1178,"Ġproble":1179,"Ġfull":1180,"Ġexpl":1181,"Ġrecent":1182,"Ġincluding":1183,"Ġinterest":1184,"Ġtest":1185,"orn":1186,"sc":1187,"ately":1188,"rat":1189,"mber":1190,"Ġchr":1191,"Ġbeh":1192,"Ġcase":1193,"Ġbetter":1194,"Ġhealth":1195,"Ġless":1196,"Ġpartic":1197,"Ġhar":1198,"Ġwon":1199,"Ġeconom":1200,"Ġes":1201,"Ġrest":1202,"ama":1203,"gress":1204,"Ġprogram":1205,"Ġsol":1206,"Ġkeep":1207,"Ġeas":1208,"ways":1209,"Ġrese":1210,"Ġpay":1211,"Ġtimes":1212,"ling":1213,"Ġusing":1214,"Ġleft":1215,"oney":1216,"osed":1217,"Ġhist":1218,"Ġprev":1219,"iting":1220,"Ġappro":1221,"Ġmove":1222,"Ġprof":1223,"bo":1224,"aim":1225,"ably":1226,"ished":1227,"Ġloo":1228,"Ġattack":1229,"Ġdri":1230,"Ġdata":1231,"ug":1232,"Ġfree":1233,"ark":1234,"ral":1235,"Ġmod":1236,"Ġwomen":1237,"Ġeffect":1238,"Ġface":1239,"Ġlist":1240,"Ġcalled":1241,"Ġgiv":1242,"Ġtechn":1243,"att":1244,"ina":1245,"ised":1246,"Ġmaj":1247,"Ġproject":1248,"hen":1249,"Ġve":1250,"Ġcompany":1251,"ont":1252,"Ġnear":1253,"Ġconst":1254,"Ġele":1255,"ged":1256,"ency":1257,"Ġdidn":1258,"Ġlevel":1259,"Ġclass":1260,"ract":1261,"Ġmiss":1262,"Ġsmall":1263,"ration":1264,"ider":1265,"Ġbusiness":1266,"Ġcurrent":1267,"__":1268,"by":1269,"Ġunivers":1270,"Ġstory":1271,"Ġchange":1272,"Ġorgan":1273,"hn":1274,"Ġvis":1275,"Ġamerican":1276,"Ġlater":1277,"pped":1278,"rence":1279,"Ġmajor":1280,"Ġinformation":1281,"ense":1282,"Ġoper":1283,"Ġprom":1284,"Ġest":1285,"Ġold":1286,"Ġgre":1287,"Ġprocess":1288,"Ġcal":1289,"Ġstre":1290,"Ġdesign":1291,"Ġmen":1292,"Ġunited":1293,"ered":1294,"Ġofficial":1295,"ready":1296,"Ġaff":1297,"ined":1298,"Ġrece":1299,"ains":1300,"'re":1301,"Ġview":1302,"ature":1303,"ology":1304,"hor":1305,"Ġvar":1306,"Ġmoney":1307,"Ġhop":1308,"Ġbit":1309,"ided":1310,"Ġunt":1311,"10":1312,"Ġtoday":1313,"loy":1314,"Ġnet":1315,"Ġpur":1316,"Ġbas":1317,"Ġelect":1318,"Ġ=":1319,"Ġmean":1320,"Ġchang":1321,"ps":1322,"Ġalready":1323,"Ġpress":1324,"inal":1325,"ians":1326,"Ġkill":1327,"Ġedit":1328,"Ġparty":1329,"Ġfore":1330,"Ġalways":1331,"Ġvi":1332,"Ġvide":1333,"Ġexpect":1334,"ertain":1335,"Ġsimp":1336,"Ġmor":1337,"Ġphot":1338,"Ġmust":1339,"ends":1340,"Ġwhite":1341,"Ġmid":1342,"Ġcost":1343,"used":1344,"Ġcourt":1345,"Ġ--":1346,"Ġir":1347,"oss":1348,"ruct":1349,"aw":1350,"Ġhuman":1351,"ok":1352,"Ġx":1353,"Ġthing":1354,"Ġclaim":1355,"no":1356,"stand":1357,"Ġsing":1358,"Ġclear":1359,"Ġfri":1360,"aff":1361,"Ġmr":1362,"Ġblack":1363,"Ġfamily":1364,"Ġrecord":1365,"ars":1366,"Ġdev":1367,"Ġonce":1368,"aign":1369,"tt":1370,"ik":1371,"Ġline":1372,"Ġcoun":1373,"Ġbill":1374,"Ġpast":1375,"Ġpolic":1376,"Ġgrow":1377,"Ġable":1378,"Ġ12":1379,"Ġtell":1380,"Ġ18":1381,"Ġdemoc":1382,"Ġaway":1383,"Ġsocial":1384,"Ġcampaign":1385,"mm":1386,"Ġca":1387,"Ġgames":1388,"Ġwal":1389,"Ġmedia":1390,"outh":1391,"orts":1392,"Ġimportant":1393,"Ġtax":1394,"Ġdays":1395,"ior":1396,"Ġhappen":1397,"Ġsuc":1398,"Ġdoesn":1399,"Ġjohn":1400,"ards":1401,"Ġeuro":1402,"ample":1403,"Ġuntil":1404,"erv":1405,"Ġmaking":1406,"Ġfed":1407,"...":1408,"ural":1409,"acy":1410,"Ġprote":1411,"ured":1412,"Ġrepublic":1413,"Ġdeb":1414,"aph":1415,"ending":1416,"uck":1417,"ury":1418,"und":1419,"Ġlarge":1420,"Ġprop":1421,"Ġkind":1422,"Ġleast":1423,"Ġyet":1424,"Ġant":1425,"Ġnight":1426,"Ġ15":1427,"Ġpolitical":1428,"Ġje":1429,"ney":1430,"Ġformer":1431,"urity":1432,"ional":1433,"ides":1434,"ases":1435,"Ġenough":1436,"Ġworking":1437,"Ġcame":1438,"Ġsit":1439,"Ġsever":1440,"gin":1441,"ained":1442,"gu":1443,"Ġdeal":1444,"Ġever":1445,"Ġyoun":1446,"ley":1447,"Ġgl":1448,"Ġer":1449,"Ġmarket":1450,"Ġgener":1451,"Ġpot":1452,"ird":1453,"Ġhal":1454,"Ġorder":1455,"Ġactually":1456,"ising":1457,"ator":1458,"Ġwater":1459,"Ġopt":1460,"augh":1461,"ality":1462,"ived":1463,"ror":1464,"Ġname":1465,"Ġseveral":1466,"Ġhaving":1467,"Ġlab":1468,"Ġland":1469,"Ġwhether":1470,"Ġreturn":1471,"Ġcolle":1472,"Ġoften":1473,"Ġgive":1474,"Ġsun":1475,"cut":1476,"Ġfut":1477,"Ġperform":1478,"Ġcontrol":1479,"Ġlear":1480,"Ġtook":1481,"Ġevent":1482,"most":1483,"Ġbecome":1484,"Ġearly":1485,"ove":1486,"ister":1487,"Ġfac":1488,"Ġchildren":1489,"ane":1490,"Ġuniversity":1491,"Ġauthor":1492,"âĢ¦":1493,"inc":1494,"Ġamong":1495,"let":1496,"Ġfive":1497,"Ġcrit":1498,"ony":1499,"Ġsal":1500,"Ġruss":1501,"ries":1502,"Ġsure":1503,"Ġequ":1504,"aining":1505,"side":1506,"Ġplayers":1507,"na":1508,"Ġ11":1509,"----":1510,"Ġge":1511,"year":1512,"aps":1513,"ster":1514,"Ġsuper":1515,"ified":1516,"here":1517,"Ġap":1518,"Ġred":1519,"Ġmilit":1520,"Ġcharac":1521,"Ġocc":1522,"not":1523,"Ġsour":1524,"ison":1525,"Ġsecurity":1526,"Ġfre":1527,"vert":1528,"Ġorig":1529,"Ġ199":1530,"ization":1531,"Ġ,":1532,"Ġmeet":1533,"Ġlight":1534,"Ġdoing":1535,"Ġnorth":1536,"que":1537,"Ġmembers":1538,"Ġappear":1539,"icle":1540,"Ġside":1541,"ither":1542,"oot":1543,"Ġshort":1544,"Ġdepart":1545,"Ġvers":1546,"ering":1547,"Ġalong":1548,"Ġpriv":1549,"Ġcommunity":1550,"Ġquestion":1551,"my":1552,"Ġnon":1553,"Ġsep":1554,"Ġinvestig":1555,"els":1556,"Ġsex":1557,"Ġcertain":1558,"ched":1559,"ges":1560,"Ġwithin":1561,"Ġfight":1562,"Ġfuture":1563,"Ġvideo":1564,"aring":1565,"lf":1566,"Ġdra":1567,"Ġseen":1568,"aken":1569,"Ġgiven":1570,"Ġbook":1571,"go":1572,"app":1573,"Ġhold":1574,"Ġactiv":1575,"Ġdemocrat":1576,"ought":1577,"Ġwent":1578,"Ġhour":1579,"Ġdesc":1580,"//":1581,"Ġlocal":1582,"Ġexample":1583,"Ġfur":1584,"Ġlim":1585,"Ġproduct":1586,"ium":1587,"50":1588,"idence":1589,"Ġlove":1590,"Ġyork":1591,"ots":1592,"ories":1593,"work":1594,"Ġsuccess":1595,"Ġban":1596,"Ġdi":1597,"Ġstep":1598,"Ġdone":1599,"Ġgeneral":1600,"Ġlikely":1601,"une":1602,"iously":1603,"Ġeurope":1604,"temp":1605,"Ġyoung":1606,"ones":1607,"Ġviol":1608,"ware":1609,"Ġothers":1610,"Ġconcer":1611,"Ġinvol":1612,"ended":1613,"ball":1614,"Ġobama":1615,"Ġmonths":1616,"Ġ#":1617,"Ġhistory":1618,"Ġfollowing":1619,"Ġcreat":1620,"Ġunderstand":1621,"Ġvict":1622,"Ġavail":1623,"itter":1624,"Ġasked":1625,"ential":1626,"Ġcourse":1627,"Ġfund":1628,"Ġseries":1629,"pro":1630,"Ġfail":1631,"Ġdeath":1632,"ats":1633,"Ġproblem":1634,"ead":1635,"Ġresult":1636,"Ġlow":1637,"11":1638,"Ġpossible":1639,"ilar":1640,"Ġcut":1641,"imate":1642,"Ġresearch":1643,"gether":1644,"ints":1645,"Ġmeans":1646,"Ġacross":1647,"Ġprob":1648,"Ġknown":1649,"Ġmag":1650,"nect":1651,"back":1652,"Ġreason":1653,"ulation":1654,"ubl":1655,"Ġ]":1656,"Ġindust":1657,"Ġthought":1658,"Ġtar":1659,"Ġlive":1660,"Ġgetting":1661,"Ġstrong":1662,"Ġfire":1663,"ague":1664,"Ġoffice":1665,"ler":1666,"urs":1667,"itive":1668,"Ġsouth":1669,"ggest":1670,"19":1671,"Ġsat":1672,"Ġchrist":1673,"Ġsent":1674,"Ġmakes":1675,"ivid":1676,"Ġservice":1677,"nes":1678,"Ġsuggest":1679,"Ġwind":1680,"Ġspace":1681,"Ġ2016":1682,"Ġaddition":1683,"Ġbased":1684,"Ġwatch":1685,"oci":1686,"ourn":1687,"Ġident":1688,"Ġmass":1689,"verage":1690,"Ġhig":1691,"Ġmom":1692,"Ġ&":1693,"Ġcond":1694,"Ġaccess":1695,"Ġreported":1696,"Ġprot":1697,"ued":1698,"Ġanal":1699,"Ġclose":1700,"iving":1701,"Ġbelieve":1702,"Ġrepres":1703,"Ġsix":1704,"ex":1705,"Ġannoun":1706,"Ġtot":1707,"aged":1708,"Ġbad":1709,"Ġexe":1710,"Ġho":1711,"ensive":1712,"Ġstar":1713,"Ġ30":1714,"Ġinstead":1715,"fic":1716,"allen":1717,"Ġdel":1718,"Ġtrad":1719,"Ġkey":1720,"ortun":1721,"Ġple":1722,"Ġspecial":1723,"ances":1724,"Ġfederal":1725,"ien":1726,"Ġalmost":1727,"Ġavailable":1728,"Ġglo":1729,"Ġfood":1730,"book":1731,"itions":1732,"iety":1733,"Ġissue":1734,"ĠÂ":1735,"Ġtogether":1736,"Ġpolicy":1737,"Ġarea":1738,"ults":1739,"Ġsimilar":1740,"Ġjud":1741,"ateg":1742,"lling":1743,"Ġfoot":1744,"Ġassoci":1745,"ript":1746,"Ġparticular":1747,"Ġadded":1748,"ring":1749,"Ġfoc":1750,"Ġimpro":1751,"Ġcust":1752,"Ġden":1753,"ming":1754,"Ġstarted":1755,"Ġlooking":1756,"Ġfig":1757,"port":1758,"leg":1759,"ald":1760,"Ġmult":1761,"'ve":1762,"Ġhalf":1763,"ament":1764,"Ġstat":1765,"pec":1766,"Ġfurther":1767,"Ġinternational":1768,".,":1769,"Ġrather":1770,"Ġ2015":1771,"Ġdou":1772,"Ġlat":1773,"Ġ16":1774,"Ġrights":1775,"Ġrad":1776,"Ġpract":1777,"Ġemploy":1778,"30":1779,"Ġtrying":1780,"rop":1781,"Ġcommit":1782,"Ġep":1783,"ands":1784,"Ġamerica":1785,"Ġisn":1786,"ams":1787,"Ġago":1788,"Ġrul":1789,"Ġsn":1790,"Ġmess":1791,"Ġcomes":1792,"Ġris":1793,"Ġport":1794,"ability":1795,"selves":1796,"Ġexperience":1797,"Ġidea":1798,"Ġjob":1799,"uly":1800,"Ġdepartment":1801,"den":1802,"Ġcomplete":1803,"Ġconsider":1804,"ission":1805,"Ġger":1806,"cher":1807,"bal":1808,"ergy":1809,"ogr":1810,"12":1811,"iter":1812,"ination":1813,"Ġfav":1814,"Ġtry":1815,"Ġdam":1816,"Ġmilitary":1817,"Ġmot":1818,"Ġsus":1819,"Ġanything":1820,"Ġindivid":1821,"utes":1822,"ann":1823,"Ġmind":1824,"Ġenv":1825,"Ġpubl":1826,"Ġtra":1827,"ails":1828,"Ġconnect":1829,"Ġadmin":1830,"Ġplayer":1831,"Ġcop":1832,"aster":1833,"ief":1834,"Ġpresent":1835,"gest":1836,"Ġbene":1837,"Ġcult":1838,"Ġcanad":1839,"ids":1840,"Ġcompet":1841,"Ġwa":1842,"Ġ2014":1843,"Ġhit":1844,"uff":1845,"Ġ14":1846,"Ġstudy":1847,"Ġquick":1848,"Ġbehind":1849,"wards":1850,"Ġproper":1851,"Ġbi":1852,"unch":1853,"Ġfield":1854,"inton":1855,"ron":1856,"ls":1857,"jo":1858,"Ġnothing":1859,"âĢĵ":1860,"Ġsingle":1861,"Ġvir":1862,"Ġang":1863,"Ġpen":1864,"Ġimm":1865,"ference":1866,"Ġconv":1867,"Ġaust":1868,"Ġtaken":1869,"Ġsaying":1870,"rael":1871,"Ġdiscuss":1872,"Ġfront":1873,"Ġindividual":1874,"Ġsomeone":1875,"Ġtemp":1876,"Ġcomb":1877,"Ġcenter":1878,"Ġdom":1879,"Ġprofess":1880,"Ġsumm":1881,"Ġ:":1882,"'m":1883,"yn":1884,"uge":1885,"Ġentire":1886,"Ġsound":1887,"Ġtre":1888,"Ġtur":1889,"Ġ13":1890,"Ġthreat":1891,"though":1892,"Ġdevelopment":1893,"af":1894,"ocu":1895,"Ġfilm":1896,"ators":1897,"Ġfall":1898,"ush":1899,"sw":1900,"Ġstri":1901,"Ġadminist":1902,"aper":1903,"oice":1904,"pping":1905,"Ġnat":1906,"Ġtaking":1907,"lls":1908,"Ġ17":1909,"Ġbring":1910,"Ġsan":1911,"ches":1912,"Ġthird":1913,"su":1914,"che":1915,"Ġcustom":1916,"Ġbody":1917,"ert":1918,"Ġenergy":1919,"Ġfinal":1920,"Ġpret":1921,"Ġ/":1922,"Ġaction":1923,"iron":1924,"Ġwest":1925,"rug":1926,"Ġgun":1927,"hington":1928,"Ġwanted":1929,"Ġeverything":1930,"Ġpet":1931,"amed":1932,"Ġdav":1933,"Ġprobably":1934,"Ġupd":1935,"Ġeither":1936,"Ġtarget":1937,"15":1938,"Ġfeat":1939,"Ġey":1940,"Ġbrit":1941,"Ġclinton":1942,"Ġredu":1943,"Ġchallen":1944,"Ġelse":1945,"Ġpoints":1946,"Ġrev":1947,"Ġattemp":1948,"Ġhope":1949,"Ġcoming":1950,"**":1951,"Ġmusic":1952,"Ġ|":1953,"Ġsecret":1954,"Ġcam":1955,"Ġda":1956,"Ġstop":1957,"Ġinit":1958,"bl":1959,"sy":1960,"Ġbur":1961,"Ġisrael":1962,"Ġrepresent":1963,"Ġball":1964,"Ġmic":1965,"tr":1966,"Ġhy":1967,"Ġcreate":1968,"Ġcand":1969,"erc":1970,"Ġdue":1971,"Ġroom":1972,"Ġenc":1973,"Ġscre":1974,"Ġrelations":1975,"osp":1976,"Ġtit":1977,"ma":1978,"Ġcontinue":1979,"lier":1980,"Ġprotect":1981,"ows":1982,"irc":1983,"Ġbelow":1984,"off":1985,"Ġadvert":1986,"Ġvol":1987,"Ġself":1988,"ify":1989,"://":1990,"Ġcommon":1991,"Ġdescrib":1992,"Ġtrue":1993,"Ġbegin":1994,"Ġsignific":1995,"Ġtreat":1996,"rote":1997,"Ġdesp":1998,"Ġforce":1999,".)":2000,"rict":2001,"Ġdecision":2002,"Ġshare":2003,"Ġofficials":2004,"olution":2005,"Ġuk":2006,"Ġeveryone":2007,"Ġimage":2008,"ana":2009,"Ġmeas":2010,"Ġciv":2011,"Ġbreak":2012,"Ġexist":2013,"play":2014,"cing":2015,"Ġwashington":2016,"Ġleague":2017,"gle":2018,"Ġenviron":2019,"Ġmc":2020,"Ġstudents":2021,"Ġjan":2022,"ov":2023,"Ġargu":2024,"Ġcompanies":2025,"dle":2026,"Ġstreet":2027,"Ġalthough":2028,"fl":2029,"reme":2030,"ai":2031,"Ġleaders":2032,"ww":2033,"Ġ2013":2034,"Ġwhole":2035,"Ġliber":2036,"aces":2037,"Ġboo":2038,"Ġeduc":2039,"Ġdrug":2040,"Ġissues":2041,"Ġmatter":2042,"Ġanim":2043,"attle":2044,"Ġdocu":2045,"ites":2046,"this":2047,"fer":2048,"Ġrole":2049,"Ġur":2050,"Ġwrote":2051,"Ġgir":2052,"Ġbuilding":2053,"Ġneg":2054,"Ġoutside":2055,"Ġinfl":2056,"Ġreview":2057,"body":2058,"Ġseems":2059,"Ġservices":2060,"asing":2061,"Ġcred":2062,"Ġposition":2063,"Ġ)":2064,"Ġcharacter":2065,"head":2066,"Ġcongress":2067,"Ġappe":2068,"like":2069,"Ġabove":2070,"ively":2071,"Ġdiv":2072,"Ġreleased":2073,"Ġmarch":2074,"Ġdest":2075,"Ġcoup":2076,"aut":2077,"wor":2078,"Ġdirector":2079,"Ġaddress":2080,"Ġground":2081,"Ġtyp":2082,"Ġcirc":2083,"atic":2084,"Ġhours":2085,"itted":2086,"pecially":2087,"Ġsimply":2088,"Ġagree":2089,"Ġ2012":2090,"Ġdead":2091,"Ġroad":2092,"Ġpal":2093,"Ġtwitter":2094,"Ġrob":2095,"Ġphys":2096,"Ġstatement":2097,"uation":2098,"mb":2099,"Ġwoman":2100,"lim":2101,"iday":2102,"full":2103,"Ġthin":2104,"Ġinterview":2105,"Ġcy":2106,"ibility":2107,"Ġcode":2108,"Ġbegan":2109,"Ġaud":2110,"Ġversion":2111,"Ġfriends":2112,"16":2113,"Ġrunning":2114,"Ġchina":2115,"Ġ100":2116,"Ġfinanc":2117,"Ġaccount":2118,"Ġ2017":2119,"Ġ25":2120,"Ġspecific":2121,"ws":2122,"lement":2123,"Ġhimself":2124,"Ġprovide":2125,"itch":2126,"Ġrelease":2127,"14":2128,"Ġ198":2129,"Ġcountries":2130,"mon":2131,"ott":2132,"Ġet":2133,"Ġpick":2134,"yle":2135,"Ġeconomic":2136,"Ġsto":2137,"Ġben":2138,"Ġclub":2139,"rodu":2140,"Ġabs":2141,"ades":2142,"Ġage":2143,"Ġevidence":2144,"ender":2145,"Ġitself":2146,"Ġpack":2147,"Ġrespons":2148,"Ġonline":2149,"Ġbecame":2150,"Ġsignificant":2151,"Ġhtt":2152,"Ġthemselves":2153,"ficult":2154,"Ġgerman":2155,"Ġmill":2156,"Ġlegal":2157,"ham":2158,"Ġbenef":2159,"Ġlate":2160,"Ġcivil":2161,"Ġlost":2162,"use":2163,"Ġarticle":2164,"oint":2165,"Ġgoo":2166,"ape":2167,"Ġled":2168,"Ġtotal":2169,"Ġearlier":2170,"Ġelection":2171,"Ġminister":2172,"Ġill":2173,"Ġscient":2174,"Ġgod":2175,"tee":2176,"Ġdifficult":2177,"Ġenvironment":2178,"Ġcheck":2179,"Ġwasn":2180,"Ġindustry":2181,"Ġyes":2182,"Ġgreen":2183,"ilt":2184,"Ġpretty":2185,"Ġtalk":2186,"Ġgroups":2187,"lish":2188,"Ġexc":2189,"Ġtrack":2190,"Ġdespite":2191,"Ġsoon":2192,"'ll":2193,"Ġsaw":2194,"aced":2195,"Ġsource":2196,"time":2197,"Ġinj":2198,"Ġtechnology":2199,"Ġneeds":2200,"Ġanti":2201,"Ġshows":2202,"Ġoct":2203,"ager":2204,"Ġobject":2205,"Ġhost":2206,"Ġplaying":2207,"Ġespecially":2208,"Ġbase":2209,"where":2210,"ili":2211,"Ġcoll":2212,"Ġbank":2213,"ob":2214,"Ġrecently":2215,"Ġconsum":2216,"Ġhor":2217,"ently":2218,"Ġpain":2219,"Ġvalue":2220,"Ġquite":2221,"Ġmur":2222,"angu":2223,"iod":2224,"Ġcandid":2225,"Ġinstit":2226,"Ġneeded":2227,"Ġhill":2228,"Ġnation":2229,"ograph":2230,"Ġglobal":2231,"Ġbud":2232,"Ġsense":2233,"Ġworks":2234,"Ġmov":2235,"ournal":2236,"iding":2237,"ault":2238,"Ġ50":2239,"Ġinclude":2240,"Ġwall":2241,"Ġfacebook":2242,"Ġplayed":2243,"Ġpred":2244,"Ġwed":2245,"Ġrelig":2246,"fully":2247,"ribut":2248,"13":2249,"Ġran":2250,"Ġexpress":2251,"Ġexecut":2252,"key":2253,"Ġbor":2254,"Ġpark":2255,"oud":2256,"Ġaug":2257,"Ġforward":2258,"Ġcapt":2259,"Ġsite":2260,"Ġvote":2261,"Ġbroad":2262,"Ġbillion":2263,"Ġmich":2264,"ee":2265,"Ġshoot":2266,"Ġdecl":2267,"Ġwebs":2268,"Ġmeth":2269,"Ġboard":2270,"Ġforeign":2271,"Ġchanges":2272,"load":2273,"Ġperiod":2274,"Ġstay":2275,"Ġsuff":2276,"Ġver":2277,"Ġpie":2278,"Ġcomput":2279,"Ġri":2280,"ung":2281,"Ġanyone":2282,"por":2283,"ival":2284,"Ġmi":2285,"Ġopportun":2286,"Ġfocus":2287,"Ġ{":2288,"ser":2289,"Ġsold":2290,"Ġweeks":2291,"Ġprim":2292,"istic":2293,"Ġstaff":2294,"Ġsqu":2295,"ried":2296,"ners":2297,"Ġdeter":2298,"Ġmis":2299,"lam":2300,"Ġtele":2301,"Ġapplic":2302,"Ġmoder":2303,"Ġgold":2304,"gn":2305,"Ġaccept":2306,"Ġdig":2307,"Ġsil":2308,"ging":2309,"Ġlog":2310,"lt":2311,"Ġresults":2312,"Ġspeak":2313,"Ġhigher":2314,"Ġprice":2315,"Ġfel":2316,"raft":2317,"Ġmodel":2318,"ode":2319,"Ġblock":2320,"Ġmoment":2321,"Ġconserv":2322,"str":2323,"Ġreve":2324,"ze":2325,"17":2326,"aa":2327,"Ġwrong":2328,"medi":2329,"Ġ24":2330,"epend":2331,"Ġpersonal":2332,"Ġten":2333,"Ġheart":2334,"Ġlonger":2335,"Ġjournal":2336,"Ġrepl":2337,"Ġgoal":2338,"Ġtype":2339,"Ġrepublican":2340,"Ġpotential":2341,"Ġcit":2342,"Ġmiddle":2343,"ns":2344,"you":2345,"Ġfunction":2346,"Ġgoogle":2347,"Ġcomment":2348,"kn":2349,"Ġbal":2350,"ift":2351,"lled":2352,"Ġcontract":2353,"ached":2354,"Ġwords":2355,"Ġdeep":2356,"Ġq":2357,"right":2358,"cle":2359,"____":2360,"itting":2361,"ote":2362,"Ġpopular":2363,"Ġ+":2364,"Ġstru":2365,"ery":2366,"ctor":2367,"Ġking":2368,"Ġsoft":2369,"Ġfavor":2370,"bor":2371,"Ġ<":2372,"Ġchief":2373,"Ġheld":2374,"Ġapr":2375,"Ġprivate":2376,"Ġmal":2377,"Ġminutes":2378,"oph":2379,"Ġrich":2380,"omes":2381,"Ġansw":2382,"Ġemail":2383,"Ġoil":2384,"Ġadministration":2385,"Ġsyri":2386,"18":2387,"mal":2388,"Ġinside":2389,"Ġcapital":2390,"Ġjune":2391,"onse":2392,"do":2393,"rie":2394,"Ġnetwork":2395,"Ġlangu":2396,"Ġcard":2397,"cil":2398,"Ġaw":2399,"oid":2400,"Ġpict":2401,"Ġrate":2402,"Ġoriginal":2403,"Ġmater":2404,"Ġimpact":2405,"Ġhon":2406,"Ġeasy":2407,"Ġterror":2408,"Ġcreated":2409,"Ġcontent":2410,"Ġnearly":2411,"Ġsurpr":2412,"Ġmother":2413,"Ġrock":2414,"Ġbuy":2415,"Ġshot":2416,"Ġrisk":2417,"umb":2418,"Ġengine":2419,"Ġheav":2420,"Ġchur":2421,"Ġtou":2422,"ij":2423,"ients":2424,"Ġfinancial":2425,"Ġlos":2426,"Ġhot":2427,"Ġquestions":2428,"Ġstrateg":2429,"Ġjuly":2430,"Ġliving":2431,"Ġru":2432,"Ġsand":2433,"Ġaustral":2434,"==":2435,"Ġchance":2436,"Ġ*":2437,"Ġrespect":2438,"uary":2439,"Ġtown":2440,"gth":2441,"Ġchamp":2442,"ask":2443,"ilities":2444,"Ġcollege":2445,"Ġscience":2446,"anger":2447,"Ġways":2448,"Ġinternet":2449,"asons":2450,"Ġreceived":2451,"Ġnecess":2452,"Ġleave":2453,"Ġproblems":2454,"Ġut":2455,"arter":2456,"fect":2457,"Ġ2011":2458,"ston":2459,"Ġmond":2460,"lex":2461,"Ġpage":2462,"Ġfair":2463,"Ġexpected":2464,"Ġfem":2465,"action":2466,"Ġber":2467,"lin":2468,"Ġprep":2469,"Ġphone":2470,"25":2471,"Ġincrease":2472,"there":2473,"uel":2474,"apan":2475,"aging":2476,"Ġaverage":2477,"ew":2478,"Ġfans":2479,"Ġrac":2480,"haps":2481,"bc":2482,"Ġsubject":2483,"bit":2484,"Ġcollect":2485,"Ġworkers":2486,"Ġadm":2487,"Ġcurrently":2488,"Ġreports":2489,"Ġcounty":2490,"Ġusers":2491,"Ġcannot":2492,"Ġexact":2493,"val":2494,"Ġdefense":2495,"Ġtrade":2496,"Ġannounced":2497,"Ġoppos":2498,"Ġround":2499,"Ġpers":2500,"Ġresponse":2501,"Ġpan":2502,"cast":2503,"Ġweap":2504,"Ġremem":2505,"Ġ@":2506,"Ġamount":2507,"Ġindepend":2508,"Ġworth":2509,"ude":2510,"bi":2511,"Ġfriday":2512,"isl":2513,"Ġearth":2514,"iple":2515,"Ġrom":2516,"Ġeast":2517,"Ġapril":2518,"Ġregard":2519,"Ġdisco":2520,"Ġinvolved":2521,"Ġword":2522,"hood":2523,"Ġmethod":2524,"bert":2525,"ires":2526,"ny":2527,"Ġmember":2528,"Ġmicro":2529,"Ġrelationship":2530,"Ġdavid":2531,"Ġfather":2532,"Ġ197":2533,"Ġbat":2534,"mer":2535,"ogn":2536,"Ġtext":2537,"Ġnote":2538,"Ġcases":2539,"Ġestab":2540,"Ġfinally":2541,"itten":2542,"Ġtues":2543,"Ġsociety":2544,"Ġren":2545,"hern":2546,"Ġdre":2547,"Ġpublished":2548,"Ġarrest":2549,"Ġimmedi":2550,"rupt":2551,"Ġphoto":2552,"but":2553,"light":2554,"Ġfriend":2555,"oke":2556,"Ġcentral":2557,"Ġkilled":2558,"ray":2559,"Ġdefin":2560,"Ġadvertise":2561,"llig":2562,"Ġrequest":2563,"Ġson":2564,"Ġlives":2565,"Ġmonday":2566,"60":2567,"Ġtuesday":2568,"Ġrespond":2569,"Ġcross":2570,"Ġperhaps":2571,"Ġmedical":2572,"Ġspok":2573,"Ġphil":2574,"reg":2575,"duct":2576,"Ġmaybe":2577,"Ġunion":2578,"Ġrussia":2579,"Ġjapan":2580,"Ġintrodu":2581,"Ġrace":2582,"Ġpaul":2583,"atives":2584,"vered":2585,"omm":2586,"asc":2587,"Ġdro":2588,"Ġmaterial":2589,"Ġgeor":2590,"Ġ2010":2591,"Ġlink":2592,"verse":2593,"sp":2594,"Ġability":2595,"ino":2596,"Ġamericans":2597,"Ġcamer":2598,"Ġterms":2599,"Ġleader":2600,"Ġcommittee":2601,"Ġlack":2602,"fr":2603,"Ġtakes":2604,"Ġlegisl":2605,"lly":2606,"Ġtool":2607,"Ġparticip":2608,"Ġworked":2609,"izing":2610,"ãģ":2611,"Ġperformance":2612,"Ġinflu":2613,"Ġmach":2614,"tember":2615,"Ġevents":2616,"Ġcalif":2617,"Ġvisit":2618,"Ġcolor":2619,"ese":2620,"put":2621,"Ġdece":2622,"Ġsimple":2623,"Ġrequire":2624,"Ġ40":2625,"ops":2626,"Ġweb":2627,"Ġteams":2628,"Ġtravel":2629,"ises":2630,"Ġforces":2631,"ored":2632,"unt":2633,"Ġfeb":2634,"Ġarri":2635,"what":2636,"based":2637,"face":2638,"omb":2639,"net":2640,"ological":2641,"Ġjustice":2642,"ael":2643,"Ġdeli":2644,"rents":2645,"Ġvia":2646,"clus":2647,"Ġcouncil":2648,"Ġsometimes":2649,"Ġplans":2650,"Ġgoes":2651,"Ġtro":2652,"Ġunf":2653,"Ġmeeting":2654,"Ġtv":2655,"Ġdecided":2656,"Ġhappened":2657,"Ġprogress":2658,"Ġgave":2659,"Ġconfir":2660,"vember":2661,"Ġoffer":2662,"Ġcorre":2663,"Ġindic":2664,"Ġmatch":2665,"Ġwebsite":2666,"Ġproduction":2667,"Ġcover":2668,"uth":2669,"Ġthous":2670,"orm":2671,"xic":2672,"Ġrecogn":2673,"down":2674,"Ġsituation":2675,"ips":2676,"Ġenjo":2677,"Ġmovement":2678,"Ġsong":2679,"Ġlower":2680,"Ġlin":2681,"Ġclos":2682,"Ġchurch":2683,"Ġjanuary":2684,"Ġaffect":2685,"Ġarch":2686,"Ġbox":2687,"Ġhuge":2688,"Ġcitiz":2689,"Ġseptember":2690,"Ġcareer":2691,"Ġmer":2692,"Ġmorning":2693,"Ġislam":2694,"Ġbir":2695,"Ġwhose":2696,"Ġeducation":2697,"Ġess":2698,"Ġbehav":2699,"Ġcontact":2700,"ober":2701,"Ġ21":2702,"Ġask":2703,"Ġrepe":2704,"Ġimprove":2705,"Ġpull":2706,"Ġtradition":2707,"aming":2708,"gen":2709,"set":2710,"Ġamaz":2711,"Ġnumbers":2712,"Ġagency":2713,"Ġimages":2714,"Ġareas":2715,"Ġvictim":2716,"aled":2717,"nesday":2718,"Ġarm":2719,"Ġmanage":2720,"Ġturned":2721,"Ġeconomy":2722,"Ġnovember":2723,"Ġ22":2724,"Ġthurs":2725,"Ġapproach":2726,"oring":2727,"Ġ}":2728,"ctions":2729,"Ġneigh":2730,"ruction":2731,"Ġcommission":2732,"Ġfast":2733,"Ġafric":2734,"Ġdemocratic":2735,"Ġfear":2736,"ky":2737,"Ġwide":2738,"\".":2739,"Ġwednesday":2740,"ha":2741,"Ġbuilt":2742,"Ġspeed":2743,"Ġcast":2744,"Ġcouple":2745,"Ġloss":2746,"Ġintellig":2747,"Ġsearch":2748,"Ġdark":2749,"Ġult":2750,"Ġthursday":2751,"Ġaugust":2752,"Ġcoach":2753,"Ġplease":2754,"Ġperfect":2755,"Ġtim":2756,"Ġtable":2757,"Ġquickly":2758,"ety":2759,"Ġhosp":2760,"Ġfelt":2761,"ker":2762,"Ġprevious":2763,"pa":2764,"Ġque":2765,"Ġeuropean":2766,"Ġcat":2767,"Ġsett":2768,"istan":2769,"force":2770,"Ġsepar":2771,"Ġconstit":2772,"Ġupon":2773,"Ġtraining":2774,"Ġplat":2775,"Ġemerg":2776,"Ġoctober":2777,"Ġveh":2778,"\",":2779,"Ġsaf":2780,"Ġfix":2781,"Ġcaliforn":2782,"Ġleav":2783,"Ġcru":2784,"40":2785,"over":2786,"Ġprior":2787,"Ġstruct":2788,"Ġheard":2789,"Ġcanada":2790,"Ġach":2791,"Ġye":2792,"Ġham":2793,"Ġâ":2794,"Ġclimate":2795,"Ġbritish":2796,"Ġincluded":2797,"ening":2798,"Ġlearn":2799,"Ġcause":2800,"Ġtor":2801,"Ġjack":2802,"atory":2803,"Ġsunday":2804,"Ġsurve":2805,"Ġrules":2806,"Ġresour":2807,"Ġbattle":2808,"rain":2809,"Ġgrowth":2810,"Ġvarious":2811,"Ġallowed":2812,"ume":2813,"Ġprem":2814,"ÂŃ":2815,"--------":2816,"Ġgets":2817,"Ġpopulation":2818,"Ġhands":2819,"Ġspent":2820,"Ġflo":2821,"Ġwants":2822,"Ġreach":2823,"Ġsize":2824,"Ġfa":2825,"Ġobv":2826,"Ġ23":2827,"Ġresident":2828,"Ġmob":2829,"Ġknew":2830,"Ġfootball":2831,"Ġdemon":2832,"Ġblood":2833,"Ġsystems":2834,"Ġlooks":2835,"Ġgrand":2836,"Ġmodern":2837,"iction":2838,"Ġhur":2839,"orters":2840,"Ġcommunic":2841,"Ġgar":2842,"ground":2843,"uses":2844,"Ġcalifornia":2845,"Ġseven":2846,"Ġuser":2847,"Ġhistor":2848,"Ġrelated":2849,"Ġsens":2850,"Ġfeatures":2851,"?âĢĿ":2852,"ees":2853,"Ġtried":2854,"'d":2855,"iff":2856,"Ġattention":2857,"Ġrussian":2858,"Ġimmig":2859,"Ġgra":2860,"Ġprotest":2861,"estern":2862,"Ġguy":2863,"ishing":2864,"Ġregular":2865,"Ġcrim":2866,"Ġlanguage":2867,"Ġjobs":2868,"Ġtom":2869,"hold":2870,"âĢĿ.":2871,"bt":2872,"Ġens":2873,"rem":2874,"hel":2875,"Ġbey":2876,"Ġpsy":2877,"Ġdemand":2878,"Ġcorpor":2879,"Ġsenate":2880,"Ġpaper":2881,"Ġcommand":2882,"Ġnatural":2883,"Ġconc":2884,"ceed":2885,"Ġlatest":2886,"Ġsatur":2887,"ession":2888,"field":2889,"Ġkore":2890,"Ġtour":2891,"sequ":2892,"Ġmention":2893,"Ġinvestigation":2894,"Ġbrought":2895,"Ġdecember":2896,"Ġfigure":2897,"Ġtalking":2898,"][":2899,"Ġinteresting":2900,"Ġsummer":2901,"Ġslow":2902,"Ġdaily":2903,"Ġsafe":2904,"Ġstra":2905,"Ġbott":2906,"isc":2907,"ibly":2908,"Ġanalys":2909,"Ġgas":2910,"Ġalle":2911,"Ġpurp":2912,"Ġassist":2913,"Ġhear":2914,"Ġil":2915,"that":2916,"sa":2917,"Ġ...":2918,");":2919,"arily":2920,"Ġwritten":2921,"Ġconference":2922,"chers":2923,"Ġnar":2924,"idered":2925,"undred":2926,"Ġtex":2927,"Ġwat":2928,"Ġstrugg":2929,"Ġcopy":2930,"Ġdocument":2931,"Ġsexual":2932,"Ġisland":2933,"bed":2934,"Ġstandard":2935,"Ġachie":2936,"Ġparents":2937,"Ġremember":2938,"gers":2939,"ban":2940,"Ġexcept":2941,"99":2942,"ondon":2943,"Ġira":2944,"ucle":2945,"Ġadvertisement":2946,"iment":2947,"Ġsurv":2948,"Ġrange":2949,"Ġmajority":2950,"Ġselect":2951,"ened":2952,"Ġindia":2953,"Ġskill":2954,"ech":2955,"Ġdoll":2956,"Ġviolence":2957,"Ġcritic":2958,"Ġlevels":2959,"Ġstore":2960,"rown":2961,"Ġconsidered":2962,"Ġhol":2963,"Ġeight":2964,"Ġmount":2965,"Ġsort":2966,"Ġinstall":2967,"Ġstarting":2968,"Ġstories":2969,"Ġbra":2970,"Ġofficer":2971,"come":2972,"Ġlay":2973,"Ġbeyond":2974,"ille":2975,"Ġofficers":2976,"xim":2977,"Ġarmy":2978,"Ġextreme":2979,"ledge":2980,"Ġregul":2981,"Ġok":2982,"Ġmovie":2983,"Ġbudget":2984,"Ġquarter":2985,"Ġpath":2986,"Ġfreed":2987,"Ġmart":2988,"Ġhundred":2989,"uf":2990,"Ġresear":2991,"icles":2992,"uk":2993,"Ġwild":2994,"Ġincreasing":2995,"Ġreading":2996,"Ġiran":2997,"Ġextra":2998,"Ġdisp":2999,"Ġconduct":3000,"Ġspokes":3001,"Ġblue":3002,"Ġfile":3003,"Ġmessage":3004,"Ġdan":3005,"Ġdetails":3006,"Ġhttp":3007,"Ġcertainly":3008,"pper":3009,"Ġcontinued":3010,"Ġprison":3011,"Ġboy":3012,"just":3013,"aries":3014,"Ġ2008":3015,"Ġcomments":3016,"Ġprevent":3017,"Ġcredit":3018,"Ġserious":3019,"ification":3020,"Ġmuslim":3021,"rit":3022,"Ġaren":3023,"Ġdog":3024,"Ġopportunity":3025,"Ġanswer":3026,"Ġfill":3027,"they":3028,"Ġhall":3029,"Ġregion":3030,"Ġsafety":3031,"wing":3032,"Ġspot":3033,"idge":3034,"Ġbrown":3035,"Ġincident":3036,"bar":3037,"Ġdate":3038,"Ġcup":3039,"Ġhous":3040,"Ġimag":3041,"Ġdonald":3042,"ken":3043,"Ġfly":3044,"Ġiraq":3045,"Ġeffort":3046,"Ġlondon":3047,"Ġment":3048,"Ġquality":3049,"Ġexactly":3050,"ida":3051,"Ġepis":3052,"ruary":3053,"Ġjoin":3054,"Ġblog":3055,"Ġmichael":3056,"Ġpractice":3057,"Ġband":3058,"Ġdamage":3059,"Ġbrother":3060,"cies":3061,"Ġclaims":3062,"Ġwriting":3063,"Ġculture":3064,"Ġenjoy":3065,"Ġcompletely":3066,"Ġcarry":3067,"Ġsaturday":3068,"Ġtrust":3069,"room":3070,"Ġdrive":3071,"Ġparticularly":3072,"200":3073,"Ġexecutive":3074,"Ġcra":3075,"Ġswe":3076,"Ġ2009":3077,"Ġrap":3078,"Ġproducts":3079,"Ġattacks":3080,"Ġnucle":3081,"Ġ28":3082,"Ġitem":3083,"Ġ27":3084,"Ġstuff":3085,"Ġorganization":3086,"mar":3087,"Ġsoftware":3088,"Ġpoor":3089,"Ġdistrict":3090,"Ġchoo":3091,"Ġcrow":3092,"Ġcontr":3093,"Ġbiggest":3094,"Ġdanger":3095,"Ġthroughout":3096,"Ġnature":3097,"Ġcompl":3098,"Ġconvers":3099,"Ġmac":3100,"Ġsche":3101,"Ġintelligence":3102,"Ġrequired":3103,"Ġremain":3104,"Ġdie":3105,"Ġadditional":3106,"Ġmedic":3107,"kes":3108,"Ġmultiple":3109,"Ġpaid":3110,"Ġapple":3111,"Ġguard":3112,"Ġexperien":3113,"Ġstudent":3114,"rences":3115,"Ġleading":3116,"men":3117,"Ġjames":3118,"Ġwrite":3119,"Ġjer":3120,"Ġsle":3121,"Ġcrime":3122,"Ġfebruary":3123,"22":3124,"Ġtwe":3125,"Ġgiving":3126,"lebr":3127,"Ġusually":3128,"phone":3129,"Ġprime":3130,"rench":3131,"Ġpsych":3132,"Ġkids":3133,"new":3134,"hib":3135,"Ġrepublicans":3136,"entially":3137,"Ġterm":3138,"Ġchanged":3139,"iant":3140,"ension":3141,"zz":3142,"sec":3143,"Ġgrowing":3144,"ĠâĢ¦":3145,"ences":3146,"Ġclean":3147,"ago":3148,"rel":3149,"Ġid":3150,"Ġchair":3151,"Ġones":3152,"Ġplatform":3153,"inese":3154,"ux":3155,"anced":3156,"Ġnamed":3157,"isions":3158,"Ġready":3159,"rend":3160,"ously":3161,"Ġ26":3162,"Ġmad":3163,"aught":3164,"Ġbrain":3165,"iers":3166,"Ġlooked":3167,"oming":3168,"Ġ>":3169,"Ġpurch":3170,"Ġcounter":3171,"Ġparts":3172,"Ġthinking":3173,"Ġcosts":3174,"Ġoverall":3175,"Ġwonder":3176,"lied":3177,"Ġprovided":3178,"Ġvoters":3179,"ba":3180,"Ġdescribed":3181,"Ġbooks":3182,"Ġimplement":3183,"Ġjudge":3184,"Ġbab":3185,"Ġorigin":3186,"Ġeffects":3187,"Ġcentury":3188,"Ġreality":3189,"Ġsmart":3190,"icks":3191,"Ġcris":3192,"Ġattor":3193,"Ġtitle":3194,"Ġcelebr":3195,"Ġincreased":3196,"Ġpun":3197,"Ġoh":3198,"Ġoccur":3199,"Ġprinc":3200,"Ġremains":3201,"Ġlaws":3202,"Ġfreedom":3203,"coin":3204,"Ġrecomm":3205,"oper":3206,"ford":3207,"Ġchoice":3208,"Ġshowed":3209,"Ġwestern":3210,"ounts":3211,"Ġthus":3212,"Ġcomplex":3213,"Ġhospital":3214,"Ġmaintain":3215,"Ġbrand":3216,"Ġsports":3217,"bur":3218,"Ġwouldn":3219,"Ġeventually":3220,"Ġvill":3221,"Ġspeech":3222,"Ġfal":3223,"rew":3224,"more":3225,"Ġtexas":3226,"Ġpoll":3227,"80":3228,"Ġcalls":3229,"Ġsyn":3230,"Ġguys":3231,"acher":3232,"fort":3233,"Ġletter":3234,"Ġfan":3235,"Ġfit":3236,"Ġcomputer":3237,"Ġconcept":3238,"how":3239,"Ġhappy":3240,"omp":3241,"Ġstage":3242,"24":3243,"Ġtouch":3244,"aker":3245,"Ġefforts":3246,"la":3247,"ipe":3248,"Ġthousands":3249,"Ġalone":3250,"Ġdied":3251,"Ġnom":3252,"Ġchinese":3253,"Ġconsist":3254,"Ġcry":3255,"Ġsenior":3256,"Ġimmediately":3257,"Ġreb":3258,"Ġeth":3259,"het":3260,"utions":3261,"ables":3262,"Ġlaunch":3263,"Ġthanks":3264,"Ġpropos":3265,"akers":3266,"Ġtowards":3267,"Ġopin":3268,"Ġprec":3269,"Ġanalysis":3270,"ris":3271,"Ġspir":3272,"Ġgone":3273,"Ġlimited":3274,"Ġstudies":3275,"Ġlabor":3276,"Ġscene":3277,"Ġnuclear":3278,"Ġpow":3279,"Ġscreen":3280,"Ġwilli":3281,"Ġmix":3282,"ii":3283,"Ġinde":3284,"....":3285,"yl":3286,"Ġpeace":3287,"while":3288,"Ġsubst":3289,"Ġincludes":3290,"Ġindian":3291,"Ġmoving":3292,"Ġcitizens":3293,"Ġwife":3294,"Ġdirectly":3295,"Ġdesigned":3296,"Ġpresidential":3297,"round":3298,"Ġcouldn":3299,"Ġproperty":3300,"Ġperm":3301,"Ġmanager":3302,"Ġaltern":3303,"chan":3304,"Ġsecretary":3305,"arent":3306,"Ġnav":3307,"using":3308,"Ġdemocrats":3309,"Ġanaly":3310,"Ġ(@":3311,"Ġautom":3312,"Ġahead":3313,"craft":3314,"zy":3315,"Ġder":3316,"Ġdebate":3317,"Ġbow":3318,"Ġcool":3319,"Ġdraft":3320,"Ġpiece":3321,"Ġstation":3322,"Ġlen":3323,"Ġalb":3324,"Ġarg":3325,"Ġreform":3326,"Ġtoward":3327,"Ġesc":3328,"Ġschools":3329,"Ġgrad":3330,"see":3331,"Ġpressure":3332,"Ġtruth":3333,"ari":3334,"agon":3335,"Ġbeginning":3336,"Ġrelative":3337,"ev":3338,"Ġpolitics":3339,"tered":3340,"dr":3341,"Ġic":3342,"berg":3343,"aur":3344,"arian":3345,"wise":3346,"Ġcompared":3347,"Ġmeaning":3348,"Ġlic":3349,"Ġhero":3350,"well":3351,"apt":3352,"Ġstren":3353,"Ġdise":3354,"ci":3355,"Ġeyes":3356,"Ġreceive":3357,"hest":3358,"aches":3359,"Ġdevice":3360,"Ġcontribut":3361,"Ġ60":3362,"pir":3363,"Ġapparent":3364,"Ġupdate":3365,"Ġfamil":3366,"Ġpassed":3367,"23":3368,"Ġestim":3369,"Ġmoved":3370,"Ġdisapp":3371,"Ġaim":3372,"Ġsave":3373,"Ġsuspect":3374,"Ġapart":3375,"Ġconditions":3376,"vision":3377,"Ġcharacters":3378,"Ġwood":3379,"ties":3380,"Ġsup":3381,"Ġappears":3382,"wood":3383,"Ġenter":3384,"Ġradio":3385,"Ġalleged":3386,"Ġreasons":3387,"astic":3388,"ga":3389,"Ġresources":3390,"Ġthrow":3391,"Ġbeaut":3392,"mo":3393,"Ġreligious":3394,"Ġphysical":3395,"Ġfrench":3396,"Ġhelped":3397,"olute":3398,"Ġchampions":3399,"icient":3400,"adem":3401,"Ġnice":3402,"Ġchallenge":3403,"Ġexch":3404,"atever":3405,"Ġfeed":3406,"enty":3407,"Ġfailed":3408,"box":3409,"Ġangel":3410,"Ġdifference":3411,"ller":3412,"Ġminor":3413,"Ġassociated":3414,"Ġenglish":3415,"dd":3416,"aughter":3417,"ression":3418,"Ġsales":3419,"iders":3420,"Ġbeat":3421,"Ġconservative":3422,"Ġencour":3423,"Ġmyself":3424,"Ġrefer":3425,"Ġdeg":3426,"Ġunlike":3427,"Ġrule":3428,"Ġpositive":3429,"arm":3430,"Ġcandidate":3431,"Ġcriminal":3432,"Ġvoice":3433,"ero":3434,"Ġdigital":3435,"Ġwindows":3436,"Ġincome":3437,"Ġpowerful":3438,"Ġtraff":3439,"ado":3440,"Ġlif":3441,"Ġdisplay":3442,"Ġtreatment":3443,"cont":3444,"Ġfeature":3445,"Ġcore":3446,"Ġfamilies":3447,"anch":3448,"?\"":3449,"Ġlaun":3450,"Ġclearly":3451,"Ġphotos":3452,"Ġposted":3453,"rim":3454,"ste":3455,"Ġmist":3456,"Ġms":3457,"Ġspending":3458,"rief":3459,"dom":3460,"Ġvirt":3461,"Ġice":3462,"Ġcrisis":3463,"ĠÐ":3464,"Ġforced":3465,"Ġ29":3466,"Ġsources":3467,"Ġshown":3468,"Ġeye":3469,"Ġindependent":3470,"Ġcoal":3471,"Ġsection":3472,"Ġhen":3473,"ta":3474,"inary":3475,"Ġtrip":3476,"Ġweapons":3477,"Ġgreater":3478,"Ġrand":3479,"Ġfrequ":3480,"Ġpromot":3481,"Ġnecessary":3482,"Ġpus":3483,"Ġlargest":3484,"Ġmap":3485,"Ġaustralia":3486,"Ġmexic":3487,"Ġilleg":3488,"Ġsyria":3489,"Ġrecords":3490,"Ġresearchers":3491,"Ġfirm":3492,"Ġnort":3493,"Ġrare":3494,"resh":3495,"Ġpreviously":3496,"Ġsmith":3497,"Ġflor":3498,"Ġrub":3499,"erve":3500,"roy":3501,"tw":3502,"Ġbay":3503,"Ġavoid":3504,"inated":3505,"Ġshut":3506,"Ġsusp":3507,"Ġdetail":3508,"Ġminim":3509,"Ġactions":3510,"Ġdoor":3511,"Ġideas":3512,"27":3513,"Ġmanagement":3514,"Ġmeant":3515,"Ġoption":3516,"Ġacadem":3517,"ufact":3518,"Ġsend":3519,"Ġsout":3520,"Ġweight":3521,"band":3522,"Ġpros":3523,"board":3524,"Ġ196":3525,"Ġdut":3526,"Ġyourself":3527,"Ġfollowed":3528,"Ġsea":3529,"Ġintegr":3530,"Ġeasily":3531,"Ġcustomers":3532,"reed":3533,"Ġconflic":3534,"Ġassociation":3535,"Ġcharge":3536,"Ġfat":3537,"Ġgoals":3538,"venue":3539,"Ġwhatever":3540,"Ġattempt":3541,"Ġsigned":3542,"aling":3543,"ville":3544,"Ġallows":3545,"ram":3546,"Ġfine":3547,"Ġunique":3548,"Ġgives":3549,"iles":3550,"itation":3551,"Ġbenefits":3552,"da":3553,"Ġprimary":3554,"ĠÂ£":3555,"Ġgeorge":3556,"Ġinsur":3557,"Ġliter":3558,"Ġprint":3559,"Ġremo":3560,"Ġmanufact":3561,"Ġgirl":3562,"Ġpolitic":3563,"aint":3564,"Ġmeasure":3565,"Ġuses":3566,"45":3567,"35":3568,"Ġprojects":3569,"Ġbasic":3570,"ope":3571,"Ġexpand":3572,"Ġdecades":3573,"Ġindividuals":3574,"Ġmission":3575,"ube":3576,"Ġlines":3577,"Ġwel":3578,"Ġknowledge":3579,"Ġappeared":3580,"Ġstatus":3581,"han":3582,"Ġken":3583,"Ġfighting":3584,"don":3585,"):":3586,"Ġcorrect":3587,"Ġcities":3588,"Ġgermany":3589,"Ġattorney":3590,"Ġcell":3591,"Ġsho":3592,"aly":3593,"Ġrise":3594,"Ġwait":3595,"Ġdeveloped":3596,"Ġstraight":3597,"Ġcontinues":3598,"Ġagreement":3599,"ivity":3600,"ki":3601,"Ġauthorities":3602,"Ġchristian":3603,"ressed":3604,"Ġspread":3605,"Ġthank":3606,"Ġshar":3607,"with":3608,"cul":3609,"Ġsam":3610,"Ġborder":3611,"secut":3612,"Ġdetermin":3613,"encies":3614,"Ġnormal":3615,"Ġfort":3616,"Ġenem":3617,"Ġadvant":3618,"Ġpicture":3619,"26":3620,"yal":3621,"Ġbitcoin":3622,"Ġfully":3623,"Ġarab":3624,"Ġadding":3625,"Ġhun":3626,"Ġplant":3627,"Ġalex":3628,"Ġactivity":3629,"Ġprograms":3630,"Ġemot":3631,"eth":3632,"Ġord":3633,"Ġjump":3634,"Ġabsolute":3635,"Ġnoted":3636,"iny":3637,"Ġhighly":3638,"Ġrates":3639,"Ġlarger":3640,"gy":3641,"ĠâĢ¢":3642,"Ġscen":3643,"Ġsuccessful":3644,"Ġprofessor":3645,"áĦ":3646,"áħ":3647,"Ġfox":3648,"Ġfemale":3649,"Ġvan":3650,"Ġfavorite":3651,"Ġalbum":3652,"Ġwit":3653,"Ġqual":3654,"Ġvari":3655,"Ġoptions":3656,"Ġshooting":3657,"onents":3658,"Ġorganiz":3659,"Ġplaces":3660,"oti":3661,"rant":3662,"ota":3663,"Ġmarri":3664,"Ġreached":3665,"Ġry":3666,"nov":3667,"sey":3668,"vin":3669,"Ġconstitution":3670,"Ġlou":3671,"itely":3672,"Ġamb":3673,"Ġpm":3674,"rs":3675,"Ġattract":3676,"Ġowners":3677,"Ġscott":3678,"Ġbirth":3679,"Ġchic":3680,"Ġstyle":3681,"Ġtraffic":3682,"Ġpartners":3683,"Ġgrant":3684,"Ġload":3685,"Ġobser":3686,"Ġemployees":3687,"Ġmechan":3688,"Ġcalling":3689,"Ġenforce":3690,"part":3691,"Ġfoundation":3692,"Ġfeet":3693,"Ġtrou":3694,"pri":3695,"ara":3696,"Ġvac":3697,"Ġjew":3698,"bon":3699,"Ġseemed":3700,"ares":3701,"Ġsell":3702,"Ġpredict":3703,"Ġtraditional":3704,"Ġtransport":3705,"Ġcreating":3706,"Ġhom":3707,"Ġkick":3708,"Ġprices":3709,"Ġkept":3710,"Ġseeing":3711,"Ġoperations":3712,"Ġpit":3713,"Ġreflect":3714,"Ġmobile":3715,"wide":3716,"Ġindeed":3717,"Ġhaven":3718,"add":3719,"Ġflight":3720,"Ġrat":3721,"orter":3722,"oul":3723,"Ġpush":3724,"Ġund":3725,"Ġtick":3726,"Ġnames":3727,"ption":3728,"Ġknows":3729,"Ġapplication":3730,"ocked":3731,"alled":3732,"Ġnotes":3733,"iced":3734,"Ġrevolution":3735,"Ġacqu":3736,"Ġsubsc":3737,"28":3738,"Ġspend":3739,"hi":3740,"Ġfunding":3741,"Ġclick":3742,"Ġtas":3743,"po":3744,"Ġchann":3745,"Ġdownload":3746,"Ġrefe":3747,"Ġmel":3748,"Ġpatients":3749,"Ġdetect":3750,"Ġlibr":3751,"29":3752,"Ġfranc":3753,"Ġneighbor":3754,"Ġeditor":3755,"term":3756,"Ġgal":3757,"Ġbehavior":3758,"Ġtherefore":3759,"nel":3760,"Ġbush":3761,"Ġengland":3762,"Ġ2007":3763,"Ġmcc":3764,"Ġbrief":3765,"Ġtelevision":3766,"Ġstrategy":3767,"ented":3768,"oth":3769,"Ġcaused":3770,"Ġhillary":3771,"Ġclaimed":3772,"dered":3773,"onent":3774,"Ġbeg":3775,"Ġdrop":3776,"pm":3777,"Ġweekend":3778,"Ġfant":3779,"Ġdouble":3780,"Ġbul":3781,"Ġchoose":3782,"nn":3783,"Ġelectric":3784,"Ġec":3785,"usion":3786,"Ġfrank":3787,"Ġpolicies":3788,"Ġcharges":3789,"Ġended":3790,"Ġwilling":3791,"Ġconcerns":3792,"ady":3793,"Ġhus":3794,"Ġslight":3795,"Ġnone":3796,"Ġleaving":3797,"Ġwalk":3798,"Ġopposition":3799,"Ġraised":3800,"mark":3801,"lection":3802,"olic":3803,"pre":3804,"Ġsupposed":3805,"Ġspeaking":3806,"roid":3807,"Ġlawy":3808,"Ġtheory":3809,"Ġriver":3810,"Ġchem":3811,"Ġhappens":3812,"Ġmostly":3813,"Ġteacher":3814,"Ġcars":3815,"Ġflorida":3816,"Ġlearning":3817,"Ġfif":3818,"Ġvalues":3819,"Ġadvoc":3820,"Ġbed":3821,"âĢĿ,":3822,"Ġactual":3823,"when":3824,"Ġheavy":3825,"Ġcas":3826,"Ġtrain":3827,"Ġcritical":3828,"Ġdemonstr":3829,"Ġmachine":3830,"Ġaward":3831,"Ġdefend":3832,"100":3833,"Ġresidents":3834,"antly":3835,"uana":3836,"Ġmemory":3837,"Ġepisode":3838,"Ġscientists":3839,"Ġkid":3840,"ribution":3841,"Ġstock":3842,"Ġborn":3843,"Ġexam":3844,"Ġcrowd":3845,"ox":3846,"Ġensure":3847,"Ġmale":3848,"soft":3849,"Ġadop":3850,"vere":3851,"Ġtrib":3852,"Ġsud":3853,"ocks":3854,"Ġchicago":3855,"Ġvs":3856,"Ġnine":3857,"Ġmike":3858,"amples":3859,"Ġhack":3860,"rian":3861,"Ġmiles":3862,"Ġestabl":3863,"70":3864,"Ġfrance":3865,"Ġsky":3866,"Ġinvestment":3867,"Ġparties":3868,".âĢĻ":3869,"Ġmassive":3870,"Ġprotection":3871,"Ġoffered":3872,"Ġdevices":3873,"21":3874,"ounds":3875,"Ġbag":3876,"ijuana":3877,"Ġspring":3878,"Ġtemper":3879,"Ġopening":3880,"Ġrevealed":3881,"can":3882,"Ġdu":3883,"iled":3884,"ona":3885,"Ġfeeling":3886,"Ġfarm":3887,"Ġcro":3888,"Ġjun":3889,"rency":3890,"Ġflag":3891,"Ġlearned":3892,"33":3893,"Ġdebt":3894,"Ġcommerc":3895,"Ġnegoti":3896,"Ġarrested":3897,"Ġhundreds":3898,"bre":3899,"www":3900,"itude":3901,"Ġign":3902,"Ġship":3903,"Ġreact":3904,"Ġcondition":3905,"ae":3906,"Ġbomb":3907,".'":3908,"Ġcoast":3909,"Ġsleep":3910,"Ġlocation":3911,"Ġnations":3912,"Ġgenerally":3913,"Ġinfluence":3914,"Ġworse":3915,"Ġgay":3916,"Ġsolid":3917,"Ġplus":3918,"itor":3919,"Ġpattern":3920,"Ġasking":3921,"Ġlose":3922,"Ġbelieved":3923,"Ġproduced":3924,"Ġspl":3925,"Ġresist":3926,"Ġtend":3927,"Ġ;":3928,"Ġunit":3929,"Ġfle":3930,"airs":3931,"Ġprovides":3932,"Ġtypes":3933,"Ġsolution":3934,"Ġtrial":3935,"Ġnotice":3936,"Ġmaster":3937,"istry":3938,"Ġoccup":3939,"Ġshowing":3940,"500":3941,"Ġprofessional":3942,"Ġwhom":3943,"any":3944,"Ġruns":3945,"Ġcamera":3946,"Ġfaith":3947,"Ġreplace":3948,"Ġassum":3949,"Ġjohnson":3950,"Ġframe":3951,"uit":3952,"iel":3953,"Ġmir":3954,"Ġactive":3955,"Ġconfirmed":3956,"Ġeffective":3957,"Ġspirit":3958,"Ġdefe":3959,"estic":3960,"mine":3961,"Ġafford":3962,"Ġetc":3963,"Ġmillions":3964,"Ġfresh":3965,"Ġscore":3966,"Ġmarriage":3967,"Ġrou":3968,"Ġopinion":3969,"hol":3970,"Ġinstitute":3971,"Ġinitial":3972,"Ġunderstanding":3973,"gar":3974,"lant":3975,"des":3976,"Ð¾":3977,"Ġiniti":3978,"Ġfrancis":3979,"Ġbenefit":3980,"liament":3981,"sen":3982,"Ġoccas":3983,"rants":3984,"cell":3985,"org":3986,"Ġmarijuana":3987,"Ġsubm":3988,"Ġinterested":3989,"Ġhighest":3990,"Ġdollars":3991,"Ġbottom":3992,"Ġcold":3993,"has":3994,"ell":3995,"Ġdestroy":3996,"aked":3997,"Ġproduce":3998,"ription":3999,"Ġcash":4000,"Ġresponsible":4001,"Ġauthority":4002,"Ġvictory":4003,"know":4004,"Ġobs":4005,"Ġsanders":4006,"Ġapply":4007,"Ġchris":4008,"Ġpalest":4009,"Ġachieve":4010,"Ġburn":4011,"house":4012,"Ġjoined":4013,"90":4014,"ipl":4015,"Ġparliament":4016,"abor":4017,"itz":4018,"Ġoperation":4019,"Ġenvironmental":4020,"imately":4021,"Ġdraw":4022,"Ġkorea":4023,"known":4024,"Ġoffers":4025,"Ġdisease":4026,"Ġast":4027,"Ġveter":4028,"ining":4029,"Ġproposed":4030,"Ġleadership":4031,"Ġlimit":4032,"Ġbackground":4033,"za":4034,"wr":4035,"Ġspecies":4036,"Ġsurface":4037,"Ġagreed":4038,"Ġ80":4039,"ica":4040,"Ġrestrict":4041,"coming":4042,"Ġpu":4043,"rep":4044,"ml":4045,"Ġconvention":4046,"Ġfourth":4047,"Ġsupporters":4048,"Ġcards":4049,"Ġreject":4050,"Ġwil":4051,"Ġsnow":4052,"inger":4053,"Ġteach":4054,"Ġmig":4055,"Ġnfl":4056,"Ġannounce":4057,"Ġvehicle":4058,"Ġadvantage":4059,"Ġfalse":4060,"Ġrestaur":4061,"Ġassault":4062,"zen":4063,"Ġincred":4064,"Ġbasis":4065,"Ġcommercial":4066,"Ġanc":4067,"Ġexplained":4068,"Ġcontrovers":4069,"Ġillegal":4070,"Ġdocuments":4071,"ortion":4072,"Ġcentre":4073,"Ġgeneration":4074,"Ġsurround":4075,"Ġobtain":4076,"Ġwinning":4077,"Ġwealth":4078,"Ġwatching":4079,"Ġonto":4080,"Ġwitness":4081,"Ġ31":4082,"Ġvictims":4083,"Ġcommunities":4084,"Ġgirls":4085,"col":4086,"Ġinsurance":4087,"Ġlegislation":4088,"Ġcateg":4089,"âĢľ":4090,"Ġexchange":4091,"Ġbecomes":4092,"Ġbecoming":4093,"ca":4094,"win":4095,"Ġ35":4096,"works":4097,"Ġcompetition":4098,"Ġputting":4099,"Ġshared":4100,"Ġopened":4101,"Ġserve":4102,"Ġannual":4103,"Ġdrugs":4104,"Ġcancer":4105,"uries":4106,"igned":4107,"icking":4108,"Ġplanet":4109,"Ġliberal":4110,"Ġnegative":4111,"stre":4112,"________":4113,"Ġcooper":4114,"Ġconsequ":4115,"Ġexperiment":4116,"Ġsurvey":4117,"Ġgraph":4118,"Ġdriver":4119,"Ġheat":4120,"Ġflow":4121,"Ġbanks":4122,"Ġitems":4123,"Ġrobert":4124,"Ġhell":4125,"fs":4126,"ami":4127,"iring":4128,"Ġluck":4129,"Ġcoverage":4130,"Ġtransfer":4131,"uters":4132,"Ġviews":4133,"Ġeasier":4134,"Ġreduce":4135,"Ġaccused":4136,"Ġaudience":4137,"Ġdat":4138,"Ġanimals":4139,"Ġpurpose":4140,"Ġextremely":4141,"Ġhearing":4142,"Ġpac":4143,"she":4144,"Ġislamic":4145,"Ġfinding":4146,"Ġenforcement":4147,"Ġii":4148,"Ġsport":4149,"Ġcanadian":4150,"Ġconstruction":4151,"Ġhair":4152,"vant":4153,"ek":4154,"Ġdefinitely":4155,"Ġdangerous":4156,"Ġ2006":4157,"gl":4158,"Ġthom":4159,"Ġtools":4160,"ique":4161,"====":4162,"Ġworst":4163,"point":4164,"aks":4165,"Ġserved":4166,"Ġcomfort":4167,"Ġtransl":4168,"Ġexisting":4169,"eter":4170,"racy":4171,"Ġexplain":4172,"Ġju":4173,"Ġplanned":4174,"Ġmagaz":4175,"dule":4176,"Ġhighlight":4177,"Ġfloor":4178,"mpt":4179,"Ġ90":4180,"Ġcontinu":4181,"Ġdomin":4182,"Ġalleg":4183,"resp":4184,"Ġplanning":4185,"Ġsouthern":4186,"war":4187,"Ġdoubt":4188,"Ġcarol":4189,"Ġsquare":4190,"Ġram":4191,"Ġded":4192,"Ġjim":4193,"44":4194,"Ġjones":4195,"rial":4196,"Ġseparate":4197,"Ġcompar":4198,"Ġsupreme":4199,"Ġpil":4200,"Ġnovel":4201,"Ġstrength":4202,"Ġsad":4203,"Ġreturned":4204,"Ġos":4205,"Ġstor":4206,"Ġotherwise":4207,"Ġcontain":4208,"Ġargument":4209,"ios":4210,"Ġze":4211,"Ġrefuge":4212,"Ġgall":4213,"Ġdirection":4214,"Ġinstance":4215,"Ġhousing":4216,"Ġtesting":4217,"iful":4218,"enn":4219,"Ġath":4220,"uro":4221,"ghan":4222,"which":4223,"Ġdriving":4224,"Ġsolar":4225,"Ġnorthern":4226,"Ġstructure":4227,"going":4228,"ho":4229,"Ġlabour":4230,"Ġbon":4231,"Ġlaunched":4232,"Ġamazing":4233,"Ġmurder":4234,"Ġsites":4235,"Ġeat":4236,"istics":4237,"Ġgop":4238,"ustr":4239,"Ġfellow":4240,"Ġrid":4241,"Ġclosed":4242,"isher":4243,"ka":4244,"Ġlu":4245,"Ġjeff":4246,"Ġmayor":4247,"Ġbritain":4248,"Ġfuel":4249,"36":4250,"Ġtweet":4251,"Ġandroid":4252,"Ġdivision":4253,"ada":4254,"Ġserver":4255,"Ġtask":4256,"atically":4257,"Ġspect":4258,"Ġexerc":4259,"Ġcook":4260,"Ġpin":4261,"Ġcatch":4262,"tic":4263,"Ġfbi":4264,"Ġcharged":4265,"Ġrough":4266,"Ġimagine":4267,"Ġcollection":4268,"Ġmicrosoft":4269,"Ġdaughter":4270,"Ġdoct":4271,"Ġfigh":4272,"Ġsequ":4273,"Ġbeer":4274,"Ġtelling":4275,"75":4276,"acity":4277,"iliar":4278,"Ġissued":4279,"Ġprincip":4280,"mi":4281,"Ġscale":4282,"bing":4283,"Ġsuggested":4284,"Ġapparently":4285,"32":4286,"Ġrepeated":4287,"Ġgovernor":4288,"ya":4289,"Ġstrike":4290,"Ġsmaller":4291,"Ġtransform":4292,"Ġimmigration":4293,"Ġjose":4294,"Ġolder":4295,"Ġbusinesses":4296,"Ġconcerned":4297,"aud":4298,"Ġtrail":4299,"Ġstated":4300,"Ġplays":4301,"Ġdecade":4302,"irt":4303,"Ġabuse":4304,"Ġvirgin":4305,"Ġactivities":4306,"Ġfer":4307,"Ġpak":4308,"Ġspoke":4309,"Ġcontext":4310,"Ġcho":4311,"cs":4312,"Ġcab":4313,"ius":4314,"Ġaccur":4315,"aran":4316,"inct":4317,"Ġton":4318,"mas":4319,"Ġassess":4320,"Ġisraeli":4321,"Ġestablish":4322,"Ġlength":4323,"Ġsupported":4324,"ario":4325,"Ġdream":4326,"equ":4327,"Ġvice":4328,"rom":4329,"Ġultimately":4330,"Ġholding":4331,"Ġanimal":4332,"Ġsac":4333,"Ġmode":4334,"Ġunfortun":4335,"38":4336,"Ġinn":4337,"Ġguess":4338,"Ġrequires":4339,"Ġdiscovered":4340,"Ġaspect":4341,"Ġdyn":4342,"Ġentirely":4343,"Ġsupply":4344,"Ġcandidates":4345,"Ġmas":4346,"Ġcopyright":4347,"Ġentertain":4348,"Ġwars":4349,"oh":4350,"Ġ70":4351,"Ġchampionship":4352,"oted":4353,"Ġamend":4354,"Ġmissing":4355,"Ġryan":4356,"Ġraise":4357,"Ġdism":4358,"Ġoffensive":4359,"Ġrout":4360,"Ġmeanwhile":4361,"Ġukrain":4362,"Ġattend":4363,"Ġallowing":4364,"Ġfiles":4365,"Ġrecommend":4366,"Ġdiscussion":4367,"Ġgree":4368,"ãĤ":4369,"Ġalternative":4370,"ifying":4371,"Ġcaught":4372,"Ġgam":4373,"itable":4374,"Ġpy":4375,"ding":4376,"Ġexclus":4377,"kins":4378,"Ġscript":4379,"Ġcaption":4380,"Ġmand":4381,"Ġaware":4382,"Ġconflict":4383,"Ġtruly":4384,"Ġera":4385,"Ġdecisions":4386,"!âĢĿ":4387,"comp":4388,"Ġrichard":4389,"Ġmut":4390,"Ġasse":4391,"gs":4392,"Ġconcern":4393,"Ġstars":4394,"Ġsetting":4395,"Ġlargely":4396,"Ġmartin":4397,"izes":4398,"ulated":4399,"cks":4400,"Ġscr":4401,"48":4402,"Ġkeeping":4403,"Ġobviously":4404,"Ġprosecut":4405,"ulf":4406,"Ġfest":4407,"Ġhttps":4408,"Ġtow":4409,"Ġip":4410,"Ġwaiting":4411,"Ġnewsp":4412,"ography":4413,"Ġna":4414,"Ġhomes":4415,"Ġpresence":4416,"Ġjoe":4417,"Ġafghan":4418,"vent":4419,"Ġsudden":4420,"Ġdefensive":4421,"Ġdeliver":4422,"Ġunless":4423,"Ġbull":4424,"Ġrus":4425,"Ġcells":4426,"Ġjewish":4427,"word":4428,"Ġgain":4429,"Ġchap":4430,"rative":4431,"Ġmental":4432,"Ġstanding":4433,"Ðµ":4434,"Ġfigures":4435,"Ġspokesman":4436,"Ġintroduced":4437,"Ġafrican":4438,"Ġlouis":4439,"Ġfol":4440,"onic":4441,"Ġbelieves":4442,"Ġremoved":4443,"Ġtun":4444,"Ġproviding":4445,"Ġidentity":4446,"Ġafrica":4447,"Ġadvis":4448,"real":4449,"Ġpair":4450,"Ġmodels":4451,"Ġspan":4452,"Ġexplo":4453,"met":4454,"Ð°":4455,"oses":4456,"Ġscientific":4457,"Ġgender":4458,"Ġconversation":4459,"Ġtells":4460,"onto":4461,"Ġinjury":4462,"****":4463,"acing":4464,"Ġregist":4465,"season":4466,"iling":4467,"Ġangeles":4468,"unk":4469,"mat":4470,"Ġinnov":4471,"osure":4472,"Ġvo":4473,"Ġplaced":4474,"bour":4475,"Ġestablished":4476,"!!":4477,"Ġfell":4478,"Ġcorner":4479,"Ġinterests":4480,"Ġhate":4481,"Ġmexico":4482,"olf":4483,"Ġappropri":4484,"Ġharm":4485,"Ġhasn":4486,"55":4487,"ancy":4488,"Ġmeasures":4489,"Ġlisten":4490,"Ġdoctor":4491,"Ġmentioned":4492,"osh":4493,"Ġacknow":4494,"Ġuns":4495,"Ġconclus":4496,"Ġdin":4497,"Ġskills":4498,"Ġpakistan":4499,"Ġterrit":4500,"Ġpartner":4501,"ula":4502,"Ġuseful":4503,"icip":4504,"Ġowner":4505,"34":4506,"Ġsav":4507,"Ġtough":4508,"Ġsust":4509,"Ġconnection":4510,"ocking":4511,"pective":4512,"Ġdomestic":4513,"Ġfunds":4514,"Ġ2005":4515,"Ġsubscrib":4516,"tery":4517,"Ġskin":4518,"Ġstandards":4519,"37":4520,"hy":4521,"Ġglass":4522,"Ġoptim":4523,"oto":4524,"Ġbaby":4525,"lines":4526,"Ġkilling":4527,"hl":4528,"oms":4529,"Ġpalestin":4530,"Ġsteps":4531,"Ġweak":4532,"Ġbod":4533,"Ġ2018":4534,"Ġthomas":4535,"Ġing":4536,"ivers":4537,"Ġinteract":4538,"Ġdim":4539,"Ġjon":4540,"Ġprefer":4541,"onym":4542,"issions":4543,"lig":4544,"hand":4545,"Ġobvious":4546,"isation":4547,"Ġimposs":4548,"Ġvul":4549,"Ġjapanese":4550,"Ġstopped":4551,"Ġmary":4552,"Ġphilos":4553,"prof":4554,"Ġesp":4555,"ipp":4556,"igan":4557,"Ġfinished":4558,"Ġintel":4559,"Ġhonest":4560,"hal":4561,"##":4562,"Ġpeter":4563,"Ġelements":4564,"Ġmanaged":4565,"Ġfailure":4566,"Ġidentified":4567,"roll":4568,"Ġwindow":4569,"Ġsher":4570,"fc":4571,"lor":4572,"Ġmaxim":4573,"Ġlibrary":4574,"wal":4575,"cons":4576,"Ġmort":4577,"ception":4578,"lies":4579,"aves":4580,"umn":4581,"Ġinternal":4582,"Ġvision":4583,"Ġreligion":4584,"Ġconclud":4585,"Ġnas":4586,"Ġexperts":4587,"Ġmarkets":4588,"Ġdepend":4589,"Ġcommitted":4590,"rif":4591,"Ġfocused":4592,"rees":4593,"Ġ2000":4594,"Ġwish":4595,"bu":4596,"Ġgh":4597,"Ġslightly":4598,"bel":4599,"Ġabsolutely":4600,"oon":4601,"suit":4602,"asy":4603,"Ġclin":4604,"Ġven":4605,"Ġrain":4606,"Ġcann":4607,"Ġarrived":4608,"Ġhusband":4609,"Ġsounds":4610,"Ġfeels":4611,"Ġrelatively":4612,"outs":4613,"Ġwriter":4614,"Ġmotor":4615,"Ġturns":4616,"Ġtalks":4617,"Ġcircum":4618,"Ġmere":4619,"39":4620,"Ġbern":4621,"ayer":4622,"Ġlake":4623,"Ġmagic":4624,"Ġnic":4625,"Ġsale":4626,"47":4627,"Ġvariety":4628,"Ġ32":4629,"Ġdevelopers":4630,"Ġorganizations":4631,"Ġcorporate":4632,"Ġsor":4633,"ulate":4634,"Ġaggress":4635,"Ġoriginally":4636,"eration":4637,"Ġgard":4638,"Ġfiled":4639,"run":4640,"Ð¸":4641,"Ġoperating":4642,"Ġspecifically":4643,"enses":4644,"Ġbalance":4645,"Ġaccident":4646,"anging":4647,"Ġtests":4648,"Ġyouth":4649,"Ġhumans":4650,"anda":4651,"ructure":4652,"Ġoce":4653,"rast":4654,"Ġtaxes":4655,"Ġelectron":4656,"town":4657,"Ġbigger":4658,"ike":4659,"state":4660,"Ġteen":4661,"emp":4662,"Ġbeautiful":4663,"Ġrail":4664,"under":4665,"Ġregarding":4666,"Ġstarts":4667,"Ġchanging":4668,"Ġneighborhood":4669,"Ġlas":4670,"Ġarms":4671,"Ġchannel":4672,"agn":4673,"Ġfamiliar":4674,"stream":4675,"kin":4676,"Ġsenator":4677,"Ġadjust":4678,"Ġvideos":4679,"Ġsides":4680,"\":":4681,"Ġmagazine":4682,"van":4683,"49":4684,"Ġhelping":4685,"rick":4686,"Ġdar":4687,"Ġsoldiers":4688,"hedul":4689,"Ġsuggests":4690,"isf":4691,"Ġ45":4692,"Ġunits":4693,"ih":4694,"Ġearn":4695,"Ġaccounts":4696,"Ġseek":4697,"Ġeastern":4698,"iance":4699,"Ġequip":4700,"Ġswitch":4701,"Ġbond":4702,"Ġvotes":4703,"Ġlie":4704,"Ġrose":4705,"Ġhappening":4706,"Ġdecide":4707,"Ġelections":4708,"eness":4709,"icide":4710,"Ġtack":4711,"Ġpossibly":4712,"Ġimpossible":4713,"Ġatlant":4714,"Ġseconds":4715,"Ġnov":4716,"Ġelement":4717,"Ġprivacy":4718,"ola":4719,"Ġbrow":4720,"sl":4721,"Ġhealthy":4722,"âĢĶâĢĶ":4723,"Ġapplications":4724,"Ġerror":4725,"Ġtourn":4726,"Ġlob":4727,"Ġnative":4728,"Ġbid":4729,"Ġconsult":4730,"Ġsymb":4731,"Ġpenal":4732,"Ġbasically":4733,"top":4734,"Ġhaw":4735,"Ġdegree":4736,"gypt":4737,"Ġagent":4738,"Ġcarried":4739,"Ġjail":4740,"Ġgro":4741,"americ":4742,"name":4743,"Ġcombat":4744,"Ġjes":4745,"Ġlee":4746,"ett":4747,"Ġrandom":4748,"ques":4749,"Ġneither":4750,"Ġceo":4751,"Ġtoronto":4752,"uate":4753,"Ġfundament":4754,"Ġbob":4755,"Ġlosing":4756,"inking":4757,"Ġtwice":4758,"Ġamazon":4759,"Ġjav":4760,"Ġincreasingly":4761,"Ġther":4762,"Ġcuts":4763,"Ġappre":4764,"star":4765,"ocol":4766,"agues":4767,"Ġvisual":4768,"place":4769,"Ġstad":4770,"Ġzone":4771,"ander":4772,"Ġclim":4773,"Ġdropped":4774,"Ġyards":4775,"Ġschedul":4776,"Ġelim":4777,"Ġspr":4778,"Ġsitting":4779,"stein":4780,"Ġdeveloping":4781,"Ġsyrian":4782,"Ġari":4783,"hens":4784,"Ġstreets":4785,"class":4786,"Ġcath":4787,"Ġemergency":4788,"Ġmit":4789,"Ġmont":4790,"Ġnut":4791,"Ġpictures":4792,"46":4793,"Ġcub":4794,"Ġseeking":4795,"Ġinfrast":4796,"Ġworry":4797,"Ġchairman":4798,"orial":4799,"Ġcultural":4800,"ht":4801,"Ġagencies":4802,"Ġedge":4803,"riend":4804,"Ġsar":4805,"Ġcarbon":4806,"iation":4807,"Ġped":4808,"Ġshad":4809,"Ġpaying":4810,"Ġweather":4811,"mail":4812,"].":4813,"free":4814,"!\"":4815,"erous":4816,"Ġcloser":4817,"char":4818,"Ġstick":4819,"ato":4820,"Ġlock":4821,"ship":4822,"orary":4823,"Ġinsp":4824,"apers":4825,"Ġrapid":4826,"Ġcarolina":4827,"Ġtight":4828,"Ġremove":4829,"Ġfamous":4830,"Ġresponsibility":4831,"dy":4832,"Ġsteve":4833,"Ġbroken":4834,"itect":4835,"Ġmatt":4836,"Ġweapon":4837,"Ġlived":4838,"comm":4839,"Ġretail":4840,"mes":4841,"lets":4842,"Ġemb":4843,"Ġwinter":4844,"Ġpowers":4845,"ran":4846,"inate":4847,"Ġexpert":4848,"Ġvast":4849,"Ġfrancisco":4850,"life":4851,"Ġaid":4852,"Ġvehicles":4853,"def":4854,"dra":4855,"Ġconsidering":4856,"Ġexpensive":4857,"Ġrevenue":4858,"Ġcoff":4859,"Ġbreat":4860,"Ġegypt":4861,"Ġfish":4862,"Ġcapacity":4863,"inn":4864,"Ġforest":4865,"Ġboston":4866,"ests":4867,"Ġhyp":4868,"Ġox":4869,"Ġschol":4870,"Ġassemb":4871,"Ġshall":4872,"Ġforms":4873,"Ġrecru":4874,"Ġsurprise":4875,"uct":4876,"Ġpossibility":4877,"Ġmethods":4878,"Ġpanel":4879,"Ġchemical":4880,"icted":4881,"Ġinfrastructure":4882,"Ġstadium":4883,"Ġtrig":4884,"Ġarmed":4885,"Ġlocated":4886,"Ġengage":4887,"Ġcrew":4888,"Ġkit":4889,"idel":4890,"ansion":4891,"Ġlord":4892,"Ġlinked":4893,"Ġestimated":4894,"ici":4895,"ils":4896,"Ġequal":4897,"Ġpresented":4898,"cious":4899,"Ġhat":4900,"ipped":4901,"Ġgovernments":4902,"Ġcorrupt":4903,"Ġstone":4904,"Ġguaran":4905,"Ġ2004":4906,"nd":4907,"Ġsector":4908,"Ġvoting":4909,"Ġbridge":4910,"Ġcovered":4911,"Ġsant":4912,"Ġpc":4913,"Ġcrack":4914,"Ġdynam":4915,"Ġequipment":4916,"Ġrot":4917,"Ġsecure":4918,"Ġquant":4919,"Ġkar":4920,"ãĥ":4921,"Ġarchitect":4922,"Ġplenty":4923,"ologies":4924,"Ġposts":4925,"Ġdeput":4926,"Ġparis":4927,"Ġusa":4928,"Ġgreatest":4929,"Ġseriously":4930,"car":4931,"Ġbringing":4932,"Ġappoint":4933,"Ġtact":4934,"person":4935,"Ġlots":4936,"ita":4937,"illing":4938,"Ġturkey":4939,"Ġheight":4940,"Ġzero":4941,"Ġtroops":4942,"Ġdiscl":4943,"Ġclot":4944,"Ġshape":4945,"Ġmuse":4946,"Ġdram":4947,"Ġroll":4948,"Ġinfect":4949,"Ġhelps":4950,"Ġstress":4951,"Ġupgr":4952,"Ġhotel":4953,"Ġ//":4954,"65":4955,"Ġfilms":4956,"aded":4957,"list":4958,"Ġfired":4959,"eper":4960,"oty":4961,"Ġtree":4962,"Ġselling":4963,"Ġintended":4964,"Ġclar":4965,"Ġstret":4966,"Ġadvanced":4967,"Ġseasons":4968,"rol":4969,"Ġpieces":4970,"Ġflat":4971,"Ġbroadcast":4972,"Ġdur":4973,"Ġdetermine":4974,"Ġcoord":4975,"oned":4976,"Ġcomplic":4977,"ko":4978,"Ġathlet":4979,"Ġalco":4980,"Ġarr":4981,"Ġguide":4982,"Ġcharl":4983,"Ġfaster":4984,"Ġvulner":4985,"oles":4986,"road":4987,"rible":4988,"ribute":4989,"enced":4990,"Ġprepared":4991,"Ġrum":4992,"Ġprospect":4993,"Ġny":4994,"makers":4995,"Ġapps":4996,"aren":4997,"Ġvirginia":4998,"Ġod":4999,"related":5000,"Ġupdated":5001,"Ġoccurred":5002,"Ġgiant":5003,"Ġ=>":5004,"Ġfactors":5005,"Ġfinish":5006,"Ġchallenges":5007,".âĢĿ<|":5008,"Ġadvent":5009,"Ġgri":5010,"Ġroute":5011,"Ġtechnical":5012,"otic":5013,"udi":5014,"Ġwilliams":5015,"=\"":5016,"Ġaustralian":5017,"Ġstring":5018,"Ġfixed":5019,"lete":5020,"Ġproposal":5021,"Ġwalking":5022,"Ġsigns":5023,"Ġbac":5024,"Ġunfortunately":5025,"Ġoffering":5026,"har":5027,"Ġshop":5028,"Ġpotentially":5029,"Ġsubs":5030,"Ġproced":5031,"Ġexplos":5032,"Ġfacing":5033,"Ġminimum":5034,"Ġprove":5035,"Ġpra":5036,"Ġclassic":5037,"Ġsupporting":5038,"Ġpercentage":5039,"Ġsurprising":5040,"Ġcloud":5041,"Ġshift":5042,"Ġboost":5043,"terday":5044,"Ġtypically":5045,"ingly":5046,"Ġconstruct":5047,"Ġbroke":5048,"Ġbuff":5049,"Ġcombined":5050,"Ġstudio":5051,"Ġgrab":5052,"Ġdun":5053,"Ġinstruct":5054,"Ġker":5055,"Ġconsumers":5056,"Ġtransition":5057,"Ġturning":5058,"Ġpurchase":5059,"Ġbes":5060,"31":5061,"Ġuniverse":5062,"Ġelected":5063,"Ġbure":5064,"Ġruling":5065,"Ġko":5066,"Ġpoliticians":5067,"Ġappearance":5068,"Ġvoted":5069,"Ġproceed":5070,"Ġforget":5071,"ressive":5072,"Ġadvance":5073,"idden":5074,"Ġenemy":5075,"Ġboys":5076,"Ġevening":5077,"Ġdemocracy":5078,"Ġrein":5079,"cr":5080,"Ġhurt":5081,"oman":5082,"Ġreference":5083,"Ġsignificantly":5084,"Ġrefused":5085,"cel":5086,"Ġfactor":5087,"Ġbound":5088,"----------------":5089,"ups":5090,"Ġtag":5091,"Ġmatters":5092,"Ġdedic":5093,"Ġbright":5094,"Ġmail":5095,"Ġcreative":5096,"Ġatm":5097,"Ġexpressed":5098,"Ġpositions":5099,"Ġconducted":5100,"Ġpackage":5101,"Ġreduced":5102,"Ġaffected":5103,"Ġregime":5104,"Ġcalcul":5105,"()":5106,"Ġdiet":5107,"Ġregional":5108,"Ġaircraft":5109,"night":5110,"Ġbought":5111,"Ġmun":5112,"Ġpointed":5113,"Ġroyal":5114,"Ġweren":5115,"Ġminute":5116,",'":5117,"Ġwearing":5118,"Ġske":5119,"Ġseat":5120,"Ġdetermined":5121,"Ġeverybody":5122,"Ġcontrast":5123,"greg":5124,"Ġconsumer":5125,"bec":5126,"Ġly":5127,"Ġurban":5128,"Ġconcent":5129,"omen":5130,"Ġremained":5131,"Ġpitch":5132,"Ġjackson":5133,"mond":5134,"Ġanth":5135,"Ġamendment":5136,"Ġrecorded":5137,"Ġafterno":5138,"Ġnorm":5139,"Ġdeploy":5140,"Ġexcell":5141,"Ġpool":5142,"Ġinvolve":5143,"Ġremaining":5144,"Ġhandle":5145,"Ġpages":5146,"Ġmuseum":5147,"Ġleads":5148,"Ġinsist":5149,"Ġwilliam":5150,"Ġ500":5151,"Ġends":5152,"Ġwire":5153,"lymp":5154,"Ġcreation":5155,"Ġ\\":5156,"Ġbbc":5157,"Ġbureau":5158,"Ġdifferences":5159,"ket":5160,"Ġnick":5161,"Ġyout":5162,"ales":5163,"odes":5164,"Ġmos":5165,"dis":5166,"Ġcollabor":5167,"ÑĤ":5168,"care":5169,"etic":5170,"Ġappeal":5171,"Ġsuit":5172,"Ġjul":5173,"Ġpassing":5174,"Ġinitially":5175,"ros":5176,"Ġappreci":5177,"ini":5178,"Ġmotiv":5179,"olved":5180,"Ġmoon":5181,"Ġgrew":5182,"Ġmyster":5183,"Ġartist":5184,"ashion":5185,"Ġidentify":5186,"Ġ1990":5187,"Ġexamples":5188,"ading":5189,"Ġles":5190,"Ġherself":5191,"Ġmine":5192,"Ġstruggle":5193,"Ġwaste":5194,"Ġmetal":5195,"Ġdrag":5196,"Ġcoalition":5197,"Ġreli":5198,"Ġtrouble":5199,"Ġtrend":5200,"Ġcompleted":5201,"Ġplants":5202,"oma":5203,"Ġyesterday":5204,"Ġdistance":5205,"Ġbowl":5206,"Ġcart":5207,"Ġocean":5208,"Ġbeach":5209,"Ġexperienced":5210,"Ġreaction":5211,"Ġexcited":5212,"olit":5213,"ura":5214,"Ġopportunities":5215,"Ġfro":5216,"Ġbreaking":5217,"ores":5218,"Ġbelong":5219,"Ġnewslet":5220,"ias":5221,"lder":5222,"Ġiron":5223,"Ġisis":5224,"ashed":5225,"Ġafternoon":5226,"hab":5227,"Ġreporters":5228,"Ġgon":5229,"Ġcommunications":5230,"Ġencoun":5231,"Ġring":5232,"Ġargued":5233,"Ġbatt":5234,"Ġmax":5235,"Ġpure":5236,"gment":5237,"Ġattempts":5238,"Ġ195":5239,"Ġshel":5240,"Ġnumerous":5241,"Ġobserv":5242,"lying":5243,"water":5244,"95":5245,"oy":5246,"Ġpulled":5247,"Ġdial":5248,"Ġministry":5249,"aped":5250,"Ġguns":5251,"zil":5252,"Ġbrew":5253,"Ġsquad":5254,"Ġreporting":5255,"Ġ36":5256,"vi":5257,"Ġscot":5258,"Ġrenew":5259,"Ġdiss":5260,"Ġcaptain":5261,"Ġkur":5262,"Ġquiet":5263,"Ġron":5264,"Ġagents":5265,"Ġsilver":5266,"Ġjoint":5267,"Ġolymp":5268,"Ġkim":5269,"oral":5270,"Ġthoughts":5271,"sex":5272,"Ġcomed":5273,"Ġlit":5274,"Ġjour":5275,"Ġbol":5276,"Ġmovies":5277,"Ġeval":5278,"Ġvalid":5279,"Ġhopes":5280,"Ġsets":5281,"Ġsession":5282,"Ġwear":5283,"Ġemails":5284,"viet":5285,"Ġboss":5286,"Ġtreated":5287,"Ġwrit":5288,"Ġrising":5289,"Ġtermin":5290,"Ġash":5291,"Ġphilosoph":5292,"Ġupdates":5293,"Ġcrimes":5294,"Ġessentially":5295,"Ġauth":5296,"west":5297,"Ġaffairs":5298,"Ġps":5299,"Ġwidely":5300,"rier":5301,"Ġgather":5302,",[":5303,"illa":5304,"Ġyoutube":5305,"essions":5306,"hered":5307,"Ġtalked":5308,"imp":5309,"Ġindustrial":5310,"Ġohio":5311,"Ġdismiss":5312,"Ġperman":5313,"Ġresolution":5314,"Ġpod":5315,"Ġ2003":5316,"Ġbodies":5317,"Ġviolent":5318,"Ġpic":5319,"Ġsin":5320,"Ġcow":5321,"ensions":5322,"Ġta":5323,"Ġproud":5324,"Ġhistorical":5325,"Ġreaders":5326,"Ġsatisf":5327,"Ġresc":5328,"long":5329,"Ġplayoff":5330,"Ġinstitutions":5331,"Ġedition":5332,"Ġunable":5333,"mic":5334,"Ġvillage":5335,"Ġconfident":5336,"Ġsubsequ":5337,"Ġrow":5338,"Ġvalley":5339,"Ġopposed":5340,"Ġstrange":5341,"Ġwrites":5342,"64":5343,"Ġgear":5344,"Ġfacts":5345,"Ġarticles":5346,"Ġsevere":5347,"Ġstan":5348,"Ġdelay":5349,"Ġfaces":5350,"Ġclient":5351,"Ġconfig":5352,"Ġmaterials":5353,"Ġlinks":5354,"Ġchart":5355,"Ġdrivers":5356,"Ġperspective":5357,"illed":5358,"Ġloved":5359,"Ġconfidence":5360,"Ġapproved":5361,"Ġdatab":5362,"ivered":5363,"erved":5364,"dp":5365,"Ġalcohol":5366,"Ġanalyst":5367,"Ġdisappoint":5368,"Ġride":5369,"Ġdenied":5370,"Ġdefault":5371,"Ġdebut":5372,"ano":5373,"abilities":5374,"Ġmessages":5375,"Ġdipl":5376,"respond":5377,"Ġevolution":5378,"Ġvent":5379,"Ġadvice":5380,"Ġire":5381,"aints":5382,"Ġnobody":5383,"Ġadmitted":5384,"Ġstorm":5385,"Ġnewspaper":5386,"Ġquarterback":5387,"Ġstands":5388,"Ġforg":5389,"Ġlabel":5390,"Ġreportedly":5391,"Ġphotograph":5392,"Ġcraft":5393,"Ġdoctors":5394,"Ġactivists":5395,"Ġmarketing":5396,"Ġvirtual":5397,"ador":5398,"Ġprompt":5399,"Ġtalent":5400,"Ġshouldn":5401,"Ġrestaurant":5402,"Ġexplore":5403,"Ġexercise":5404,"Ġ2001":5405,"Ġmountain":5406,"Ġseattle":5407,"ugg":5408,"Ġparent":5409,"Ġanyway":5410,"game":5411,"Ġairport":5412,"Ġmotion":5413,"aaaa":5414,"Ġdiscrim":5415,"Ġcolon":5416,"Ġstorage":5417,"Ġconnected":5418,"Ġfindings":5419,"post":5420,"Ġcapable":5421,"Ġresponded":5422,"Ġwik":5423,"Ġprofile":5424,"Ġhou":5425,"Ġflash":5426,"Ġgang":5427,"Ġimproved":5428,"bn":5429,"Ġflood":5430,"inent":5431,"Ġgaz":5432,"Ġcontemp":5433,"Ġafghanistan":5434,"isters":5435,"pet":5436,"Ġmarried":5437,"rd":5438,"05":5439,"Ġwarning":5440,"Ġpenn":5441,"Ġtournament":5442,"lla":5443,"Ġexperiences":5444,"Ġsharp":5445,"ributed":5446,"iat":5447,"Ġenh":5448,"Ġlam":5449,"Ġpatient":5450,"Ġnetworks":5451,"Ġentry":5452,"who":5453,"Ġatmosp":5454,"Ġradical":5455,"Ġsubstant":5456,"0000":5457,"Ġegg":5458,"eds":5459,"Ġbear":5460,"ache":5461,"Ġmoral":5462,"01":5463,"Ġcnn":5464,"Ġgi":5465,"Ġongoing":5466,"Ġleaves":5467,"licit":5468,"Ġordered":5469,"iger":5470,"Ġancient":5471,"esters":5472,"employ":5473,"Ġbike":5474,"Ġsweet":5475,"Ġterrorist":5476,"Ġmichigan":5477,"ternal":5478,"Ġlawyer":5479,"Ġcustomer":5480,"Ġpassen":5481,"Ġbare":5482,"abled":5483,"Ġdistribution":5484,"Ġexpansion":5485,"Ġsongs":5486,"Ġandrew":5487,"Ġcircumst":5488,"inter":5489,"Ġexplains":5490,"],":5491,"Ġstream":5492,"Ġevil":5493,"Ġdelivered":5494,"Ġstatements":5495,"Ġapplied":5496,"Ġdeclared":5497,"Ġbuildings":5498,"Ġyeah":5499,"Ġbutton":5500,"Ġsuffered":5501,"Ġpractices":5502,".\"<|":5503,"Ġba":5504,"unte":5505,"angers":5506,"Ġremind":5507,"Ġmuslims":5508,"gia":5509,"va":5510,"Ġfestival":5511,"hs":5512,"Ġaside":5513,"Ġconfirm":5514,"Ġemphas":5515,"standing":5516,"level":5517,"Ġric":5518,"Ġanonym":5519,"Ġoutput":5520,"Ġwarm":5521,"Ġobjects":5522,"Ġimper":5523,"called":5524,"Ġchristmas":5525,"Ġsaudi":5526,"Ġdeclined":5527,"Ġpicked":5528,"Ġcriticism":5529,"gas":5530,"Ġplot":5531,"Ġinjured":5532,"Ġcorrespond":5533,"Ġrally":5534,"Ġpatri":5535,"42":5536,"law":5537,">>":5538,"mates":5539,"anged":5540,"Ġcontest":5541,"Ġwave":5542,"Ġlegit":5543,"Ġpublicly":5544,"Ġcampus":5545,"ey":5546,"Ġincor":5547,"Ġappropriate":5548,"Ġbru":5549,"Ġchain":5550,"Ġmanufacture":5551,"Ġwelcome":5552,"sm":5553,"Ġcontains":5554,"Ġaband":5555,"Ġdesire":5556,"ansas":5557,"Ġol":5558,"Ġentertainment":5559,"Ġallegations":5560,"vis":5561,"Ġcauses":5562,"Ġinjuries":5563,"Ġcert":5564,"Ġfaced":5565,"Ġwake":5566,"Ġinvestors":5567,"ilty":5568,"athan":5569,"Ġinput":5570,"Ġcos":5571,"Ġukraine":5572,"Ġrealize":5573,"Ġtan":5574,"tim":5575,"order":5576,"Ġparticipants":5577,"Ġassistant":5578,"rid":5579,"Ġourselves":5580,"Ġsi":5581,"Ġsteel":5582,"Ġincreases":5583,"Ġdoub":5584,"eff":5585,"Ġsoviet":5586,"Ġfranch":5587,"Ġeric":5588,"Ġfilled":5589,"Ġeffectively":5590,"Ġmissed":5591,"Ġcritics":5592,"Ġiphone":5593,"Ġromney":5594,"Ġ1980":5595,"Ġargue":5596,"Ġexplan":5597,"Ġliqu":5598,"Ġbaseball":5599,"Ġwins":5600,"Ġphen":5601,"43":5602,"ancing":5603,"Ġpipe":5604,"Ġjersey":5605,"Ġprohib":5606,"ette":5607,"88":5608,"Ġdrink":5609,"Ġdiplom":5610,",âĢĻ":5611,"Ġmp":5612,"Ġoffense":5613,"uations":5614,"Ġchampion":5615,"Ġshots":5616,"inating":5617,"Ġaccom":5618,"ionally":5619,"nic":5620,"Ġfemin":5621,"Ġforum":5622,"Ġluc":5623,"Ġvolume":5624,"atures":5625,"Ġhide":5626,"Ġsymbol":5627,"Ġcolumb":5628,"Ġagend":5629,"Ġbrazil":5630,"Ġroughly":5631,"Ġvolunte":5632,"ishes":5633,"Ġfacility":5634,"Ġswed":5635,"ucks":5636,"Ġnearby":5637,"rich":5638,"Ġessential":5639,"Ġ33":5640,"Ġscheduled":5641,"Ġkingdom":5642,"Ġblow":5643,"77":5644,"Ġbegins":5645,"Ġapproxim":5646,"Ġschedule":5647,"Ġreuters":5648,"Ġfinance":5649,"Ġconsequences":5650,"Ġhardware":5651,"Ġmoves":5652,"Ġbehavi":5653,"Ġreturns":5654,"Ġthinks":5655,"Ġlg":5656,"from":5657,"Ġaccepted":5658,"orders":5659,"wa":5660,"Ġadds":5661,"Ġannouncement":5662,"Ġdesk":5663,"Ġperformed":5664,"twitter":5665,"Ġcoffee":5666,"Ġtotally":5667,"Ġthreats":5668,"Ġmeat":5669,"Ġaccompl":5670,"Ġheads":5671,"tion":5672,"Ġlisted":5673,"rison":5674,"Ġindex":5675,"reen":5676,"Ġcrazy":5677,"Ġdefence":5678,"Ġsplit":5679,"Ġdecre":5680,"bell":5681,"Ġ38":5682,"Ġclasses":5683,"nell":5684,"Ġroman":5685,"agers":5686,"Ġacts":5687,"ooking":5688,"Ġguilty":5689,"Ġsight":5690,"Ġfraud":5691,"Ġplane":5692,"Ġlaugh":5693,"Ġflu":5694,"Ġbasket":5695,"chester":5696,"sing":5697,"Ġfollows":5698,"Ġwatched":5699,"Ġpromise":5700,"burg":5701,"Ġconsistent":5702,"Ġmoments":5703,"Ġregulations":5704,"Ġwarned":5705,"Ġfavour":5706,"Ġireland":5707,"41":5708,"ses":5709,"Ġnecessarily":5710,"ounded":5711,"Ġstores":5712,"Ġjews":5713,"Ġdeaths":5714,"Ġwid":5715,"Ġtemperature":5716,"Ġfashion":5717,"Ġyounger":5718,"Ġbarack":5719,"Ġfunctions":5720,"Ġentered":5721,"Ġaudio":5722,"Ġpopul":5723,"Ġsurprised":5724,"Ġinqu":5725,"Ġmulti":5726,"Ġuncle":5727,"Ġadults":5728,"Ġell":5729,"inet":5730,"Ġjourney":5731,"Ġprotests":5732,"Ġtiny":5733,"Ġexpression":5734,"Ġtreas":5735,"Ġreceiving":5736,"illance":5737,"irty":5738,"Ġcurrency":5739,"Ġbuying":5740,"Ġunknown":5741,"Ġsick":5742,"cho":5743,"Ġadam":5744,"arters":5745,"iest":5746,"now":5747,"Ġshif":5748,"iver":5749,"Ġgolden":5750,"Ġknowing":5751,"Ñģ":5752,"Ġmonit":5753,"ef":5754,"Ġnba":5755,"Ġble":5756,"Ġkil":5757,"some":5758,"ilit":5759,"Ġbrings":5760,"ipping":5761,"Ġrepresents":5762,"Ġacting":5763,"Ġtear":5764,"Ġhousehold":5765,"Ġlawsuit":5766,"gor":5767,"Ġsuddenly":5768,"Ġgaming":5769,"Ġfab":5770,"Ġital":5771,"Ġ37":5772,"Ġdivers":5773,"after":5774,"66":5775,"Ġariz":5776,"Ġoverw":5777,"Ġharv":5778,"Ġlicense":5779,"Ĥ¬":5780,"Ġregardless":5781,"was":5782,"look":5783,"Ġpushed":5784,"Ġteachers":5785,"Ġstood":5786,"Ġtargets":5787,"Ġhung":5788,"rey":5789,"Ġcolorado":5790,"Ġsuicide":5791,"Ġfifth":5792,"Ġrecon":5793,"acc":5794,"Ġjam":5795,"Ġdeputy":5796,"lands":5797,"Ġcruc":5798,"ogue":5799,"Ġcycle":5800,"fo":5801,"Ġsucceed":5802,"Ġ2002":5803,"Ġlies":5804,"Ġtort":5805,"Ġanywhere":5806,"Ġfeatured":5807,"Ġcombination":5808,"Ġexcellent":5809,"iro":5810,"osition":5811,"Ġconclusion":5812,"Ġunlikely":5813,"Ġ300":5814,"pret":5815,"Ġphase":5816,"ani":5817,"uster":5818,"Ġbattery":5819,"Ġfantasy":5820,"tle":5821,"Ġartists":5822,"image":5823,"Ġfewer":5824,"acle":5825,"Ġdiscussed":5826,"Ġscored":5827,"Ġkorean":5828,"Ġconstant":5829,"Ġsought":5830,"inals":5831,"Ġasia":5832,"Ġsurveillance":5833,"Ġremote":5834,"Ġexistence":5835,"Ġrecall":5836,"Ġsister":5837,"Ġbills":5838,"weight":5839,"Ġcommunication":5840,"Ġhouston":5841,"Ġheavily":5842,"rist":5843,"pass":5844,"Ġfairly":5845,"ua":5846,"Ġsharing":5847,"ricult":5848,"Ġimportance":5849,"Ġlegend":5850,"Ġrig":5851,"usal":5852,"xx":5853,"Ġinstru":5854,"Ġengineering":5855,"df":5856,"roit":5857,"Ġsomewhat":5858,"Ġholly":5859,"fire":5860,"Ġauthors":5861,"Ġexec":5862,"Ġreco":5863,"vey":5864,"Ġresistance":5865,"style":5866,"Ġjr":5867,"Ġsample":5868,"icing":5869,"Ġgalax":5870,"Ġfasc":5871,"Ġ48":5872,"Ġcheap":5873,"stood":5874,"Ġdry":5875,"inder":5876,"Ġintr":5877,"Ġemotional":5878,"Ġadult":5879,"Ġcharles":5880,"Ġpremier":5881,"chen":5882,"Ġcolleagues":5883,"Ġbrad":5884,"acks":5885,"illy":5886,"Ġisol":5887,"asp":5888,"Ġdavis":5889,"Ġkevin":5890,"Ġpled":5891,"Ġbell":5892,"Ġvoc":5893,"Ġdefined":5894,"Ġversions":5895,"Ġtrick":5896,"Ġexhib":5897,"born":5898,"Ġupper":5899,"sters":5900,"Ġcham":5901,"Ġacknowled":5902,"Ġmedicine":5903,"Ġparam":5904,"Ġvictor":5905,"Ġallegedly":5906,"Ġputin":5907,"foot":5908,"Ġcha":5909,"nor":5910,"Ġchapter":5911,"Ġinspired":5912,"pg":5913,"Ġopponent":5914,"certain":5915,"Ġtheat":5916,"orted":5917,"',":5918,"photo":5919,"Ġjesus":5920,"Ġshares":5921,"Ġopponents":5922,"Ġalongside":5923,"era":5924,"Ġcomic":5925,"cal":5926,"Ġrelevant":5927,"yes":5928,"Ġreplaced":5929,"Ġbelief":5930,"Ġagricult":5931,"Ġthread":5932,"aug":5933,"Ġtay":5934,"ja":5935,"Ġhoping":5936,"Ġfundamental":5937,"Ġchick":5938,"Ġcruz":5939,"Ġalive":5940,"Ġlad":5941,"Ġcompetitive":5942,"Ġ49":5943,"Ġdetailed":5944,"hus":5945,"Ġholds":5946,"Ġpersonally":5947,"Ġstephen":5948,"Ġharder":5949,"cript":5950,"Ġimmediate":5951,"Ġopposite":5952,"Ġdepth":5953,"Ġnasa":5954,"Ġimmigrants":5955,"Ġsees":5956,"Ġcolumn":5957,"Ġlatter":5958,"Ġsigning":5959,"Ġcrash":5960,"Ġprotesters":5961,"Ġdeveloper":5962,"Ġembr":5963,"Ġencourage":5964,"ograp":5965,"Ġformat":5966,"Ġagenda":5967,"Ġterritory":5968,"Ġassembly":5969,"Ġtea":5970,"Ġhonor":5971,"Ġrelationships":5972,"Ġwinner":5973,"Ġintention":5974,"verty":5975,"Ġwheel":5976,"Ġjord":5977,"Ġproof":5978,"Ġalt":5979,"rog":5980,"Ġneut":5981,"Ġscand":5982,"Ġ34":5983,"Ġterrorism":5984,"Ġclosely":5985,"Ġamp":5986,"Ġfrequently":5987,"lick":5988,"Ġtechnologies":5989,"Ġraw":5990,"Ġsuffering":5991,"Ġpregn":5992,"Ġpoverty":5993,"Ġunus":5994,"Ġproperties":5995,"inte":5996,"Ġcannab":5997,"Ġwing":5998,"rated":5999,"urally":6000,"Ġshortly":6001,"esome":6002,"nam":6003,"dog":6004,"Ġdogs":6005,"Ġcatholic":6006,"Ġinstitution":6007,"Ġdecline":6008,"Ġpleas":6009,"Ġrape":6010,"Ġgrown":6011,"Ġmouth":6012,"Ġpushing":6013,"Ġdc":6014,"htt":6015,"Ġdescribe":6016,"Ġorders":6017,"Ġsustain":6018,"ole":6019,"Ġcarrying":6020,"Ġgap":6021,"Ġspin":6022,"ologist":6023,"world":6024,"Ġserving":6025,"Ġdiscover":6026,"Ġprovince":6027,"Ġextent":6028,"ooth":6029,"dri":6030,"Ġarizona":6031,"Ġmyth":6032,"Ġpalestinian":6033,"Ġliterally":6034,"Ġcircumstances":6035,"Ġig":6036,"Ġmaximum":6037,"Ġapproximately":6038,"Ġcia":6039,"ati":6040,"mad":6041,"ÑĢ":6042,"Ġformed":6043,"Ġearned":6044,"Ġtransm":6045,"Ġeating":6046,"Ġdaniel":6047,"urning":6048,"isms":6049,"Ġmiller":6050,"Ġassets":6051,"Ġselection":6052,"adel":6053,"Ġflying":6054,"Ġtheme":6055,"iences":6056,"Ġowned":6057,"Ġallies":6058,"Ġah":6059,"Ġtall":6060,"Ġefficient":6061,"iques":6062,"Ġreward":6063,"Ġupcoming":6064,"Ġcongressional":6065,"olve":6066,"Ġreporter":6067,"Ġsolutions":6068,"Ġconver":6069,"Ġkinds":6070,"Ġreput":6071,"Ġmanner":6072,"Ġsab":6073,"Ġrequirements":6074,"Ġcoc":6075,"Ġactor":6076,"Ġcommitment":6077,"Ġdedicated":6078,"Ġflav":6079,"Ġelite":6080,"Ġextended":6081,"Ġfu":6082,"Ġfolks":6083,"Ġcontroversial":6084,"Ġcycl":6085,"Ġbrian":6086,"Ġfields":6087,"Ġmarg":6088,"erves":6089,"Ġwilson":6090,"Ġunemploy":6091,"Ġsomehow":6092,"par":6093,"every":6094,"Ġdub":6095,"Ġrating":6096,"atell":6097,"Ġpassion":6098,"Ġcable":6099,"Ġrefugees":6100,"Ġcomfortable":6101,"Ġsentence":6102,"Ġintent":6103,"agan":6104,"Ġnoticed":6105,"pres":6106,"Ġmainstream":6107,"awa":6108,"Ġforth":6109,"68":6110,"Ġhoc":6111,"Ġmagn":6112,"78":6113,"hers":6114,"cking":6115,"Ġreferred":6116,"Ġflex":6117,"ensus":6118,"Ġrepeatedly":6119,"tc":6120,"Ġjournalists":6121,"Ġpartnership":6122,"Ġtargeted":6123,"áĨ":6124,"Ġneuro":6125,"vention":6126,"Ġattempted":6127,"Ġtab":6128,"fall":6129,"Ġprotected":6130,"Ð½":6131,"ocket":6132,"rum":6133,"Ġ75":6134,"dro":6135,"Ġdeck":6136,"Ġsending":6137,"Ġtrading":6138,"Ġretire":6139,"Ġbench":6140,"uated":6141,"Ġdatabase":6142,"Ġali":6143,"Ġdealing":6144,"Ġstruck":6145,"Ġwage":6146,"Ġapproval":6147,"Ġdetroit":6148,"08":6149,"news":6150,"Ġselected":6151,"Ġbom":6152,"Ġiv":6153,"Ġoverwhel":6154,"Ġsubsid":6155,"Ġpoly":6156,"Ġescape":6157,"Ġcategory":6158,"Ġdress":6159,"ï¿":6160,"Ġprecise":6161,"Ġadapt":6162,"Ġabortion":6163,"woman":6164,"Ġscheme":6165,"Ġnarrow":6166,"Ġslowly":6167,"Ġusual":6168,"Ġawesome":6169,"lar":6170,"dem":6171,"Ġcyber":6172,"phy":6173,"Ġempire":6174,"Ġwalked":6175,"Ġdefeat":6176,"Ġempty":6177,"Ġrealized":6178,"pool":6179,"anes":6180,"Ġtypical":6181,"Ġdowntown":6182,"stone":6183,"Ġconservatives":6184,"Ġgm":6185,"american":6186,"Ġletters":6187,"Ġcausing":6188,"Ġdiagn":6189,"%)":6190,"pay":6191,"iveness":6192,"Ġdepending":6193,"Ġscar":6194,"Ġticket":6195,"Ġblame":6196,"Ġduty":6197,"Ġvacc":6198,"Ġsurrounding":6199,"Ġexciting":6200,"Ġsubscribe":6201,"Ġobserved":6202,"Ġsole":6203,"Ġemployment":6204,"Ġrisks":6205,"Ġdeals":6206,"Ġtransportation":6207,"cd":6208,"Ġdeleg":6209,"inations":6210,"Ġlocations":6211,"Ġblo":6212,"ĠÎ":6213,"Ġsom":6214,"Ġdeeply":6215,"Ġford":6216,"Ġadvertising":6217,"Ġzeal":6218,"Ġacademy":6219,"fig":6220,"Ġmistake":6221,"osen":6222,"Ġpolls":6223,"Ġphenomen":6224,"Ġestate":6225,"cers":6226,"Ġchat":6227,"Ġworldwide":6228,"Ġelsewhere":6229,"Ġpromised":6230,"Ġmatches":6231,"spe":6232,"Ġrod":6233,"hem":6234,"Ġsomewhere":6235,"mann":6236,"Ġnavy":6237,"Ġrequests":6238,"Ġtap":6239,"Ġstim":6240,"Ġstretch":6241,"Ġhits":6242,"Ġdisag":6243,"Ġintellect":6244,"kel":6245,"sch":6246,"Ġtested":6247,"Ġray":6248,"Ġitaly":6249,"azi":6250,"Ġ1970":6251,"xual":6252,"Ġdall":6253,"Ġfounder":6254,"Ġstatistics":6255,"Ġjordan":6256,"Ġsupports":6257,"Ġfranchise":6258,"Ġcontrolled":6259,"Ġemployee":6260,"Ġembar":6261,"Ġdestroyed":6262,"Ġtank":6263,"Ġcarl":6264,"uable":6265,"rect":6266,"Ġgeorgia":6267,"Ġsir":6268,"Ġbrothers":6269,"rors":6270,"arks":6271,"Ġfighters":6272,"rate":6273,"Ġcomparison":6274,"Ġlew":6275,"Ġimpressive":6276,"Ġarguments":6277,"Ġregions":6278,"aration":6279,"ye":6280,"Ġtruck":6281,"Ġremark":6282,"Ġpromote":6283,"Ġfacilities":6284,"Ġsalt":6285,"Ġroot":6286,"Ġtopic":6287,"Ġassume":6288,"ensity":6289,"Ġblind":6290,"Ġfalling":6291,"Ġrent":6292,"Ġwithdra":6293,"icul":6294,"Ġlimits":6295,"Ġdefinition":6296,"wart":6297,"Ġinvolving":6298,"Ġpunish":6299,"Ġsomebody":6300,"Ġtrees":6301,"Ġsurger":6302,"Ġted":6303,"dit":6304,"Ġdirected":6305,"Ġfees":6306,"irst":6307,"Ġhollywood":6308,"Ġprofit":6309,"pu":6310,"iciency":6311,"amm":6312,"Ġax":6313,"Ġthor":6314,"stit":6315,"fast":6316,"ooks":6317,"Ġnomine":6318,"iber":6319,"Ġmerely":6320,"Ġworried":6321,"Ġmiami":6322,"Ġcutting":6323,"Ġputs":6324,"Ġalliance":6325,"Ġ39":6326,"Ġproperly":6327,"Ġattacked":6328,"Ġcourts":6329,"icious":6330,"Ġsignal":6331,"59":6332,"lyn":6333,"Ġweird":6334,"Ġoblig":6335,"Ġbunch":6336,"Ġparking":6337,"Ġdecent":6338,"gender":6339,"oking":6340,"Ġmoore":6341,"apse":6342,"Ġkelly":6343,"Ġpir":6344,"Ġelectricity":6345,"gb":6346,"Ġjoy":6347,"ï¿½":6348,"Ġrecovery":6349,"Ġwriters":6350,"Ġturk":6351,"Ġrab":6352,"Ġequival":6353,"Ġlikes":6354,"Ġgoods":6355,"Ġliver":6356,"Ġrepresentative":6357,"Ġrecognize":6358,"Ġanx":6359,"Ġeb":6360,"Ġprogramming":6361,"Ġminority":6362,"Ġinitiative":6363,"Ġchose":6364,"pan":6365,"Ġangry":6366,"Ġmedium":6367,"bling":6368,"âĢĻ.":6369,"Ġdollar":6370,"ingu":6371,"Ġmixed":6372,"amin":6373,"Ġpilot":6374,"inson":6375,"Ġstrongly":6376,"Ġdesper":6377,"Ġindependence":6378,"Ġassistance":6379,"Ġgranted":6380,"Ġofficially":6381,"osis":6382,"67":6383,"09":6384,"Ġjur":6385,"Ġideal":6386,"Ġspanish":6387,"Ġexposed":6388,"Ġhouses":6389,"worth":6390,"Ġending":6391,"Ġpayment":6392,"oration":6393,"Ġsatell":6394,"eline":6395,"Ġshadow":6396,"ez":6397,"Ġharass":6398,"Ġuniversal":6399,"Ġgy":6400,"Ġhidden":6401,"Ġobtained":6402,"cus":6403,"Ġom":6404,"Ġcounsel":6405,"tering":6406,"tes":6407,"Ġspeaker":6408,"uration":6409,"Ġarts":6410,"Ġmeetings":6411,"Ġelectronic":6412,"Ġcondem":6413,"Ġcomponents":6414,"Ġunderstood":6415,"Ġemissions":6416,"Ġanswers":6417,"teen":6418,"Ġdad":6419,"Ġqueen":6420,"Ġenemies":6421,"Ġpayments":6422,"Ġrush":6423,"Ġdisrupt":6424,"Ġreserve":6425,"Ġpaint":6426,"ours":6427,"Ġchosen":6428,"Ġestimates":6429,"Ġtaste":6430,"Ġdisney":6431,"Ġincl":6432,"Ġdescription":6433,"Ġhay":6434,"alle":6435,"sea":6436,"Ġconspir":6437,"Ġjoseph":6438,"ded":6439,"Ġtranspa":6440,"Ġasian":6441,"Ġultimate":6442,"Ġsessions":6443,"Ġdefic":6444,"Ġauto":6445,"Ġcomprom":6446,"iments":6447,"Ġincredible":6448,"rad":6449,"Ġchoices":6450,"Ġstronger":6451,"Ġhockey":6452,"Ġties":6453,"Ġrival":6454,"Ġrh":6455,"Ġoak":6456,"Ġnhl":6457,"Ġcontinuing":6458,"Ġdriven":6459,"Ġreturning":6460,"Ġirish":6461,"Ġenterpr":6462,"06":6463,"Ġregister":6464,"Ġlawyers":6465,"Ġtony":6466,"Ġloan":6467,"07":6468,"hum":6469,"owa":6470,"people":6471,"Ġextensive":6472,"Ġshield":6473,"Ġplastic":6474,"Ġveteran":6475,"unction":6476,"Ġcd":6477,"Ġreveal":6478,"Ġacademic":6479,"Ġmachines":6480,"Ġdoz":6481,"lock":6482,"Ġcontrols":6483,"Ġextract":6484,"Ġdrew":6485,"nesota":6486,"Ġgrass":6487,"Ġrepresentatives":6488,"Ġsoul":6489,"Ġfinds":6490,"Ġtower":6491,"Ġrobot":6492,"wan":6493,"Ġclaiming":6494,"tv":6495,"Ġfeedback":6496,"Ġscotland":6497,"icial":6498,"Ġprogressive":6499,"Ġseats":6500,"Ġfake":6501,"Ġkh":6502,"Ġraising":6503,"izz":6504,"Ġori":6505,"Ġ42":6506,"Ġyellow":6507,"Ġwine":6508,"Ġbasketball":6509,"Ġnarrative":6510,"Ġpurposes":6511,"Ġlights":6512,"Ġmanip":6513,"Ġretain":6514,"Ġale":6515,"Ġodd":6516,"Ġpermanent":6517,"Ġcaptured":6518,"stal":6519,"eng":6520,"irect":6521,"58":6522,"Ġlyn":6523,"Ġaz":6524,"Ġads":6525,"Ġreasonable":6526,"intend":6527,"apy":6528,"Ġcannabis":6529,"itarian":6530,"Ġimplic":6531,"Ġdrawn":6532,"Ġrick":6533,"luding":6534,"Ġgotten":6535,"Ġlawmakers":6536,"Ġjosh":6537,"even":6538,"Ġprimarily":6539,"Ġlinux":6540,"Ġamounts":6541,"pes":6542,"Ġdallas":6543,"elect":6544,"Ġitalian":6545,"Ġconscious":6546,"Ġaspects":6547,"bro":6548,"Ġcree":6549,"Ġthreatened":6550,"Ġtel":6551,"ora":6552,"Ġtickets":6553,"04":6554,"raid":6555,"Ġcapture":6556,"Ġavenue":6557,"Ġtip":6558,"Ġgalaxy":6559,"Ġconven":6560,"Ġhang":6561,"Ġconstantly":6562,"Ġsoccer":6563,"Ġpace":6564,"asts":6565,"Ġdistinct":6566,"Ġbath":6567,"Ġperfectly":6568,"Ġregistered":6569,"Ġchances":6570,"Ġdrinking":6571,"Ġau":6572,"Ġhistoric":6573,"friend":6574,"Ġbranch":6575,"Ġcontributed":6576,"Ġcompens":6577,"Ġrejected":6578,"uls":6579,"Ġspain":6580,"Ġapartment":6581,"ĪĴ":6582,"Ġminnesota":6583,"Ġaccomp":6584,"Ġruled":6585,"onom":6586,"Ġhabit":6587,"celer":6588,"02":6589,"Ġconce":6590,"Ġnewly":6591,"Ġoutcome":6592,"Ġterrible":6593,"Ġteaching":6594,"Ġsorry":6595,"Ġclients":6596,"alf":6597,"Ġincredibly":6598,"Ġtaylor":6599,"Ġinsight":6600,"Ġmarsh":6601,"Ġexcess":6602,"Ġsugar":6603,"Ġanymore":6604,"Ġorganized":6605,"Ġplug":6606,"Ġsoph":6607,"essed":6608,"Ġfunny":6609,"Ġprinciples":6610,"Ġga":6611,"iser":6612,"Ġrecording":6613,"Ġstuck":6614,"Ġ55":6615,"aine":6616,"Ġregularly":6617,"Ġgenerate":6618,"Ġconsumption":6619,"Ġworker":6620,"Ġhind":6621,"Ġillustr":6622,"Ġshr":6623,"Ġresulting":6624,"Ġunp":6625,"Ġatmosphere":6626,"Ġenthus":6627,"ni":6628,"Ġalien":6629,"log":6630,"Ġroster":6631,"Ġtied":6632,"Ġpurs":6633,"98":6634,"Ġcitizen":6635,"Ġbang":6636,"Ġaccurate":6637,"Ġdiscovery":6638,"Ġcrucial":6639,"Ġkeeps":6640,"ills":6641,"Ġpenalty":6642,"Ġak":6643,"adelph":6644,"Ġinformed":6645,"03":6646,"sell":6647,"Ġcompre":6648,"Ġinterpret":6649,"Ġextension":6650,"Ġranking":6651,"inity":6652,"Ġdisaster":6653,"Ġroutine":6654,"Ġproducer":6655,"Ġnbc":6656,"Ġdna":6657,"Ġsympt":6658,"Ġpersonnel":6659,"Ġscenes":6660,"Ġpent":6661,"gun":6662,"Ġveget":6663,"edia":6664,"Ġmosc":6665,"Ġbron":6666,"Ġbrut":6667,"Ġsituations":6668,"Ġprize":6669,"Ġexists":6670,"Ġgate":6671,"Ġdozens":6672,"Ġreferences":6673,"Ġexplanation":6674,"type":6675,"Ġhorse":6676,"Ġdemands":6677,"page":6678,"Ġaggressive":6679,"Ġrelief":6680,"Ġ%":6681,"rer":6682,"mod":6683,"Ġenable":6684,"Ġwarming":6685,"orrow":6686,"Ġextrem":6687,"isan":6688,"adelphia":6689,"Ġcomplaint":6690,"Ġblocks":6691,"Ġoverse":6692,"Ġwrest":6693,"Ġconcluded":6694,"Ġpump":6695,"57":6696,"Ġwarri":6697,"rage":6698,"Ġokay":6699,"Ġprivile":6700,"nis":6701,"Ġexposure":6702,"Ġracial":6703,"Ġdozen":6704,"Ġtechniques":6705,"fa":6706,"Ġdust":6707,".\"[":6708,"Ġinspir":6709,"ref":6710,"Ġgift":6711,"Ġcorruption":6712,"Ġphr":6713,"fi":6714,"Ġspons":6715,"Ġproved":6716,"Ġeverywhere":6717,"Ġstrategic":6718,"Ġinterface":6719,"Ġbuck":6720,"Ġstem":6721,"owed":6722,"agram":6723,"Ġhole":6724,"lu":6725,"Ġstab":6726,"Ġjason":6727,"Ġsheriff":6728,"Ġrecip":6729,"Ġtitles":6730,"Ġtwenty":6731,"Ġconstitutional":6732,"Ġdepression":6733,"Ġpacific":6734,"Ġinnoc":6735,"Ġfalls":6736,"Ġkir":6737,"Ġsurgery":6738,"Ġfounded":6739,"Ġrepresented":6740,"Ġdiam":6741,"chain":6742,"Ġphilosophy":6743,"Ġdegrees":6744,"Ġ1999":6745,"aid":6746,"Ġmoscow":6747,"Ġweekly":6748,"itar":6749,"rene":6750,"Ġbrowser":6751,"iner":6752,"Ġphones":6753,"Ġdict":6754,"Ġsuccessfully":6755,"Ġplate":6756,"Ġanticip":6757,"Ġsurvive":6758,"300":6759,"Ġkent":6760,"Ġgat":6761,"Ġpasses":6762,"Ġcomplicated":6763,"print":6764,"Ġunif":6765,"iana":6766,"Ġpatterns":6767,"Ġmaps":6768,"Ġmanufacturing":6769,"Ġvaluable":6770,"Ġuncertain":6771,"Ġ65":6772,"Ġdelivery":6773,"Ġaffordable":6774,"Ġreputation":6775,"Ġpropag":6776,"iscons":6777,"regon":6778,"âĢĺ":6779,"Ġacceler":6780,"Ġow":6781,"Ġ($":6782,"Ġnegotiations":6783,"his":6784,"Ġ64":6785,"isconsin":6786,"exp":6787,"Ġestablishment":6788,"Ġinvestigators":6789,"etime":6790,"pected":6791,"found":6792,"Ġjac":6793,"enders":6794,"Ġlady":6795,"Ġsimilarly":6796,"ographic":6797,"Ġfred":6798,"Ġabst":6799,"gorith":6800,"pal":6801,"Ġnavig":6802,"Ġoregon":6803,"Ġlegacy":6804,"Ġautomatically":6805,"Ġcollected":6806,"Ġforever":6807,"Ġpublisher":6808,"Ġtracks":6809,"Ġfarmers":6810,"sole":6811,"</":6812,"Ġawards":6813,"Ġviet":6814,"Ġpossession":6815,"Ġfinger":6816,"Ġthousand":6817,"Ġnormally":6818,"Ġfrustr":6819,"Ġthick":6820,"Ġprominent":6821,"Ġaer":6822,"Ġarray":6823,"Ġinstalled":6824,"ugh":6825,"Ġcomics":6826,"Ġsolve":6827,"hop":6828,"Ġelev":6829,"Ġmainly":6830,"Ġaimed":6831,"Ġengaged":6832,"month":6833,"Ġoperate":6834,"osing":6835,"Ġmarked":6836,"........":6837,"js":6838,"Ġafraid":6839,"Ġneutral":6840,"Ġimplementation":6841,"lers":6842,"Ġalab":6843,"Ġsimpl":6844,"Ġvulnerable":6845,"Ġecho":6846,"Ġpriority":6847,"Ġhenry":6848,"Ġprince":6849,"llo":6850,"then":6851,"Ġaffili":6852,"Ġphiladelphia":6853,"Ġiowa":6854,"Ġfee":6855,"Ġstrict":6856,"Ġbusy":6857,"Ġequivalent":6858,"Ġstations":6859,"cles":6860,"Ġsettings":6861,"Ġtaught":6862,"Ġattended":6863,"Ġreviews":6864,"Ġcomponent":6865,"Ġkat":6866,"idency":6867,"Ġsanctions":6868,"Ġstrikes":6869,"Ġexclusive":6870,"Ġformal":6871,"Ġshock":6872,"Ġintense":6873,"Ġalgorith":6874,"hr":6875,"Ġprinciple":6876,"Ġcontracts":6877,"56":6878,"Ġmarvel":6879,"Ġobst":6880,"Ġdrawing":6881,"Ġgenerated":6882,"Ġfactory":6883,"itals":6884,"Ġapolog":6885,"!<|":6886,"Ġorange":6887,"Ġrarely":6888,"Ġfisc":6889,"Ġscenario":6890,"ala":6891,"Ð¾Ð":6892,"Ġmilk":6893,"Ġpounds":6894,"Ġfrag":6895,"Ġenjoyed":6896,"Ġmarine":6897,"ibilities":6898,"Ġsufficient":6899,"Ġavo":6900,"Ġdinner":6901,"Ġstack":6902,"Ġpremium":6903,"Ġpeak":6904,"Ġhyper":6905,"Ġgarden":6906,"Ġdoors":6907,"Ġlgbt":6908,"Ġentit":6909,"Ġvisited":6910,"Ġexpectations":6911,"Ġunusual":6912,"Ġprocesses":6913,"Ġveterans":6914,"mit":6915,"Ġinev":6916,"Ġstun":6917,"Ġont":6918,"Ġcomputers":6919,"Ġwisconsin":6920,"nc":6921,"Ġclubs":6922,"Ġexplicit":6923,"Ġcameras":6924,"Ġgreek":6925,"Ġsymp":6926,"non":6927,"Ġwonderful":6928,"ãĢ":6929,"Ġgig":6930,"Ġloyal":6931,"Ġrif":6932,"Ġharry":6933,"ĠâĢĻ":6934,"Ġgut":6935,"Ġtomorrow":6936,"Ġbry":6937,"Ġhopefully":6938,"Ġportion":6939,"ifications":6940,"Ġmars":6941,"Ġfeelings":6942,"Ġfirms":6943,"%.":6944,"otes":6945,"Ġhub":6946,"Ġholiday":6947,"Ġcomedy":6948,"========":6949,"power":6950,"rics":6951,"Ġjournalist":6952,"quarters":6953,"tech":6954,"Ġcreates":6955,"Ġandre":6956,"Ġsteam":6957,"Ġpas":6958,"Ġperce":6959,"rete":6960,"))":6961,"areness":6962,"Ġ44":6963,"uine":6964,"Ġbug":6965,"Ġvital":6966,"Ġcompete":6967,"Ġtoler":6968,"Ġdescribes":6969,"Ġholy":6970,"Ġ47":6971,"Ġwalls":6972,"Ġadopted":6973,"Ġfought":6974,"Ġscoring":6975,"Ġprocessing":6976,"Ġastron":6977,"Ġdragon":6978,"Ġ400":6979,"Ġanton":6980,"Ġmonitor":6981,"ena":6982,"Ġracing":6983,"Ġyield":6984,"Ġrook":6985,"Ġwarrant":6986,"Ġalabama":6987,"Ġpray":6988,"Ġdestruction":6989,"Ġships":6990,"Ġgov":6991,"Ġts":6992,"lan":6993,"Ġpermission":6994,"trans":6995,"Ġcited":6996,"phones":6997,"Ġhadn":6998,"eda":6999,"Ġvisible":7000,"Ġdance":7001,"Ġliquid":7002,"ji":7003,"lix":7004,"Ġfootage":7005,"made":7006,"may":7007,"Ġarsen":7008,"Ġzealand":7009,"Ġemerged":7010,"Ġlandsc":7011,"Ġresulted":7012,"Ġintellectual":7013,"Ġtransit":7014,"Ġgif":7015,"Ġloud":7016,"Ġlosses":7017,"Ġepisodes":7018,"athy":7019,"olis":7020,"Ġroof":7021,"actions":7022,"86":7023,"Ġframework":7024,"Ġnewsletter":7025,"Ġwelf":7026,"making":7027,"Ġfiction":7028,"Ġlaid":7029,"Ġlane":7030,"Ġlanguages":7031,"aving":7032,"upid":7033,"bb":7034,"Ġscholars":7035,"Ġvr":7036,"Ġenorm":7037,"Ġreduction":7038,"ria":7039,"Ġborrow":7040,"idelines":7041,"Ġsept":7042,"Ġmanchester":7043,"Ġjay":7044,"Ġsaved":7045,"getty":7046,"rough":7047,"core":7048,"Ġguardian":7049,"Ġwelfare":7050,"âĢĻ,":7051,"Ġgreg":7052,"Ġexternal":7053,"Ġcircuit":7054,"Ġminds":7055,"vania":7056,"Ġtrigger":7057,"Ġarena":7058,"Ġresource":7059,"Ġknight":7060,"Ġinnovation":7061,"Ġexception":7062,"Ġrice":7063,"Ġparticipate":7064,"Ġrank":7065,"Ġeag":7066,"uous":7067,"Ġphysic":7068,"Ġsmoke":7069,"Ġinterviews":7070,"mate":7071,"Ġsty":7072,"Ġstable":7073,"Ġprotocol":7074,"Ġentering":7075,"Ġtail":7076,"Ġinvent":7077,"Ġreader":7078,"Ġmatthe":7079,"Ġatlanta":7080,"asion":7081,"Ġprofession":7082,"Ġbin":7083,"urb":7084,"Ġlind":7085,"Ġpad":7086,"Ġreven":7087,"Ġsnap":7088,"Ġliberty":7089,"Ġgenuine":7090,"Ġgained":7091,"Ġbanned":7092,"Ġintroduction":7093,"Ġingred":7094,"Ġamid":7095,"Ġshit":7096,"Ġcu":7097,"Ġigno":7098,"antic":7099,"Ġlobby":7100,"Ġaver":7101,"why":7102,"izon":7103,"Ġpapers":7104,"aska":7105,"Ġ150":7106,"Ġretired":7107,"Ġrober":7108,"Ġturkish":7109,"Ġghost":7110,"Ġ41":7111,"rec":7112,"profit":7113,"ilton":7114,"Ġmenu":7115,"Ġdiscrimination":7116,"py":7117,"hentic":7118,"Ġarc":7119,"Ġscreens":7120,"Ġfighter":7121,"Ġcollective":7122,"Ġwaters":7123,"69":7124,"spec":7125,"ern":7126,"Ġmath":7127,"Ġpul":7128,"Ġcommander":7129,"Ġwhenever":7130,"Ġwalker":7131,"Ġprepare":7132,"Ġmovements":7133,"Ġbehalf":7134,"Ġdynamic":7135,"Ġarrange":7136,"front":7137,"Ġtransgender":7138,"hetic":7139,"Ġheaded":7140,"Ġgonna":7141,"Ġwww":7142,"Ġtum":7143,"Ġrear":7144,"Ġlistening":7145,"Ġpig":7146,"Ġcenters":7147,"Ġguest":7148,"Ġstruggling":7149,"igen":7150,"Ġcircle":7151,"berry":7152,"donald":7153,"Ġliby":7154,"Ġsmooth":7155,"Ġrely":7156,"eding":7157,"Ġanger":7158,"Ġroles":7159,"Ġnaturally":7160,"Ġcel":7161,"Ġ->":7162,"Ġcogn":7163,"icy":7164,"Ġfiscal":7165,"Ġdeliber":7166,"Ġchip":7167,"Ġdiego":7168,"these":7169,"Ġfeaturing":7170,"Ġpel":7171,"rific":7172,"ifies":7173,"Ġbacked":7174,"Ġflaw":7175,"Ġtam":7176,"oe":7177,"Ġachieved":7178,"Ġbird":7179,"Ġrecognized":7180,"Ġfriendly":7181,"Ġbail":7182,"Ġequally":7183,"anny":7184,"Ġward":7185,"Ġhook":7186,"Ġfc":7187,"Ġbarely":7188,"Ġ43":7189,"Ġliked":7190,"Ġcontaining":7191,"Ġadventure":7192,"Ġ1960":7193,"Ġ1998":7194,"Ġtackle":7195,"oric":7196,"osexual":7197,"Ġbeliefs":7198,"Ġindicate":7199,"Ġgrav":7200,"Ġrocket":7201,"Ġhorror":7202,"rical":7203,"Ġregulation":7204,"rators":7205,"Ġpresum":7206,"54":7207,"52":7208,"Ġgross":7209,"Ġrural":7210,"Ġcorporations":7211,"Ġincent":7212,"Ġouts":7213,"Ġrecognition":7214,"Ġswim":7215,"iler":7216,"cor":7217,"Ġlogic":7218,"burgh":7219,"Ġhired":7220,"cond":7221,"syl":7222,"Ġstructures":7223,"51":7224,"Ġabc":7225,"Ġpatrick":7226,"Ġwides":7227,"++":7228,"pread":7229,"Ġbund":7230,"Ġanthony":7231,"Ġreddit":7232,"Ġutil":7233,"anges":7234,"Ġpresc":7235,"yer":7236,"Ġmccain":7237,"Ġnominee":7238,"Ġ00":7239,"Ġgrid":7240,"amac":7241,"Ġ46":7242,"Ġexit":7243,"Ġscores":7244,"ested":7245,"rass":7246,"Ġbernie":7247,"Ġbonus":7248,"isa":7249,"Ġnato":7250,"Ġboat":7251,"Ġufc":7252,"Ġkansas":7253,"gi":7254,"Ġrecommended":7255,"Ġhitting":7256,"esy":7257,"ashes":7258,"press":7259,"angel":7260,"Ġpractical":7261,"Ġcomprehens":7262,"Ġrestrictions":7263,"Ġtechnique":7264,"Ġjoining":7265,"Ġvisitors":7266,"ira":7267,"Ġhardly":7268,"Ġconsole":7269,"Ġrs":7270,"97":7271,"Ġproven":7272,"Ġlucky":7273,"Ġethnic":7274,"Ġviewers":7275,"ilipp":7276,"fin":7277,"Ġhunt":7278,"late":7279,"Ġillness":7280,"bles":7281,"Ġunemployment":7282,"oured":7283,"________________":7284,"Ġmm":7285,"Ġuncom":7286,"Ġnoise":7287,"Ġovers":7288,"Ġroads":7289,":<|":7290,"Ġgent":7291,"Ġreducing":7292,"Ġmarks":7293,"Ġwebsites":7294,"user":7295,"Ġconvin":7296,"pat":7297,"ogen":7298,"Ġanonymous":7299,"Ġshell":7300,"Ġawareness":7301,"Ġios":7302,"Ġcrown":7303,"Ġcorporation":7304,"will":7305,"hd":7306,"Ġreaching":7307,"veland":7308,"Ġblocked":7309,"Ġchallenging":7310,"Ġperpet":7311,"Ġsettlement":7312,"Ġbub":7313,"lessly":7314,"etts":7315,"Ġinquir":7316,"agger":7317,"Ġlicens":7318,"Ġcontained":7319,"Ġupset":7320,"Ġrevel":7321,"Ġchristians":7322,"::":7323,"Ġmini":7324,"itors":7325,"Ġinterior":7326,"Ġconvicted":7327,"Ġanybody":7328,"Ġinject":7329,"etary":7330,"Ġbeauty":7331,"Ġfruit":7332,"Ġjury":7333,"Ġproducing":7334,"rator":7335,"Ġcasual":7336,"opher":7337,"Ġmining":7338,"Ġcampaigns":7339,"Ġbears":7340,"Ġbrill":7341,"ascript":7342,"Ġimprovements":7343,"Ġlux":7344,"Ġfantastic":7345,"Ġallen":7346,"amacare":7347,"Ġcollapse":7348,"Ġaustin":7349,"ouver":7350,"Ġespn":7351,"Ġupgrade":7352,"ashing":7353,"Ġscandal":7354,"ouch":7355,"Ġinner":7356,"Ġcompe":7357,"Ġcameron":7358,"high":7359,"Ġlists":7360,"Ġsanta":7361,"Ġclock":7362,"supp":7363,"Ġlatin":7364,"Ġrescue":7365,"%,":7366,"uce":7367,"Ġcommissioner":7368,"riers":7369,"Ġinfo":7370,"Ġreprodu":7371,"Ġdiversity":7372,"Ġracist":7373,"Ġxbox":7374,"Ġml":7375,"Ġsams":7376,"Ġconnections":7377,"Ġsubjects":7378,"Ġterrorists":7379,"Ġroy":7380,"Ġadvocates":7381,"Ġmerc":7382,"Ġva":7383,"Ġconspiracy":7384,"Ġwidespread":7385,"Ġtonight":7386,"only":7387,"Ġcontribute":7388,"Ġsha":7389,"Ġspaces":7390,"sels":7391,"Ġiii":7392,"Ġhumanity":7393,"Ġpennsyl":7394,"Ġcomplaints":7395,"400":7396,"Ġelig":7397,"usive":7398,"53":7399,"Ġmissile":7400,"Ġdrum":7401,"Ġreferring":7402,"Ġib":7403,"Ġpatch":7404,"Ġhan":7405,"Ġsettle":7406,"Ġbehaviour":7407,"Ġkm":7408,"Ġcarefully":7409,"Ġgetty":7410,"herent":7411,"Ġasks":7412,"Ġrapidly":7413,"mented":7414,"ali":7415,"ounced":7416,"plus":7417,"Ġrav":7418,"Ġimprovement":7419,"Ġsensitive":7420,"Ġgenetic":7421,"Ġindicated":7422,"Ġbegun":7423,"Ġquote":7424,"Ġheading":7425,"Ġfoss":7426,"ighter":7427,"apes":7428,"eless":7429,"turn":7430,"Ġstupid":7431,"Ġapi":7432,"Ġdefine":7433,"yard":7434,"Ġnotion":7435,"Ġchicken":7436,"Ġsony":7437,"aire":7438,"Ġporn":7439,"Ġdevast":7440,"Ġownership":7441,"oning":7442,"Ġscan":7443,"Ġinspect":7444,"Ġunex":7445,"Ġfailing":7446,"Ġrecover":7447,"âĸ":7448,"Ġsuggesting":7449,"esc":7450,"Ġlt":7451,"Ġtemporary":7452,"Ġincorpor":7453,"case":7454,"Ġtren":7455,"Ġcav":7456,"Ġunw":7457,"Ġexceed":7458,"ancouver":7459,"Ġans":7460,"Ġtone":7461,"Ġwhereas":7462,"Ġneighbour":7463,"96":7464,"azz":7465,"Ġversus":7466,"Ġhypot":7467,"Ġtill":7468,"Ġcabinet":7469,"Ġvary":7470,"timore":7471,"Ġross":7472,"Ġcontroversy":7473,"ucky":7474,"Ġeconomics":7475,"Ġlayer":7476,"pack":7477,"Ġmonster":7478,"Ġforgot":7479,"Ġsum":7480,"uch":7481,"ione":7482,"Ġnc":7483,"Ġpennsylvania":7484,"achus":7485,"Ġtemple":7486,"Ġsamples":7487,"Ġves":7488,"Ġneck":7489,"Ġtestim":7490,"Ġequality":7491,"Ġspar":7492,"Ġplain":7493,"87":7494,"aka":7495,"Ġpublication":7496,"Ġpersonality":7497,"Ġtasks":7498,"Ġunclear":7499,"Ġwol":7500,"mental":7501,"Ġoverwhelming":7502,"Ġdisagree":7503,"Ġsummit":7504,"Ġinvolvement":7505,"Ġalph":7506,"Ġactors":7507,"step":7508,"thon":7509,"Ġranked":7510,"Ġislands":7511,"Ġconvinced":7512,"Ġfortun":7513,"Ġbars":7514,"Ġmanif":7515,"ito":7516,"Ġstol":7517,"udes":7518,"Ġphilipp":7519,"Ġdeeper":7520,"hour":7521,"Ġgene":7522,"Ġsalary":7523,"Ġfallen":7524,"Ġcher":7525,"Ġignore":7526,"Ġcoaches":7527,"away":7528,"Ġprosecutors":7529,"Ġgenes":7530,"Ġsymptoms":7531,"Ġphotograp":7532,"Ġdod":7533,"active":7534,"istent":7535,"Ġtes":7536,"Ġwages":7537,"Ġassass":7538,"Ġthrown":7539,"Ġalbert":7540,"Ġsed":7541,"Ġcbs":7542,"Ġsurely":7543,"Ġcine":7544,"ologists":7545,"onso":7546,"Ġaccompan":7547,"Ġarabia":7548,"Ġclosing":7549,"Ġguarante":7550,"Ġheroes":7551,"Ġmusical":7552,"Ġintervention":7553,"Ġserves":7554,"Ġassessment":7555,"Ġrespectively":7556,"Ġrational":7557,"heast":7558,"ulating":7559,"uing":7560,"Ġcolors":7561,"Ġinvestigate":7562,"Ġcul":7563,"Ġdrama":7564,"Ġtie":7565,"Ġsurf":7566,"Ġanderson":7567,"Ġinvited":7568,"rc":7569,"ila":7570,"Ġcrus":7571,"Ġdump":7572,"Ġfiref":7573,"Ġtu":7574,"imm":7575,"Ġactivist":7576,"Ġloans":7577,"Ġestimate":7578,"Ġott":7579,"inois":7580,"je":7581,"Ġbudd":7582,"Ġsuperior":7583,"bered":7584,"Ġraces":7585,"Ġfault":7586,"Ġexpanded":7587,"last":7588,"achusetts":7589,"Ġparalle":7590,"nedy":7591,"sub":7592,"arity":7593,"Ġsamsung":7594,"Ġgrade":7595,"Ġlets":7596,"Ġridicul":7597,"Ġattacking":7598,"aning":7599,"Ġdiscussions":7600,"Ġplatforms":7601,"mont":7602,"Ġspiritual":7603,"Ġglad":7604,"Ġvegas":7605,"Ġtrained":7606,"Ġauthentic":7607,"mus":7608,"Ġdave":7609,"Ġlegs":7610,"Ġgray":7611,"Ġfoods":7612,"Ġtopics":7613,"Ġimplemented":7614,"Ġcream":7615,"Ġdispl":7616,"rele":7617,"oen":7618,"Ġbrook":7619,"Ġcivilians":7620,"Ġmetro":7621,"Ġdol":7622,"Ġboot":7623,"Ġjudges":7624,"Ġnsa":7625,"oked":7626,"Ġgrounds":7627,"Ġblast":7628,"Ġrolling":7629,"Ġtut":7630,"Ġattempting":7631,"Ġdemonst":7632,"Ġopinions":7633,"ihad":7634,"Ġ1997":7635,"Ġremarks":7636,"Ġ1996":7637,"Ġliterature":7638,"Ġharris":7639,"Ġannivers":7640,"Ġages":7641,"Ġattached":7642,"vy":7643,"Ġcolumbia":7644,"Ġeve":7645,"Ġhoward":7646,"nat":7647,"Ġvoter":7648,"Ġtouchdown":7649,"Ġpride":7650,"Ġpor":7651,"Ġnu":7652,"Ġextend":7653,"Ġlewis":7654,"Ġglobe":7655,"Ġswing":7656,"Ġsenators":7657,"big":7658,"Ġgreece":7659,"Ġproviders":7660,"Ġambass":7661,"Ġtips":7662,"Ġstake":7663,"Ġdomain":7664,"Ġobamacare":7665,"Ġuber":7666,"connect":7667,"good":7668,"Ġdramatic":7669,"Ġstreng":7670,"gal":7671,"Ġgathered":7672,"Ġdiscip":7673,"aron":7674,"85":7675,"Ġvirtually":7676,"Ġvancouver":7677,"Ġnin":7678,"Ġheadquarters":7679,"Ġguitar":7680,"Ġkeys":7681,"Ġpier":7682,"Ġpetition":7683,"Ġmassachusetts":7684,"Ġhealthcare":7685,"ima":7686,"Ġtweeted":7687,"Ġprotein":7688,"cos":7689,"Ġramp":7690,"umes":7691,"Ġhighlights":7692,"station":7693,"Ġsubsequent":7694,"Ġhydro":7695,"Ġviewed":7696,"cia":7697,"Ġai":7698,"Ġpurchased":7699,"Ġdisappear":7700,"Ġnoting":7701,"graph":7702,"ikes":7703,"Ġkennedy":7704,"Ġchamber":7705,"Ġhighway":7706,"Ġcompare":7707,"Ġarsenal":7708,"Ġcleveland":7709,"Ġlegislative":7710,"first":7711,"Ġhomeless":7712,"Ġgiants":7713,"Ġsuspected":7714,"Ġmonthly":7715,"Ġbaltimore":7716,"Ġtrem":7717,"Ġchest":7718,"Ġfate":7719,"Ġhandful":7720,"Ġvib":7721,"rac":7722,"Ġprogramme":7723,"Ġsurvival":7724,"including":7725,"Ġ~":7726,"Ġbuzz":7727,"Ġseemingly":7728,"ÃĹ":7729,"Ġabb":7730,"Ġchron":7731,"gent":7732,"Ġsuffer":7733,"Ġelder":7734,"Ġtoy":7735,"Ġcovers":7736,"Ġoffices":7737,"Ġpresidency":7738,"Ġanniversary":7739,"Ġiranian":7740,"Ġillinois":7741,"Ġinvestigating":7742,"white":7743,"Ġ52":7744,"Ġdistributed":7745,"ource":7746,"Ġhip":7747,"Ġ2019":7748,"Ġpicks":7749,"76":7750,"lah":7751,"Ġstrip":7752,"Ġadmit":7753,"bow":7754,"Ġindustries":7755,"Ġenormous":7756,"Ġclothes":7757,"Ġresign":7758,"Ġsurviv":7759,"aret":7760,"Ġreads":7761,"Ġthrowing":7762,"Ġfulf":7763,"Ġcareful":7764,"Ġtent":7765,"Ġattitude":7766,"Ġopens":7767,"Ġcontributions":7768,"Ġusage":7769,"Ġuniversities":7770,"Ġlegitimate":7771,"rendum":7772,"Ġinflation":7773,"Ġbind":7774,"Ġguarantee":7775,"Ġsubstantial":7776,"Ġ_":7777,"Ġabsence":7778,"Ġsuspended":7779,"Ġpreced":7780,"Ġruby":7781,"Ġrebu":7782,"tel":7783,"Ġspeaks":7784,"Ġembarrass":7785,"Ġhandling":7786,"orse":7787,"arms":7788,"Ġefficiency":7789,"ront":7790,"Ġmes":7791,"rets":7792,"Ġshopping":7793,"Ġsword":7794,"asty":7795,"fund":7796,"Ġfears":7797,"bin":7798,"lif":7799,"ocation":7800,"Ġformula":7801,"Ġjunior":7802,"'.":7803,"Ġcig":7804,"usted":7805,"Ġbacter":7806,"Ġmole":7807,"wind":7808,"Ġtracking":7809,"Ġartific":7810,"Ġmonitoring":7811,"Ġskept":7812,"pc":7813,"Ġiraqi":7814,"Ġpharm":7815,"Ġlowest":7816,"Ġ?":7817,"Ġcheese":7818,"intendo":7819,"etch":7820,"89":7821,"Ġburning":7822,"isp":7823,"Ġpassword":7824,"Ġshout":7825,"ĠâĤ¬":7826,"owned":7827,"Ġbread":7828,"xit":7829,"Ġgaza":7830,"boy":7831,"Ġmembership":7832,"Ġscientist":7833,"Ġdepends":7834,"Ġinvolves":7835,"Ġhug":7836,"Ġunions":7837,"through":7838,"Ġjavascript":7839,"Ġgains":7840,"Ġcourtesy":7841,"Ġarchitecture":7842,"Ġfool":7843,"uma":7844,"Ġpipeline":7845,"Ġconversations":7846,"two":7847,"Ġprofits":7848,"Ġsatellite":7849,"Ġtens":7850,"Ġpassengers":7851,"build":7852,"ng":7853,"\")":7854,"Ġbutt":7855,"Ġimperial":7856,"Ġgor":7857,"otype":7858,"Ġbanking":7859,"Ġbesides":7860,"Ġrookie":7861,"Ġstayed":7862,"Ġcorp":7863,"Ġimproving":7864,"Ġmrs":7865,"jud":7866,"Ġpant":7867,"####":7868,"Ġinstructions":7869,"Ġconsistently":7870,"lad":7871,"Ġwolf":7872,"rolled":7873,"Ġtape":7874,"Ġentr":7875,"Ġhanded":7876,"Ġpix":7877,"Ġreferendum":7878,"Ġcau":7879,".-":7880,"ras":7881,"secution":7882,"Ġcooperation":7883,"Ġhurric":7884,"Ġmidfield":7885,"bits":7886,"icon":7887,"ĠâĢĿ":7888,"Ġcorn":7889,"Ġprotecting":7890,"bled":7891,"Ġcovering":7892,"Ġdivided":7893,"Ġbirds":7894,"Ġreplacement":7895,"Ġsarah":7896,"Ġlying":7897,"ijing":7898,"dep":7899,"Ġmexican":7900,"Ġextraord":7901,"Ġballot":7902,"ommod":7903,"Ġtemperatures":7904,"Ġacid":7905,"Ġrender":7906,"llar":7907,"wered":7908,"date":7909,"Ġresponses":7910,"Ġdepos":7911,"Ġaddressed":7912,"Ġdelic":7913,"reprene":7914,"Ġshoulder":7915,"Ġjustin":7916,"scale":7917,"rett":7918,"Ġtries":7919,"ĠáĦ":7920,"Ġkitchen":7921,"Ġleaf":7922,"Ġsie":7923,"ustration":7924,"bus":7925,"Ġ51":7926,"Ġtoxic":7927,"Ġpromises":7928,"ppers":7929,"Ġaccommod":7930,"Ġincidents":7931,"Ġforb":7932,"Ġug":7933,"Ġtrave":7934,"Ġappreciate":7935,"Ġgallery":7936,"Ġbelt":7937,"Ġinvestigations":7938,"Ġalexander":7939,"neys":7940,"Ġrhet":7941,"Ġboom":7942,"Ġbible":7943,"Ġpocket":7944,"ystem":7945,"Ġkong":7946,"Ġark":7947,"Ġenterprise":7948,"Ġspell":7949,"Ġsilence":7950,"Ġpersons":7951,"because":7952,"Ġsoil":7953,"Ġpill":7954,"oval":7955,"Ġspokesperson":7956,"Ġracism":7957,"Ġscope":7958,"Ġchecks":7959,"ql":7960,"Ġjoke":7961,"Ġordinary":7962,"Ġranks":7963,"Ġliberals":7964,"acking":7965,"Ġclinical":7966,"flix":7967,"lee":7968,"Ġspoken":7969,"Ġtransactions":7970,"Ġencouraged":7971,"Ġvirus":7972,"Ġmistakes":7973,"Ġinequ":7974,"Ġperforming":7975,"!)":7976,"Ġratio":7977,"Ġblockchain":7978,"bridge":7979,"Ġaccus":7980,"mans":7981,"Ġcance":7982,"Ġobjective":7983,"Ġpoke":7984,"Ġfisher":7985,"Ġsurge":7986,"di":7987,"mind":7988,"apping":7989,"Ġratings":7990,"Ġlocked":7991,"Ġengineers":7992,"Ġwis":7993,"Ġ1995":7994,"Ġdates":7995,"Ġbreaks":7996,"Ġcopies":7997,"ictions":7998,"Ġwarn":7999,"Ġchel":8000,"itage":8001,"Ġsecondary":8002,"trump":8003,"Ġjar":8004,"Ġsaving":8005,"Ġbullet":8006,"vp":8007,"Ġmall":8008,"Ġmargin":8009,"Ġstolen":8010,"Ġpublishing":8011,"Ġmoreover":8012,"Ġmemorial":8013,"Ġabandoned":8014,"ucking":8015,"Ġsear":8016,"Ġconventional":8017,"Ġabstract":8018,"Ġborders":8019,"Ġpink":8020,"Ġstriking":8021,"jan":8022,"Ġwra":8023,"Ġlun":8024,"qa":8025,"Ġvel":8026,"Ġdenver":8027,"Ġsmile":8028,"Ġmanaging":8029,"Ġindiana":8030,"Ġacquired":8031,"Ġinval":8032,"\".[":8033,"die":8034,"cur":8035,"Ġdocumentary":8036,"Ġmile":8037,"Ġportland":8038,"Ġentreprene":8039,"pie":8040,"zer":8041,"Ġku":8042,"Ġchildhood":8043,"Ġvig":8044,"Ġfold":8045,"Ġportray":8046,"Ġlanding":8047,"Ġcommonly":8048,"len":8049,"Ġstages":8050,"cap":8051,"Ġliverpool":8052,"ivals":8053,"Ġseed":8054,"Ġtowns":8055,"Ġcounts":8056,"Ġepic":8057,"Ġjonathan":8058,"Ġgraduate":8059,"Ġpodcast":8060,"Ġdiscour":8061,"Ġjet":8062,"Ġtactics":8063,"âĢĶâĢĶâĢĶâĢĶ":8064,"Ġtwist":8065,"Ġvisiting":8066,"umin":8067,"Ġsmoking":8068,"watch":8069,"Ġreceiver":8070,"Ġhaz":8071,"Ġhelpful":8072,"Ġconcrete":8073,"Ġencry":8074,"Ġfunded":8075,"fare":8076,"Ġroberts":8077,"Ġretirement":8078,"Ġassert":8079,"Ġnintendo":8080,"tar":8081,"Ġmechanism":8082,"iti":8083,"********":8084,"79":8085,"Ġdick":8086,"Ġlandscape":8087,"base":8088,"Ġblank":8089,"ben":8090,"Ġrecipe":8091,"Ġbutter":8092,"Ġsweden":8093,"74":8094,"Ġthrew":8095,"Ġappearances":8096,"Ġmirror":8097,"Ġdisorder":8098,"Ġnomination":8099,"Ġmeasured":8100,"Ġmathe":8101,"Ġdiverse":8102,"aping":8103,"Ġrepeat":8104,"Ġgulf":8105,"iot":8106,"eping":8107,"72":8108,"Ġhu":8109,"fol":8110,"Ġcorps":8111,"heim":8112,"Ġshame":8113,"pel":8114,"Ġassign":8115,"Ġgord":8116,"Ġdistract":8117,"lc":8118,"Ġletting":8119,"Ġsupplies":8120,"Ġproducers":8121,"Ġmunicip":8122,"Ġwarren":8123,"Ġatlantic":8124,"Ġunderground":8125,"Ġcoin":8126,"Ġfleet":8127,"Ġstal":8128,"Ġinstant":8129,"Ġutah":8130,"Ġforecast":8131,"Ġsequence":8132,"Ġproposals":8133,"bac":8134,"Ġkiss":8135,"alo":8136,"mart":8137,"Ġacknowledged":8138,"Ġ1994":8139,"erted":8140,"Ġdish":8141,"Ġgraham":8142,"abeth":8143,"Ġarrive":8144,"Ġdeadly":8145,"Ġrestaurants":8146,"Ġautonom":8147,"ington":8148,"Ġstro":8149,"ÂĴ":8150,"Ġontario":8151,"Ġreliable":8152,"Ġros":8153,"Ġsect":8154,"Ġmortg":8155,"Ġcapabilities":8156,"aga":8157,"aze":8158,"Ġelectoral":8159,"Ġstudied":8160,"Ġsevent":8161,"Ġvit":8162,"Ġrecre":8163,"Ġlunch":8164,"Ġpoison":8165,"Ġsemi":8166,"ika":8167,"emen":8168,"Ġbloom":8169,"Ġassociate":8170,"Ġrepresenting":8171,"Ġgraphics":8172,"Ġ(âĢľ":8173,"Ġleon":8174,"Ġreverse":8175,"igue":8176,"Ġprisoners":8177,"html":8178,"Ġignored":8179,"Ġgab":8180,"Ġbeijing":8181,"Ġcapit":8182,"Ġdemonstrated":8183,"uted":8184,"Ġprovision":8185,"Ġmerch":8186,"Ġbrilliant":8187,"Ġedward":8188,"Ġfuck":8189,"Ġdreams":8190,"Ġdeficit":8191,"kee":8192,"lahoma":8193,"Ġimportantly":8194,"Ġsavings":8195,"Ġsean":8196,"ieties":8197,"Ġexperiments":8198,"Ġclassified":8199,"Ġplayoffs":8200,"door":8201,"Ġcoordin":8202,"Ġbreath":8203,"Ġabsor":8204,"Ġmemo":8205,"Ġcomprehensive":8206,"Ġodds":8207,"tex":8208,"backs":8209,"Ġtargeting":8210,"och":8211,"Ġincomp":8212,"dney":8213,"Ġbold":8214,"Ġstreaming":8215,"Ġfrequency":8216,"Ġmodule":8217,"Ġabroad":8218,"Ġdesigns":8219,"Ġsixth":8220,"Ġchannels":8221,"Ġtestimony":8222,"Ġoverseas":8223,"sd":8224,"Ġtorture":8225,"Ġpuzz":8226,"vo":8227,"Ġeliz":8228,"Ġpolitically":8229,"Ġviolation":8230,"ferences":8231,"author":8232,"claim":8233,"Ġappointed":8234,"Ġloop":8235,"Ġalter":8236,"800":8237,"Ġvoices":8238,"Ġcrypt":8239,"Ġservers":8240,"esty":8241,"Ġstability":8242,"inction":8243,"string":8244,"Ġsteven":8245,"Ġcock":8246,"Ġcarter":8247,"iano":8248,"inch":8249,"Ġpope":8250,"Ġanxiety":8251,"Ġguidelines":8252,"Ġfocusing":8253,"Ġdies":8254,"Ġbruce":8255,"comes":8256,"Ġorganic":8257,"Ġstatist":8258,"Ġhoped":8259,"Ġprincipal":8260,"Ġburden":8261,"left":8262,"Ġfiring":8263,"rock":8264,"Ġkings":8265,"Ġbeta":8266,"Ġabilities":8267,"Ġpredicted":8268,"ctic":8269,"aching":8270,"Ġtheater":8271,"Ġexecution":8272,"inst":8273,"owing":8274,"Ġgenerations":8275,"Ġengineer":8276,"div":8277,"encing":8278,"Ġwaves":8279,"working":8280,"Ġshipping":8281,"Ġhd":8282,"Ġunexpected":8283,"Ġswift":8284,"Ġheritage":8285,"Ġrevolutionary":8286,"Ġaccomplish":8287,"Ġchocol":8288,"Ġreplied":8289,"Ġosc":8290,"Ġ2020":8291,"Ġspectrum":8292,"Ġolympic":8293,"Ġky":8294,"Ġcriticized":8295,"Ġadditionally":8296,"Ġsoldier":8297,"Ġstrategies":8298,"Ġeducational":8299,"Ġinnocent":8300,"Ġmaryland":8301,"Ġwond":8302,"break":8303,"Ġdutch":8304,"Ġsmartphone":8305,"Ġyan":8306,"Ġloose":8307,"about":8308,"week":8309,"bors":8310,"Ġnetflix":8311,"Ġinsisted":8312,"Ġmagnet":8313,"Ġjen":8314,"Ġentitled":8315,"zed":8316,"Ġbish":8317,"hard":8318,"Ġambassador":8319,"Ġencounter":8320,"Ġcharity":8321,"Ġspokeswoman":8322,"mid":8323,"Ġreleases":8324,"Ġlands":8325,"Ġdistingu":8326,"Ġtrials":8327,"Ġdrove":8328,"Ø§":8329,"Ġdismissed":8330,"inks":8331,"Ġbattles":8332,"Ġparks":8333,"theless":8334,"Ġdrone":8335,"Ġamy":8336,"Ġnur":8337,"Ġwider":8338,"archy":8339,"Ġconfront":8340,"Ġunde":8341,"Ġpropaganda":8342,"Ġrequested":8343,"Ġul":8344,"Ġhey":8345,"Ġpreparing":8346,"Ġdying":8347,"Ġcivilian":8348,"Ġvin":8349,"Ð»":8350,"Ġmystery":8351,"Ġcelebrate":8352,"Ġpopulations":8353,"Ġcontrad":8354,"Ġtitled":8355,"vereign":8356,"Ġtrends":8357,"Ġprocedure":8358,"market":8359,"Ġcm":8360,"Ġintroduce":8361,"Ġathe":8362,"Ġrelax":8363,"zing":8364,"Ġ53":8365,"Ġweigh":8366,"Ġdifficulty":8367,"Ġdialogue":8368,"Ġbelg":8369,"usalem":8370,"Ġoklahoma":8371,"ppy":8372,"Ġgary":8373,"http":8374,"party":8375,"63":8376,"Ġharvard":8377,"tra":8378,"Ġbrus":8379,"Ġdual":8380,"abet":8381,"ads":8382,"Ġdeem":8383,"Ġcapitalism":8384,"ule":8385,"Ġsubmitted":8386,"mem":8387,"ext":8388,"Ġurged":8389,"ultane":8390,"itzer":8391,"Ġjihad":8392,"Ġkurd":8393,"sis":8394,"Ġformation":8395,"Ġrooms":8396,"Ġvert":8397,"Ġanalysts":8398,"Ġemerging":8399,"Ġagriculture":8400,"govern":8401,"Ġcalm":8402,"Ġgathering":8403,"irts":8404,"Ġcatal":8405,"oenix":8406,"Ġriding":8407,"Ġpursue":8408,"Ġthorough":8409,"Ġtherapy":8410,"isons":8411,"Ġphrase":8412,"iev":8413,"cover":8414,"Ġpopularity":8415,"Ġstats":8416,"Ġreplic":8417,"Ġpron":8418,"Ġrounds":8419,"Ġtables":8420,"Ġforcing":8421,"Ġphysics":8422,"Ġerrors":8423,"Ġchelsea":8424,"Ġcoinc":8425,"Ġfame":8426,"Ġemployed":8427,"stop":8428,"rooms":8429,"Ġpsychological":8430,"Ġregulatory":8431,"Ġorganisation":8432,"Ġaqu":8433,"Ġwings":8434,"agr":8435,"Ġknee":8436,"organ":8437,"vd":8438,"Ġarbit":8439,"remony":8440,"Ġoutrage":8441,"Ġsem":8442,"Ġrebels":8443,"Ġ95":8444,"2014":8445,"Ġ**":8446,"Ġmemories":8447,"Ġadap":8448,"Ġfoster":8449,"Ġbias":8450,"Ġmemor":8451,"Ġjudgment":8452,"Ġingredients":8453,"nie":8454,"Ġunity":8455,"Ġdeny":8456,"62":8457,"Ġceremony":8458,"Ġchaos":8459,"Ġreveals":8460,"Ġinvestments":8461,"hill":8462,"Ġexha":8463,"\">":8464,"Ġinstagram":8465,"Ġarguing":8466,"Ġdonations":8467,"orship":8468,"Ġsolo":8469,"Ġtodd":8470,"Ġboe":8471,"Ġlect":8472,"erts":8473,"via":8474,"Ġcommunist":8475,"Ġharassment":8476,"Ġstaying":8477,"eters":8478,"Ġwealthy":8479,"Ġnotable":8480,"Ġnevertheless":8481,"Ġsimultane":8482,"shire":8483,"Ġdemanding":8484,"minute":8485,"Ġconsent":8486,"del":8487,"Ġstere":8488,"Ġapproached":8489,"omed":8490,"Ġhamilton":8491,"61":8492,"Ġhunting":8493,"Ġsilent":8494,"Ġintim":8495,"Ġsydney":8496,"Ġbatman":8497,"Ġjets":8498,"Ġphenomenon":8499,"Ġspo":8500,"Ġcategories":8501,"ader":8502,"Ġhong":8503,"ounce":8504,"hot":8505,"Ġtheore":8506,"umber":8507,"Ġwhis":8508,"Ġciting":8509,"Ġexport":8510,"llah":8511,"zo":8512,"Ġsne":8513,"Ġactively":8514,"ouri":8515,"Ġcompat":8516,"stri":8517,"pd":8518,"urd":8519,"Ġmeg":8520,"Ġhunter":8521,"Ġimplications":8522,"Ġvietnam":8523,"Ġdeadline":8524,"Ġpossess":8525,"Ġreforms":8526,"Ġquoted":8527,"Ġdesigner":8528,"Ġpointing":8529,"Ġhelic":8530,"Ġscottish":8531,"Ġalert":8532,"Ġexecutives":8533,"ompson":8534,"Ġquestioned":8535,"Ġstamp":8536,"ratic":8537,"Ġpassage":8538,"Ġrevol":8539,"Ġht":8540,"Ġpersu":8541,"Ġspots":8542,"Ġgil":8543,"600":8544,"rition":8545,"Ġsetup":8546,"Ġsettled":8547,"Ġunpre":8548,"Ġenhance":8549,"apolis":8550,"atar":8551,"enez":8552,"quest":8553,"Ġdj":8554,"Ġsimon":8555,"Ġhorn":8556,"shot":8557,"Ġinquiry":8558,"nett":8559,"Ġargues":8560,"Ġbroader":8561,"Ġberlin":8562,"Ġfran":8563,"Ġbottle":8564,"Ġthreatening":8565,"Ġstored":8566,"Ġparticipation":8567,"Ġ1992":8568,"Ġpear":8569,"Ġsovereign":8570,"Ġcontribution":8571,"Ġclothing":8572,"Ġathletic":8573,"Ġdrives":8574,"Ġorient":8575,"Ġwitnesses":8576,"Ġ54":8577,"Ġ99":8578,"Ġfurthermore":8579,"Ġtai":8580,"eries":8581,"attan":8582,"Ġvend":8583,"Ġdefending":8584,"Ġpicking":8585,"Ġlapt":8586,"Ġjerusalem":8587,"Ġgt":8588,"Ġdating":8589,"Ġmaintained":8590,"held":8591,"Ġconsensus":8592,"Ġtennes":8593,"Ġgolf":8594,"sect":8595,"Ġmissions":8596,"anim":8597,"Ġmorgan":8598,"Ġprecisely":8599,"Ġfossil":8600,"Ġsubstance":8601,"Ġsignature":8602,"Ġrecruit":8603,"Ġfing":8604,"Ġmanagers":8605,"Ġtiss":8606,"Ġrevers":8607,"Ġjean":8608,"Ġcharlie":8609,"Ġsinger":8610,"cas":8611,"Ġdifferently":8612,"Ġfollowers":8613,"Ġsorts":8614,"Ġfabric":8615,"Ġjournalism":8616,"Ġdiseases":8617,"Ġpresentation":8618,"Ġwounded":8619,"Ġwanting":8620,"ders":8621,"Ġdelhi":8622,"Ġstudios":8623,"Ġdeserve":8624,"Ġmuscle":8625,"Ġdesert":8626,"wall":8627,"Ġcontemporary":8628,"link":8629,"Ġtheories":8630,"eria":8631,"Ġtrillion":8632,"Ġpromising":8633,"note":8634,"black":8635,"Ġaged":8636,"Ġprin":8637,"71":8638,"Ġtransaction":8639,"commun":8640,"Ġnurs":8641,"aware":8642,"rell":8643,"Ġconsideration":8644,"ifer":8645,"Ġathletes":8646,"child":8647,"92":8648,"Ġmurray":8649,"Ġkilomet":8650,"tenance":8651,"ials":8652,"Ġbirthday":8653,"Ġease":8654,"Ġphysically":8655,"Ġsheet":8656,"Ġcompeting":8657,"Ġadviser":8658,"matic":8659,"Ġnap":8660,"abs":8661,"Ġsocialist":8662,"math":8663,"section":8664,"73":8665,"president":8666,"Ġjava":8667,"93":8668,"Ġsummary":8669,"Ġcredits":8670,"Ġlav":8671,"Ġdemonstrate":8672,"Ġawarded":8673,"Ġinvasion":8674,"Ġhospitals":8675,"Ġpunch":8676,"somet":8677,"omy":8678,"ifi":8679,"fit":8680,"Ġkiller":8681,"Ġasset":8682,"Ġutility":8683,"Ġoverl":8684,"94":8685,"Ġhence":8686,"Ġpalestinians":8687,"Ġtremend":8688,"Ġdesktop":8689,"hist":8690,"Ġstruggled":8691,"Ġdiamond":8692,"Ġuniform":8693,"Ġthompson":8694,"Ġregistration":8695,"izer":8696,"Ġgreatly":8697,"Ġrussell":8698,"Ġroots":8699,"Ġupload":8700,"Ġassumed":8701,"Ġcreatures":8702,"Ġdean":8703,"Ġbiological":8704,"Ġalan":8705,"Ġhawai":8706,"Ġcomey":8707,"Ġnich":8708,"Ġgrey":8709,"ahu":8710,"Ġhosted":8711,"Ġwet":8712,"Ġoccasionally":8713,"Ġeggs":8714,"gged":8715,"Ġbrexit":8716,"Ġremarkable":8717,"Ġmice":8718,"Ġstepped":8719,"bury":8720,"Ġhart":8721,"Ġreserved":8722,"Ġcenturies":8723,"Ġvoid":8724,"Ġchocolate":8725,"Ġhelicop":8726,"Ġphoenix":8727,"Ġnode":8728,"Ġexpanding":8729,"Ġnev":8730,"Ġyemen":8731,"Ġgest":8732,"Ġdefeated":8733,"ped":8734,"Ġinches":8735,"lined":8736,"Ġmarx":8737,"Ġ120":8738,"map":8739,"Ġpollution":8740,"Ġtired":8741,"Ġassigned":8742,"Ġdefender":8743,"Ġaccessible":8744,"Ġprocedures":8745,"Ġpromoting":8746,"Ġ58":8747,"Ġelizabeth":8748,"Ġguards":8749,"data":8750,"awn":8751,"Ġcontacted":8752,"Ġultra":8753,"Ġtweets":8754,"ules":8755,"2016":8756,"Ġstudying":8757,"stitution":8758,"bet":8759,"Ġundert":8760,"aus":8761,"Ġministers":8762,"Ġlegislature":8763,"Ġanimation":8764,"check":8765,"Ġdispute":8766,"Ġtiming":8767,"ports":8768,"Ġanna":8769,"Ġgrace":8770,"uan":8771,"Ġartificial":8772,"âĶ":8773,"file":8774,"Ġcognitive":8775,"Ġft":8776,"low":8777,"sk":8778,"Ġfundra":8779,"remy":8780,"Ġadvertisements":8781,"arth":8782,"Ġgib":8783,"Ġlegally":8784,"Ġbart":8785,"Ġeligible":8786,"Ġhire":8787,"Ġoakland":8788,"Ġindicates":8789,"holders":8790,"Ġkeen":8791,"Ġcontrary":8792,"Ġshoes":8793,"Ġenthusi":8794,"ounding":8795,"Ġdamaged":8796,"card":8797,"aki":8798,"Ġwedding":8799,"Ġvariable":8800,"Ġneighbors":8801,"Ġadvocate":8802,"eu":8803,"agic":8804,"Ġmeaningful":8805,"Ġeveryday":8806,"Ġchase":8807,"Ġ1993":8808,"erate":8809,"ĠÂ©":8810,"start":8811,"Ġendorse":8812,"lando":8813,"Ġwales":8814,"Ġtheatre":8815,"Ġ56":8816,"Ġpython":8817,"Ġdiscussing":8818,"Ġsuspects":8819,"Ġparallel":8820,"Ġbacking":8821,"Ġcorrel":8822,"Ġloves":8823,"Ġpunishment":8824,"Ġfacilit":8825,"Ġdivor":8826,"Ġsearching":8827,"Ġtrek":8828,"fers":8829,"Ġarrival":8830,"Ġknock":8831,"??":8832,"human":8833,"count":8834,"Ġaddresses":8835,"Ġexplaining":8836,"Ġwise":8837,"Ġintegrity":8838,"gra":8839,"Ġclark":8840,"Ġmatthew":8841,"Ġcoaching":8842,"Ġgordon":8843,"Ġmanifest":8844,"Ġdup":8845,"Ġescal":8846,"Ġpolar":8847,"Ġmaintenance":8848,"Ġwireless":8849,"Ġcolour":8850,"icts":8851,"Ġlifetime":8852,"ĠâĪĴ":8853,"ributes":8854,"whe":8855,"Ġcustody":8856,"than":8857,"vol":8858,"Ġstops":8859,"Ġcontinent":8860,"Ġnerv":8861,"Ġburst":8862,"Ġobsc":8863,"aaaaaaaa":8864,"Â°":8865,"Ġhud":8866,"dam":8867,"Ġtons":8868,"Ġpub":8869,"Ġtreasury":8870,"Ġsli":8871,"Ġ1950":8872,"Ġmathemat":8873,"rations":8874,"Ġholl":8875,"Ġpentagon":8876,"Ġmontreal":8877,"Ġfunctional":8878,"Ġopenly":8879,"Ġimpression":8880,"Ġpermit":8881,"Ġacknowledge":8882,"Ġkhan":8883,"Ġcompensation":8884,"ricts":8885,"Ġ250":8886,"Ġscholar":8887,"Ġconcepts":8888,"Ġpartly":8889,"cedented":8890,"Ġlibya":8891,"Ġunderlying":8892,"Ġtennessee":8893,"estyle":8894,"hey":8895,"Ġdominant":8896,"Ġeager":8897,"Ġaccord":8898,"Ġpulling":8899,"vens":8900,"Ġweakness":8901,"Ġcole":8902,"Ġremoval":8903,"oln":8904,"Ġappeals":8905,"Ġchuck":8906,"Ġmountains":8907,"Ġmanufacturers":8908,"Ġot":8909,"Ġmouse":8910,"Ġinteraction":8911,"Ġvolunteers":8912,"Ġka":8913,"arn":8914,"Ġreds":8915,"Ġnan":8916,"Ġscrut":8917,"Ġsubstit":8918,"cour":8919,"Ġdistur":8920,"Ġgem":8921,"Ġbeings":8922,"Ġgenre":8923,"Ġoxy":8924,"Ġsections":8925,"Ġconservation":8926,"Ġintercept":8927,"Ġrequirement":8928,"Ġsou":8929,"Ġperceived":8930,"Ġhomosexual":8931,"Ġassad":8932,"Ġlessons":8933,"Ġsegment":8934,"Ġphill":8935,"Ġbeating":8936,"Ġintegration":8937,"Ġanne":8938,"oli":8939,"Ġperception":8940,"Ġmood":8941,"Ġlesson":8942,"Ġharper":8943,"tics":8944,"ylum":8945,"Ġcounterpart":8946,"Ġunfair":8947,"Ġembass":8948,"reuters":8949,"iac":8950,"open":8951,"Ġinfant":8952,"Ġlogo":8953,"Ġguests":8954,"breaking":8955,"cre":8956,"Ġgates":8957,"tor":8958,"alia":8959,"icket":8960,"Ġsacrif":8961,"Ġsignals":8962,"Ġfatal":8963,"84":8964,"Ġsubmit":8965,"Ġkentucky":8966,"Ġemployers":8967,"Ġandy":8968,"gov":8969,"Ġcave":8970,"angle":8971,"being":8972,"Ġbillions":8973,"Ġpreferred":8974,"Ġstance":8975,"Ġbass":8976,"Ġmigrants":8977,"->":8978,"orous":8979,"gered":8980,"Ġcollaboration":8981,"rine":8982,"Ġja":8983,"Ġinequality":8984,"onsored":8985,"Ġpitts":8986,"Ġrhetoric":8987,"Ġorth":8988,"stra":8989,"Ġaaron":8990,"Ġuncon":8991,"Ġrefugee":8992,"Ġhi":8993,"Ġcous":8994,"Ġsupplement":8995,"ols":8996,"Ġmah":8997,"hero":8998,"Ġlineup":8999,"itudes":9000,"Ġrepair":9001,"oded":9002,"Ġcompos":9003,"osystem":9004,"2015":9005,"Ġlaboratory":9006,"Ġmoderate":9007,"Ġinvalid":9008,"Ġantonio":9009,"roph":9010,"Ġprospects":9011,"pted":9012,"Ġkeyboard":9013,"Ġay":9014,"Ġfrequent":9015,"Ġmanh":9016,"Ġethics":9017,"Ġextraordinary":9018,"igenous":9019,"ogy":9020,"Ġpatent":9021,"Ġembed":9022,"Ġfled":9023,"Ġtreaty":9024,"Ġfier":9025,"brid":9026,"city":9027,"Ġ!":9028,"Ġconfiguration":9029,"Ġovercome":9030,"bra":9031,"ileaks":9032,"Ġanswered":9033,"Ġunve":9034,"uten":9035,"mble":9036,"code":9037,"}}":9038,"iture":9039,"Ġconstitu":9040,"Ġcord":9041,"Ġsla":9042,"83":9043,"Ġtraged":9044,"Ġcapitol":9045,"obile":9046,"Ġmichel":9047,"ropri":9048,"Ġqueens":9049,"Ġnose":9050,"odox":9051,"function":9052,"ateral":9053,"acked":9054,"Ġsustainable":9055,"Ġworlds":9056,"Ġrequiring":9057,"ught":9058,"Ġlift":9059,"Ġblu":9060,"Ġ(\"":9061,"Ġcreature":9062,"Ġprosecutor":9063,"Ġsciences":9064,"san":9065,"Ġ1991":9066,"bul":9067,"Ġmanual":9068,"maker":9069,"Ġeliminate":9070,"Ġconsciousness":9071,"block":9072,"Ġposting":9073,"Ġperiods":9074,"een":9075,"Ġrome":9076,"Ġdot":9077,"Ġnowhere":9078,"Ġcertific":9079,"Ġmodified":9080,"Ġzomb":9081,"Ġbenefic":9082,"Ġreserv":9083,"Ġicon":9084,"Ġmonu":9085,"Ġrecommendations":9086,"Ġsynthe":9087,"Ġguid":9088,"Ġwildlife":9089,"Ġconvince":9090,"anche":9091,"Ġrud":9092,"Ġbadly":9093,"Ġdelight":9094,"Ġoutlets":9095,"screen":9096,"Ġsubsequently":9097,"mor":9098,"Ġridiculous":9099,"Ġshirt":9100,"Ġasylum":9101,"Ġpist":9102,"Ġsentenced":9103,"Ġ57":9104,"loc":9105,"Ġreply":9106,"Ġdiplomatic":9107,"Ġindu":9108,"erce":9109,"Ġsurprisingly":9110,"irm":9111,"Ġpromotion":9112,"Ġmls":9113,"Ġcamps":9114,"Ġvocal":9115,"tal":9116,"Ġapproaches":9117,"Ġchoosing":9118,"Ġwarriors":9119,"Ġinstances":9120,"Ġbun":9121,"xy":9122,"Ġclip":9123,"Ġbiz":9124,"Ġchrome":9125,"Ġgameplay":9126,"Ġhypothes":9127,"Ġcalend":9128,"far":9129,"Ġthunder":9130,"Ġargent":9131,"Ġecosystem":9132,"Ġcontroller":9133,"Ġexplosion":9134,"db":9135,"gue":9136,"Ġtale":9137,"payers":9138,"Ġnel":9139,"iley":9140,"mc":9141,"Ġconcert":9142,"Ġconvert":9143,"Ġcraig":9144,"Ġfried":9145,"Ġpokemon":9146,"Ġscout":9147,"Ġdil":9148,"Ġconcerning":9149,"Ġtalented":9150,"aust":9151,"Ġcollaps":9152,"Ġmeal":9153,"Ġmillenn":9154,"Ġjeremy":9155,"Ġpreview":9156,"Ġfights":9157,"olds":9158,"master":9159,"Ġrepresentation":9160,"eman":9161,"Ġattractive":9162,"Ġmomentum":9163,"lfriend":9164,"Ġbrands":9165,"Ġresolve":9166,"91":9167,"Ġkr":9168,"Ġanch":9169,"Ġthri":9170,"Ġjenn":9171,"Ġinterpre":9172,"Ġsalv":9173,"Ġintegrated":9174,"Ġmaintaining":9175,"Ġrug":9176,"Ġventure":9177,"Ġdawn":9178,"Ġduke":9179,"Ġviolations":9180,"Ġbj":9181,"Ġub":9182,"security":9183,"Ġbeast":9184,"Ġacquis":9185,"Ġencouraging":9186,"Ġreagan":9187,"Ġbombs":9188,"liest":9189,"Ġstatic":9190,"igation":9191,"Ġpap":9192,"Ġspy":9193,"apore":9194,"Ġepa":9195,"Ġhanging":9196,"tax":9197,"Ġ).":9198,"ec":9199,"Ġcheaper":9200,"Ġdescribing":9201,"Ġknife":9202,"Ġwiz":9203,"Ġlap":9204,"Ġfinals":9205,"Ġcarries":9206,"Ġprofessionals":9207,"Ġoccurs":9208,"Ġcreator":9209,"Ġbrooklyn":9210,"Ġarrow":9211,"Ġatom":9212,"Ġrecept":9213,"Ġangle":9214,"Ġancest":9215,"Ġunprecedented":9216,"Ġremoving":9217,"test":9218,"Ġinterviewed":9219,"Ġmunicipal":9220,"Ġsubur":9221,"Ġbone":9222,"grad":9223,"oting":9224,"Ġmock":9225,"bian":9226,"Ġtraveling":9227,"Ġ85":9228,"Ġwright":9229,"Ġbeck":9230,"necess":9231,"Ġsits":9232,"Ġemotions":9233,"pol":9234,"leans":9235,"liance":9236,"Ġpregnant":9237,"Ġresort":9238,"Ġalto":9239,"Ġinspiration":9240,"Ġhills":9241,"Ġbits":9242,"arre":9243,"Ġaims":9244,"Ñĥ":9245,"nand":9246,"Ġminimal":9247,"father":9248,"Ġpsychiat":9249,"instein":9250,"Ġchronic":9251,"Ġcurious":9252,"owski":9253,"Ġexclud":9254,"Ġtesla":9255,"Ġmol":9256,"Ġdramatically":9257,"hire":9258,"Ġcombine":9259,"Ġstimul":9260,"Ġboxes":9261,"Ġindigenous":9262,"effect":9263,"Ġnull":9264,"Ġswit":9265,"Ġdesperate":9266,"dev":9267,"Ġvenez":9268,"Ġcommons":9269,"media":9270,"Ġpremie":9271,"Ġprobe":9272,"Ġfert":9273,"82":9274,"Ġseized":9275,"Ġearthqu":9276,"Ġadopt":9277,"Ġdeployed":9278,"Ġcouples":9279,"ela":9280,"Ġtriple":9281,"ethe":9282,"Ġrangers":9283,"nan":9284,"cat":9285,"Ġrelation":9286,"Ġlone":9287,"Ġpursu":9288,"âĶĢ":9289,"âĢĲ":9290,"hammad":9291,"Ġthro":9292,"Ġadequ":9293,"Ġeigh":9294,"Ġconfused":9295,"Ġmissouri":9296,"Ġoutstanding":9297,"Ġlions":9298,"Ġdisplayed":9299,"Ġdal":9300,"Ġdisappointed":9301,"Ġevident":9302,"Ġcorrectly":9303,"Ġgym":9304,"Ġrebel":9305,"omin":9306,"aco":9307,"pton":9308,"Ġsons":9309,"Ġcommod":9310,"Ġaccum":9311,"Ġbarbar":9312,"strong":9313,"Ġgill":9314,"Ġshocked":9315,"Ġbands":9316,"Ġopposing":9317,"Ġcommunicate":9318,"Ġnik":9319,"Ġquit":9320,"haw":9321,"iban":9322,"Ġorlando":9323,"your":9324,"Ġrobinson":9325,"Ġprompted":9326,"Ġslo":9327,"xture":9328,"kers":9329,"Ġdash":9330,"Ġteeth":9331,"Ġaccuracy":9332,"Ġperformances":9333,"Ġindones":9334,"izza":9335,"Ġlens":9336,"Ġperry":9337,"iffs":9338,"Ġrecession":9339,"Ġhearts":9340,"Ġbrutal":9341,"Ġoppose":9342,"bourne":9343,"Ġrit":9344,"bacco":9345,"Ġrivers":9346,"Ġpassenger":9347,"polit":9348,"Ġportug":9349,"Ġmck":9350,"Ġburied":9351,"overed":9352,"Ġspeakers":9353,"Ġfederation":9354,"Ġowns":9355,"Ġwhit":9356,"Ġbankrupt":9357,"Ġembrace":9358,"Ġpoet":9359,"eared":9360,"Ġpleased":9361,"Ġvenezuel":9362,"Ġchristopher":9363,"Ġmilitants":9364,"Ġstir":9365,"Ġtrailer":9366,"Ġideology":9367,"ple":9368,"Ġadams":9369,"Ġtwin":9370,"Ġlanded":9371,"Ġbreast":9372,"Ġpittsburgh":9373,"wich":9374,"Ġsaint":9375,"gate":9376,"Ġdemanded":9377,"Ġisolated":9378,"such":9379,"Ġhoney":9380,"Ġorleans":9381,"Ġpeaceful":9382,"aya":9383,"kyo":9384,"Ġkicked":9385,"81":9386,"Ġengagement":9387,"Ġinherent":9388,"terror":9389,"Ġlean":9390,"Ġpresents":9391,"incoln":9392,"Ġnevada":9393,"Ġhonestly":9394,"Ġcharacteristics":9395,"Ġwhist":9396,"Ġplaystation":9397,"Ġloading":9398,"Ġdirty":9399,"Ġsurrounded":9400,"Ġflour":9401,"Ġhamp":9402,"Ġcraw":9403,"kings":9404,"tical":9405,"pow":9406,"mel":9407,"Ġcastle":9408,"Ġjane":9409,"value":9410,"enter":9411,"Ġharsh":9412,"hu":9413,"Ġholes":9414,"Ġwinds":9415,"Ġhtml":9416,"gt":9417,"size":9418,"Ġwikileaks":9419,"Ġtransparency":9420,"Ġhomeland":9421,"Ġfacult":9422,"Ġstewart":9423,"Ġflavor":9424,"Ġimposed":9425,"Ġradiation":9426,"Ġinterpretation":9427,"Ġdor":9428,"Ġcharging":9429,"Ġtang":9430,"Ġcourage":9431,"Ġbc":9432,"election":9433,"Ġdistricts":9434,"Ġgriff":9435,"anth":9436,"Ġflee":9437,"Ġnationwide":9438,"Ġgdp":9439,"Ġsuspic":9440,"starter":9441,"home":9442,"Ġslot":9443,"Ġrefers":9444,"Ġjerry":9445,"Ġloaded":9446,"Ġwisdom":9447,"acre":9448,"anted":9449,"Ġleban":9450,"Ġbriefly":9451,"Ġhitler":9452,"orious":9453,"Ġchecking":9454,"Ġspeculation":9455,"Ġtorn":9456,"Ġballs":9457,"aved":9458,"vs":9459,"pi":9460,")<|":9461,"Ġclinic":9462,"ping":9463,"Ġheaven":9464,"Ġroutes":9465,"Ġtaxpayers":9466,"Ġ1989":9467,"\":\"":9468,"burn":9469,"Ġhood":9470,"Ġoz":9471,"Ðº":9472,"Ġconfusion":9473,"Ġjumped":9474,"Ġyard":9475,"heart":9476,"Ġ600":9477,"Ġnether":9478,"Ġimmun":9479,"Ġrhy":9480,"Ġusb":9481,"Ġfilter":9482,"Ġmultip":9483,"Ġdeclaration":9484,"Ġinaug":9485,"Ġbicy":9486,"Ġ72":9487,"Ġwy":9488,"Ġengines":9489,"Ġdonors":9490,"bound":9491,"Ġpatrol":9492,"acles":9493,"Ġreign":9494,"Ġwells":9495,"Ġcarrier":9496,"Ġcompr":9497,"Ġresearcher":9498,"inform":9499,"Ġprinted":9500,"Ġdistribut":9501,"Ġforgotten":9502,"Ġutter":9503,"akh":9504,"Ġtobacco":9505,"Ġcats":9506,"Ġexpenses":9507,"Ġcs":9508,"Ġcommerce":9509,"Ġteammates":9510,"Ġcompromise":9511,"ova":9512,"Ġdear":9513,"Ġrecalled":9514,"Ġsingapore":9515,"Ġpour":9516,"Ġwondering":9517,"Ġacceptable":9518,"Ġexisted":9519,"Ġpriest":9520,"Ġproportion":9521,"Ġmate":9522,"story":9523,"Ġrestore":9524,"Ġspider":9525,"osa":9526,"Ġexpense":9527,"Ġhurricane":9528,"Ġkl":9529,"Ġtier":9530,"Ġdent":9531,"agen":9532,"Ġstruggles":9533,"bat":9534,"many":9535,"250":9536,"gel":9537,"Ġpackages":9538,"leted":9539,"nbc":9540,"Ġrefuse":9541,"Ġluke":9542,"Ġbombing":9543,"Ġbib":9544,"Ġcontents":9545,"ĭáħ":9546,"Ġnazi":9547,"Ġexperimental":9548,"Ġdetention":9549,"Ġengaging":9550,"Ġoccasional":9551,"ixon":9552,"Ġrifle":9553,"Ġcompass":9554,"Ġhiring":9555,"Ġcriminals":9556,"Ġmps":9557,"chell":9558,"Ġawa":9559,"Ġpleasure":9560,"Ġbatter":9561,"group":9562,"Ġsuspension":9563,"Ġtelephone":9564,"Ġgraphic":9565,"ulations":9566,"Ġjuris":9567,"Ġally":9568,"Ġtanks":9569,"Ġasc":9570,"track":9571,"Ġnervous":9572,"Ġvlad":9573,"Ġoutcomes":9574,"Ġnotably":9575,"Ġkal":9576,"mers":9577,"onia":9578,"Ġbabies":9579,"source":9580,"Ġsig":9581,"rus":9582,"Ġslam":9583,"Ġsteady":9584,"Ġcens":9585,"Ġbrig":9586,"Ġclosest":9587,"Ġtranslation":9588,"uits":9589,"Ġeditorial":9590,"Ġraid":9591,"Ġcrossing":9592,"Ġprevention":9593,"Ġlightning":9594,"Ġattending":9595,"lib":9596,"ðŁ":9597,"Ġjudicial":9598,"Ġembassy":9599,"Ġguaranteed":9600,"Ġstating":9601,"Ġpi":9602,"Ġdevelopments":9603,"Ġwhites":9604,"large":9605,"Ġsque":9606,"inge":9607,"Ġsimultaneously":9608,"Ġster":9609,"Ġfingers":9610,"Ġhint":9611,"Ġoperator":9612,"Ġlobb":9613,"Ġdropping":9614,"kind":9615,"Ġblocking":9616,"(\"":9617,"iller":9618,"Ġleaked":9619,"Ġprofound":9620,"150":9621,"Ġadministrative":9622,"Ġchips":9623,"thood":9624,"Ġorbit":9625,"Ġrobust":9626,"Ġlincoln":9627,"Ġrewards":9628,"Ġ59":9629,"Ġriders":9630,"Ġcooking":9631,"Ġpolling":9632,"Ġhosts":9633,"Ġhans":9634,"Ġbrid":9635,"Ġautomatic":9636,"Ġexclusively":9637,"bie":9638,"Ġspark":9639,"Ġsr":9640,"Ġconsiderable":9641,"Ġvariables":9642,"Ġsexually":9643,"Ġsurvived":9644,"Ġsophistic":9645,"Ġhes":9646,"Ġmigration":9647,"Ġshelter":9648,"Ġwre":9649,"Ġabu":9650,"Ġipad":9651,"Ġshops":9652,"Ġpacked":9653,"neg":9654,"fact":9655,"Ġmonetary":9656,"Ġheadlines":9657,"call":9658,"Ġtremendous":9659,"Ġtheft":9660,"Ġgn":9661,"ipedia":9662,"Ġrepeal":9663,"Ġwarner":9664,"vas":9665,"Ġpoland":9666,"Ġfirearms":9667,"limited":9668,"Ġignor":9669,"Ġzim":9670,"income":9671,"Ġjustify":9672,"Ġactress":9673,"Ġrenewable":9674,"Ġposter":9675,"Ġexecuted":9676,"Ġ66":9677,"Ġfucking":9678,"Ġdominated":9679,"ao":9680,"Ġtears":9681,"Ġmud":9682,"Ġdemo":9683,"Ġdestination":9684,"Ġpainting":9685,"Ġbacteria":9686,"Ġprovider":9687,"ags":9688,"ti":9689,"Ġ62":9690,"Ġdak":9691,"Ġevolved":9692,"Ġpip":9693,"best":9694,"fts":9695,"Ġottawa":9696,"Ġbackup":9697,"Ġcops":9698,"Ġmanhattan":9699,"Ġflip":9700,"Ġorganis":9701,"Ġreck":9702,"rous":9703,"Ġ800":9704,"irds":9705,"ailed":9706,"Ġevac":9707,"Ġphotographs":9708,"Ġantib":9709,"Ġmodest":9710,"Ġanarch":9711,"Ġflights":9712,"Ġalgorithm":9713,"Ġemer":9714,"Ġprayer":9715,"Ġfails":9716,"Ġyog":9717,"Ġendors":9718,"Ġ`":9719,"happ":9720,"âĢ¦.":9721,"Ġrebuild":9722,"Ġboards":9723,"Ġinher":9724,"Ġenact":9725,"Ġpublish":9726,"Ġukrainian":9727,"Ġentrance":9728,"Ġmarc":9729,"Ġbip":9730,"erto":9731,"Ġoversight":9732,"Ġbour":9733,"Ġnights":9734,"Ġassuming":9735,"Ġoccupied":9736,"ribed":9737,"oding":9738,"Ġhistorically":9739,"speed":9740,"Ġwoods":9741,"Ġmississ":9742,"Ġfet":9743,"Ġpione":9744,"Ġentity":9745,"rix":9746,"Ġdefect":9747,"Ġprivilege":9748,"western":9749,"Ġneur":9750,"mons":9751,"Ġinfin":9752,"Ġarth":9753,"ele":9754,"Ġnewsletters":9755,"Ġagreements":9756,"Ġwinners":9757,"Ġshocking":9758,"Ġtaliban":9759,"produ":9760,"guard":9761,"sur":9762,"Ġpolish":9763,"Ġbureauc":9764,"Ġpatriots":9765,"Ġimpacts":9766,"lihood":9767,"Ġprosecution":9768,"Ġdecor":9769,"Ġcass":9770,"Ġcriteria":9771,"Ġfi":9772,"Ġdirectors":9773,"Ġ</":9774,"Ġpoo":9775,"Ġattorneys":9776,"Ġlegendary":9777,"Ġbeneath":9778,"hips":9779,"Ġquantum":9780,"Ġchallenged":9781,"beat":9782,"Ġpizza":9783,"Ġintimid":9784,"health":9785,"Ġpledge":9786,"Ġqualified":9787,"Ġthirty":9788,"Ġparad":9789,"Ġexamine":9790,"Ġbah":9791,"Ġbrewing":9792,"kh":9793,"Ġmales":9794,"Ġmortgage":9795,"agu":9796,"Ġbaker":9797,"iah":9798,"Ġconcentration":9799,"Ġvictoria":9800,"once":9801,"Ġcb":9802,"Ġrecovered":9803,"fil":9804,"Ġconflicts":9805,"Ġfrozen":9806,"fish":9807,"pto":9808,"Ġdeemed":9809,"Ġaddressing":9810,"Ġcrystal":9811,"Ġnelson":9812,"las":9813,"Ġrobots":9814,"reshold":9815,"Ġcoins":9816,"Ġpose":9817,"Ġgods":9818,".]":9819,"Ġniger":9820,"Ġlifestyle":9821,"Ġdocumentation":9822,"Ġdisabled":9823,"Ġrede":9824,"ĠÂ±":9825,"forward":9826,"amous":9827,"Ġprosper":9828,"Ġenabled":9829,"Ġproduces":9830,"Ġraises":9831,"Ġexempt":9832,"tit":9833,"Ġcalendar":9834,"Ġscared":9835,"Ġmanning":9836,"Ġvisits":9837,"Ġrussians":9838,"Ġdeparture":9839,"Ġdependent":9840,"Ġexpecting":9841,"Ġbacks":9842,"attered":9843,"range":9844,"Ġvon":9845,"Ġnutrition":9846,"Ġreleasing":9847,"books":9848,"Ġburned":9849,"Ġmario":9850,"Ġconstructed":9851,"Ġradar":9852,"soc":9853,"Ġconfron":9854,"Ġdefended":9855,"Ġpeer":9856,"Ġuncertainty":9857,"Ġdecrease":9858,"Ġpsychology":9859,"Ġfigured":9860,"Ġguidance":9861,"Ġrubio":9862,"700":9863,"Ġlibert":9864,"Ġpreserve":9865,"Ġresidential":9866,"Ġseventh":9867,"Ġsecular":9868,"Ġgentle":9869,"Ġattracted":9870,"atus":9871,"second":9872,"fix":9873,"Ġprojected":9874,"flow":9875,"Ġ63":9876,"Ġinfection":9877,"ophob":9878,"Ġunnecess":9879,"Ġcot":9880,"olas":9881,"Ġavailability":9882,"Ġconsecut":9883,"unes":9884,"Ġtamp":9885,"pen":9886,"Ġhiv":9887,"Ġleak":9888,"Ġhouseholds":9889,"ahoo":9890,"Ġlouisiana":9891,"Ġdamn":9892,"Ġcad":9893,"appropri":9894,"Ġegyptian":9895,"Ġtragedy":9896,"Ġmothers":9897,"dig":9898,"Ġvolunt":9899,"Ġsleeping":9900,"Ġlaunching":9901,"Ġstanford":9902,"Ġproductive":9903,"Ġmodi":9904,"Ġlibraries":9905,"Ġbases":9906,"Ġjimmy":9907,"Ġpalace":9908,"looking":9909,"Ġalaska":9910,"otte":9911,"Ġprovisions":9912,"Ġblues":9913,"Ġinfluenced":9914,"Ġbou":9915,"pot":9916,"Ġlan":9917,"Ġimprison":9918,"table":9919,"ico":9920,"Ġgirlfriend":9921,"Ġgram":9922,"Ġluxury":9923,"Ġlarry":9924,"Ġidentical":9925,"Ġoccupation":9926,"Ġdiscount":9927,"Ġmeters":9928,"Ġlev":9929,"Ġexploration":9930,"Ġeagles":9931,"Ġreass":9932,"Ġinbox":9933,"Ġslide":9934,"Ġbump":9935,"Ġcanadians":9936,"Ġbreakfast":9937,"Ġconsc":9938,"Ġmotivated":9939,"mr":9940,"Ġstanley":9941,"Ġfunctionality":9942,"Ġserial":9943,"Ġtrains":9944,"Ġtransferred":9945,"Ġinfluential":9946,"Ġfaculty":9947,"Ġinstallation":9948,"Ġpromoted":9949,"Ġarmor":9950,"Ġnaval":9951,"Ġvegan":9952,"Ġterrif":9953,"connell":9954,"2013":9955,"Ġss":9956,"Ġnest":9957,"Ġtrop":9958,"Ġrib":9959,"Ġhed":9960,"Ġbulk":9961,"Ġhuff":9962,"Ġcontainer":9963,"Ġstartup":9964,"Ġtokyo":9965,"Ġbeef":9966,"Ġblamed":9967,"Ġtablet":9968,"boys":9969,"Ġserge":9970,"Ġpricing":9971,"Ġevangel":9972,"Ġpension":9973,"Ġimmune":9974,"Ġchecked":9975,"Ġdestro":9976,"Ġtast":9977,"Ġsnowden":9978,"Ġexpects":9979,"ithub":9980,"Ġverd":9981,"imir":9982,"Ġinterrupt":9983,"--------------------------------":9984,"Ġdock":9985,"Ġwrestling":9986,"gary":9987,"million":9988,"Ġgrate":9989,"Ġinnovative":9990,"Ġrivals":9991,"etheless":9992,"Ġovernight":9993,"Ġjess":9994,"Ġexplicitly":9995,"Ġoperators":9996,"Ġbags":9997,"Ġmalays":9998,"Ġoccasion":9999,"Ġstopping":10000,"Ġdimin":10001,"Ġwayne":10002,"Ġsid":10003,"Ġnetherlands":10004,"Ġfishing":10005,"chi":10006,"Ġapplies":10007,"Ġexcuse":10008,"Ġbh":10009,"Ġshore":10010,"Ġought":10011,"Ġaccepting":10012,"Ġtong":10013,"Ġmissiles":10014,"Ġpolitician":10015,"Ġhappiness":10016,"Ġenfor":10017,"Ġfinishing":10018,"Ġtunnel":10019,"Ġinevitable":10020,"Ġritual":10021,"Ġdressed":10022,"Ġgos":10023,"adesh":10024,"amine":10025,"Ġtension":10026,"orig":10027,"Ġbonds":10028,"Ġlynch":10029,"Ġnash":10030,"Ġmurphy":10031,"Ġhamas":10032,"Ġsake":10033,"leading":10034,"Ġreluct":10035,"Ġmask":10036,"Ġmysterious":10037,"Ġparticipating":10038,"Ġfits":10039,"Ġmd":10040,"Ġimpressed":10041,"Ġcycling":10042,"Ġbarg":10043,"Ġconviction":10044,"eted":10045,"Ġinstrument":10046,"Ġspray":10047,"Ġferg":10048,"Ġblacks":10049,"Ġank":10050,"Ġcommentary":10051,"Ġcurve":10052,"aza":10053,"Ġmandate":10054,"Ġlongtime":10055,"Ġinvestigated":10056,"Ġlighting":10057,"Ġsupposedly":10058,"payer":10059,"Ġassists":10060,"Ġfurn":10061,"Ġcomputing":10062,"ippi":10063,"Ġneighborhoods":10064,"Ġhp":10065,"Ġpale":10066,"Ġoperated":10067,"uating":10068,"Ġmetrop":10069,"Ġlion":10070,"ardo":10071,"Ġbog":10072,"Ġrealistic":10073,"Ġolympics":10074,"Ġyang":10075,"Ġstyles":10076,"ista":10077,"Ġnonetheless":10078,"pop":10079,"Ġconsecutive":10080,"Ġtoss":10081,"Ġcum":10082,"Ġuncomfort":10083,"Ġbos":10084,"have":10085,"Ġsteal":10086,"Ġhob":10087,"Ġdrops":10088,"think":10089,"Ġblake":10090,"Ġsolely":10091,"Ġinvested":10092,"ï¼":10093,"Ġdelegates":10094,"Ġbizarre":10095,"Ġmedicare":10096,"Ġresponding":10097,"Ġbugs":10098,"wid":10099,"Ġexped":10100,"Ġintelligent":10101,"Ġpreventing":10102,"Ġnewspapers":10103,"lings":10104,"Ġabsurd":10105,"Ġhandled":10106,"obs":10107,"Ġdepartments":10108,"Ġbash":10109,"friendly":10110,"Ġagricultural":10111,"Ġphilippines":10112,"Ġproductivity":10113,"Ġjurisd":10114,"eland":10115,"Ġregarded":10116,"Ġsd":10117,"llor":10118,"Ġquebec":10119,"Ġterminal":10120,"\",\"":10121,"Ġfib":10122,"lord":10123,"Ġsignificance":10124,"ortions":10125,"Ġambit":10126,"Ġgrants":10127,"Ġappearing":10128,"Ġcere":10129,"Ġbent":10130,"inv":10131,"Ġroger":10132,"uson":10133,"iki":10134,"Ġunl":10135,"Ġelabor":10136,"Ġthreshold":10137,"Ġbuffalo":10138,"citation":10139,"although":10140,"Ġwarfare":10141,"Ġbust":10142,"rez":10143,"Ġoccupy":10144,"conf":10145,"Ġbubble":10146,"Ġ1000":10147,"keley":10148,"Ġrolled":10149,"untu":10150,"Ġhosting":10151,"Ġreviewed":10152,"Ġrt":10153,"Ġsubtle":10154,"Ġmarshall":10155,"Ġcake":10156,"Ġinteractive":10157,"Ġcruel":10158,"ucker":10159,"Ġtoll":10160,"achment":10161,"Ġearnings":10162,"pin":10163,"Ġtig":10164,"covered":10165,"Ġhampshire":10166,"century":10167,"lli":10168,"Ġeru":10169,"Ġmedal":10170,"Ġcelebration":10171,"Ġeconomist":10172,"Ġemphasis":10173,"Ġsaints":10174,"Ġaccusations":10175,"Ġawful":10176,"Ġ68":10177,"Ġdign":10178,"Ġmedicaid":10179,"Ġfavourite":10180,"terest":10181,"Ġcoordinator":10182,"olid":10183,"Ġ61":10184,"Ġinhab":10185,"Ġspotted":10186,"Ġpreparation":10187,"armed":10188,"Ġian":10189,"Ġgrave":10190,"host":10191,"?âĢĻ":10192,"Ġbones":10193,"Ġalign":10194,"Ġsustained":10195,"Ġnaz":10196,"Ġclay":10197,"Ġfeminist":10198,"acular":10199,"Ġcompelling":10200,"Ġadoption":10201,"Ġaccompanied":10202,"Ġsauce":10203,"Ġ67":10204,"Ġnit":10205,"cha":10206,"main":10207,"path":10208,"Ġcant":10209,"Ġseeks":10210,"Ġelectrical":10211,"Ġviewing":10212,"Ġstarter":10213,").[":10214,"Ġtitan":10215,"Ġlayers":10216,"Ġaven":10217,"Ġaffects":10218,"Ġfires":10219,"Ġpossibilities":10220,"Ġsuppose":10221,"struct":10222,"Ġparliamentary":10223,"?)":10224,"Ġwalks":10225,"uther":10226,"Ġafp":10227,"rah":10228,"Ġcollins":10229,"Ġkickstarter":10230,"Ġpregnancy":10231,"uri":10232,"Ġbother":10233,"Ġpanels":10234,"Ġshake":10235,"Ġreflects":10236,"version":10237,"Ġexamined":10238,"Ġmeets":10239,"Ġalpha":10240,"Ġamongst":10241,"Ġtrips":10242,"Ġtraded":10243,"Ġrevenues":10244,"Ġinteractions":10245,"Ġcomplexity":10246,"itory":10247,"Ġseeds":10248,"Ġsham":10249,"Ġduration":10250,"Ġdisplays":10251,"2017":10252,"Ġng":10253,"Ġadj":10254,"Ġconvenient":10255,"Ġbeaten":10256,"Ġoldest":10257,"raw":10258,"Ġcharter":10259,"Ġexploring":10260,"Ġkurdish":10261,"Ġronald":10262,"Ġvenue":10263,"Ġtoken":10264,"bery":10265,"Ġpinterest":10266,"Ġcomplained":10267,"Ġconclusions":10268,"conscious":10269,"Ġdisclosure":10270,"Ġiconic":10271,"Ġexploit":10272,"Ġconsists":10273,"icked":10274,"Ġcitizenship":10275,"loved":10276,"Ġoccasions":10277,"natural":10278,"Ġresur":10279,"Ġrestricted":10280,"Ġarguably":10281,"Ġsilicon":10282,"Ġmelbourne":10283,"ige":10284,"Ġplanes":10285,"encer":10286,"Ġhiding":10287,"Ġachievement":10288,"Ġkam":10289,"Ġum":10290,"ikh":10291,"Ġpraise":10292,"Ġ360":10293,"four":10294,"requ":10295,"Ġspeeds":10296,"km":10297,"Ġrocks":10298,"Ġobservations":10299,"Ġrelatives":10300,"vised":10301,"Ġedited":10302,"Ġsecrets":10303,"Ġdolph":10304,"Ġtissue":10305,"Ġdesignated":10306,"enh":10307,"Ġenvironments":10308,"Ġtransmission":10309,"erb":10310,"Ġcollecting":10311,"sized":10312,"âĢĿ)":10313,"Ġlimitations":10314,"Ġpowered":10315,"Ġorb":10316,"Ġwo":10317,"bage":10318,"Ġlau":10319,"Ġdocumented":10320,"laim":10321,"Ġtwel":10322,"Ġepide":10323,"Ġhybrid":10324,"Ġcalculated":10325,"cam":10326,"Ġovert":10327,"Ġediting":10328,"Ġist":10329,"var":10330,"Ġmandatory":10331,"Ġpainful":10332,"Ġarrests":10333,"itement":10334,"Ġprovinc":10335,"Ġranging":10336,"Ġhorrible":10337,"Ġsentiment":10338,"olving":10339,"Ġadvocacy":10340,"founder":10341,"Ġanimated":10342,"Ġaddiction":10343,"Ġparameters":10344,"profile":10345,"ilst":10346,"umph":10347,"Ġthemes":10348,"Ġfortune":10349,"Ġmitchell":10350,"Ġmedi":10351,"Ġhacking":10352,"Ġvaccine":10353,"Ġmechanics":10354,"Ġpepper":10355,"Ġgradually":10356,"Ġoxygen":10357,"Ġscratch":10358,"Ġfitness":10359,"Ġpraised":10360,"russ":10361,"itty":10362,"Ġcrossed":10363,"Ġcomposition":10364,"Ġ1988":10365,"Ġsuggestions":10366,"Ġcaution":10367,"Ġhann":10368,"Ġdiscipline":10369,"Ġtune":10370,"jar":10371,"sign":10372,"Ġlod":10373,"Ġdebates":10374,"Ġcleared":10375,"Ġlibertarian":10376,"ilation":10377,"Ġbuilds":10378,"Ġmonsters":10379,"Ġcampbell":10380,"Ġchemicals":10381,"idal":10382,"Ġstark":10383,"Ġcompetitors":10384,"Ġambitious":10385,"Ġendless":10386,"oks":10387,"Ġbil":10388,"Ġneo":10389,"green":10390,"Ġpending":10391,"john":10392,"Ġdys":10393,"Ġrumors":10394,"aver":10395,"Ġmurdered":10396,"Ġcommands":10397,"zi":10398,"Ġawk":10399,"Ġfiling":10400,"olitan":10401,"Ġdemonstration":10402,"Ġtaiwan":10403,"Ġconverted":10404,"Ġmississippi":10405,"Ġindo":10406,"Ġbenj":10407,"alt":10408,"âĶĢâĶĢ":10409,"Ġsingh":10410,"Ġtechnological":10411,"Ġdirections":10412,"chron":10413,"Ġvisa":10414,"plan":10415,"pur":10416,"Ġlaptop":10417,"Ġmans":10418,"Ġcountless":10419,"Ġdrones":10420,"Ġprede":10421,"Ġfract":10422,"Ġreplacing":10423,"Ġapplying":10424,"Ġmild":10425,"accept":10426,"Ġdealt":10427,"Ġtechnically":10428,"winning":10429,"Ġaltogether":10430,"mun":10431,"iox":10432,"Ġshooter":10433,"cular":10434,"Ġcease":10435,"Ġcourses":10436,"anyahu":10437,"Ġabund":10438,"Ġdevastating":10439,"Ġregret":10440,"Ġdelayed":10441,"Ġequipped":10442,"Ġensuring":10443,"Ġsafely":10444,"byn":10445,"Ġearning":10446,"Ġconfed":10447,"Ġmt":10448,"Ġscrutiny":10449,"Ġrelie":10450,"Ġcatast":10451,"Ġinsult":10452,"Ġreid":10453,"Ġchurches":10454,"Ġduties":10455,"umer":10456,"Ġclever":10457,"worthy":10458,"Ġmadrid":10459,"usa":10460,"Ġtrace":10461,"Ġhier":10462,"national":10463,"Ġlaser":10464,"Ġbishop":10465,"rin":10466,"Ġmaker":10467,"Ġcartoon":10468,"Ġdrafted":10469,"Ġzo":10470,"Ġpredecess":10471,"Ġeditors":10472,"Ġbarrel":10473,"seless":10474,"Ġgrateful":10475,"Ġdefenders":10476,"Ġfilmm":10477,"Ġparker":10478,"Ġwatson":10479,"Ġwore":10480,"Ġner":10481,"Ġswedish":10482,"Ġtoug":10483,"Ġaspir":10484,"Ġdarkness":10485,"iy":10486,"Ġmcdonald":10487,"mother":10488,"Ġtutorial":10489,"Ġmechanical":10490,"enger":10491,"Ġsacrifice":10492,"Ġ==":10493,"Ġclimb":10494,"quer":10495,"Ġfare":10496,"Ġprinting":10497,"shore":10498,"comed":10499,"Ġdivide":10500,"Ġcontributing":10501,"Ġnaked":10502,"Ġmechanisms":10503,"isive":10504,"Ġkas":10505,"Ġverify":10506,"wed":10507,"Ġcultiv":10508,"Ġdelivering":10509,"rons":10510,"Ġrugby":10511,"Ġflynn":10512,"Ġemployer":10513,"Ġsophisticated":10514,"Ġtransparent":10515,"âĤ¬":10516,"celona":10517,"áħ¡":10518,"Ġseparated":10519,"Ġ1984":10520,"Ġconversion":10521,"Ġvolunteer":10522,"?<|":10523,"Ġurl":10524,"named":10525,"Ġpanic":10526,"Ġdrinks":10527,"Ġcuba":10528,"Ġkyle":10529,"Ġcrop":10530,"Ġpresumably":10531,"five":10532,"ogan":10533,"Ġhors":10534,"arios":10535,"otal":10536,"Ġmasters":10537,"2012":10538,"Ġpotato":10539,"âĸĪ":10540,"Ġreactions":10541,"Ġparen":10542,"Ġacquisition":10543,"Ġsail":10544,"Ġbrandon":10545,"Ġsuck":10546,"Ġprototype":10547,"Ġbitter":10548,"Ġuncomfortable":10549,"Ġtraditionally":10550,"sky":10551,"Ġmakers":10552,"Ġindication":10553,"Ġviable":10554,"Ġquietly":10555,"Ġlung":10556,"Ġmarry":10557,"aments":10558,"Ġcpu":10559,"Ġ1986":10560,"grade":10561,"Ġsamp":10562,"change":10563,"Ġorigins":10564,"Ġadmir":10565,"Ġreflected":10566,"Ġswiss":10567,"Ġtransformation":10568,"oly":10569,"Ġequity":10570,"Ġdeserves":10571,"Ġincorrect":10572,"tz":10573,"Ġlineback":10574,"Ġlawrence":10575,"Ġrust":10576,"Ġ76":10577,"Ġbathroom":10578,"Ġrehab":10579,"Ġessay":10580,"Ġstein":10581,"Ġpriorities":10582,"Ġgravity":10583,"Ġquad":10584,"Ġsinging":10585,"Ġpalm":10586,"Ġinstantly":10587,"space":10588,"Ġhawaii":10589,"Ġbuyers":10590,"Ġriot":10591,"Ġmorris":10592,"Ġvladimir":10593,"sic":10594,"Ġferguson":10595,"Ġwash":10596,"Ġoffseason":10597,"Ġcounties":10598,"Ġsuprem":10599,"Ġcelebrated":10600,"Ġouter":10601,"Ġugly":10602,"Ġdumb":10603,"Ġinterven":10604,"Ġ);":10605,"Ġpressing":10606,"product":10607,"Ġlag":10608,"Ġalloc":10609,"Ġacted":10610,"Ġprovincial":10611,"Ġeleph":10612,"Ġquotes":10613,"Ġtrucks":10614,"zes":10615,"Ġlon":10616,"Ġberkeley":10617,"Ġlogical":10618,"Ġhond":10619,"xus":10620,"Ġquestioning":10621,"Ġportra":10622,"Ġsporting":10623,"Ġdetained":10624,"written":10625,"half":10626,"Ġbreach":10627,"kar":10628,"iary":10629,"perform":10630,"Ġchancellor":10631,"Ġsupporter":10632,"Ġbarrier":10633,"ju":10634,"uccess":10635,"Ġnetanyahu":10636,"Ġstead":10637,"Ġui":10638,"Ġstunning":10639,"Ġfrustration":10640,"Ġgrocer":10641,"Ġ''":10642,"Ġgur":10643,"Ġfarms":10644,"Ġpartially":10645,"Ġarchae":10646,"Ġlib":10647,"Ġ01":10648,"report":10649,"icism":10650,"Ġtransc":10651,"Ġbenjamin":10652,"bad":10653,"Ġannually":10654,"Ġsizes":10655,"ervice":10656,"Ġstatistical":10657,"Ġcricket":10658,"Ġmarginal":10659,"Ġfascinating":10660,"ifier":10661,"ivan":10662,"Ġvic":10663,"Ġpedest":10664,"arer":10665,"ĠÏ":10666,"Ġbloomberg":10667,"Ġterry":10668,"Ġrecy":10669,"Ġmete":10670,"urance":10671,"Ġbless":10672,"also":10673,"Ġlongest":10674,"Ġabbott":10675,"Ġconj":10676,"Ġbrave":10677,"erald":10678,"aser":10679,"Ġarctic":10680,"pdf":10681,"Ġmutual":10682,"Ġtensions":10683,"Ġchristianity":10684,"Ġinsane":10685,"Ġorthodox":10686,"Ġcapability":10687,"Ġmagical":10688,"Ġinvesting":10689,"Ġremembered":10690,"Ġwound":10691,"Ġpersist":10692,"Ġprelim":10693,"Ġpoorly":10694,"acon":10695,"Ġceiling":10696,"Ġwallet":10697,"gir":10698,"Ġwitnessed":10699,"Ġconfirmation":10700,"Ġhumanitarian":10701,"Ġslavery":10702,"Ġtends":10703,"econom":10704,"rencies":10705,"Ġplacing":10706,"Ġhighlighted":10707,"Ġviolated":10708,"Ġairlines":10709,"Ġshan":10710,"Ġimpose":10711,"Ġawkward":10712,"uates":10713,"Ġclo":10714,"umble":10715,"Ġsuggestion":10716,"Ġflew":10717,"rose":10718,"gam":10719,"Ġkidna":10720,"Ġtrap":10721,"ester":10722,"~~":10723,"llers":10724,"atively":10725,"Ġpenalties":10726,"Ġmanufacturer":10727,"Ġstom":10728,"Ġaston":10729,"Ġprotections":10730,"Ġcircles":10731,"Ġresidence":10732,"Ġbio":10733,"Ġeconomists":10734,"Ġpeop":10735,"Ġliv":10736,"Ġdoug":10737,"athon":10738,"Ġdensity":10739,"Ġappointment":10740,"Ġevans":10741,"Ġpermitted":10742,"iors":10743,"Ġconced":10744,"Ġarchive":10745,"Ġdisappeared":10746,"âĢ³":10747,"Ġplaint":10748,"Ġprocessor":10749,"Ġderived":10750,"Ġfounding":10751,"content":10752,"Ġncaa":10753,"Ġfrustrated":10754,"ori":10755,"Ġproceedings":10756,"Ġaudiences":10757,"Ġoperational":10758,"rary":10759,"wer":10760,"Ġrevealing":10761,"Ġprevented":10762,"Ġears":10763,"Ġcivilization":10764,"Ġcontrolling":10765,"Ġcalc":10766,"Ġmotivation":10767,"Ġbarcelona":10768,"Ġalternatives":10769,"Ġalarm":10770,"team":10771,"Ġkerry":10772,"Ġcurt":10773,"udeau":10774,"/.":10775,"Ġdrunk":10776,"Ġcasting":10777,"Ġmack":10778,"Ġinstruments":10779,"Ġsmell":10780,"Ġsafer":10781,"Ġabsent":10782,"https":10783,"Ġlip":10784,"Ġenhanced":10785,"à¸":10786,"ocur":10787,"cm":10788,"Ġmg":10789,"Ġholder":10790,"Ġorche":10791,"urities":10792,"Ġassumption":10793,"ĠÃĹ":10794,"Ġalike":10795,"Ġdeport":10796,"Ġspur":10797,"anna":10798,"Ġcolleges":10799,"Ġcrowds":10800,"Ġscary":10801,"Ġwand":10802,"Ġrodr":10803,"Ġacceptance":10804,"Ġdoc":10805,"Ġkeith":10806,"Ġadvised":10807,"Ġwhilst":10808,"Ġcafe":10809,"Ġtreasure":10810,"Ġrotation":10811,"Ġpainted":10812,"Ġdisturbing":10813,"Ġslave":10814,"Ġcohen":10815,"Ġcomplain":10816,"Ġentities":10817,"Ġtoile":10818,"Ġpressed":10819,".),":10820,"Ġmasc":10821,"Ġaffair":10822,"Ġhostile":10823,"Ġexhaust":10824,"una":10825,"Ġorientation":10826,"Ġtub":10827,"anches":10828,"Ġsolidarity":10829,"Ġrio":10830,"lab":10831,"liver":10832,"Ġphotography":10833,"Ġprobability":10834,"Ġexpertise":10835,"stock":10836,"Ġworship":10837,"uts":10838,"Ġweaken":10839,"Ġaccomplished":10840,"Ġgran":10841,"specific":10842,"Ġpp":10843,"bab":10844,"Ġfastest":10845,"cp":10846,"Ġparticles":10847,"Ġstrongest":10848,"walk":10849,"Ġstressed":10850,"mare":10851,"Ġmotors":10852,"Ġseal":10853,"Ġfilling":10854,"Ġexplosive":10855,"click":10856,"orient":10857,"Ġindians":10858,"Ġrockets":10859,"Ġbalanced":10860,"Ġmcconnell":10861,"Ġinstinct":10862,"Ġrings":10863,"Ġmitt":10864,"ttes":10865,"Ġcaps":10866,"Ġzones":10867,"utch":10868,"Ġflags":10869,"ologically":10870,"Ġbarry":10871,"Ġpresidents":10872,"sn":10873,"Ġcou":10874,"Ġfles":10875,"Ġattendance":10876,"Ġsurren":10877,"Ġphilip":10878,"Ġtampa":10879,"Ġgp":10880,"bally":10881,"ava":10882,"Ġgreens":10883,"color":10884,"Ġreserves":10885,"ptions":10886,"Ġpays":10887,"handed":10888,"oos":10889,"Ġboundaries":10890,"Ġ69":10891,"Ġrespondents":10892,"Ġtempor":10893,"Ġdakota":10894,"Ġfright":10895,"Ġdistant":10896,"Ġ77":10897,"Ġqa":10898,"Ġauction":10899,"Ġtranscript":10900,"Ġseg":10901,"Ġretrie":10902,"lie":10903,"Ġdevoted":10904,"piece":10905,"Ġkirk":10906,"bart":10907,"Ġfloating":10908,"Ġtribe":10909,"url":10910,"store":10911,"nas":10912,"Ġinitiatives":10913,"Ġtraveled":10914,"Ġunnecessary":10915,"Ġhispan":10916,"Ġexchanges":10917,"Ġflowers":10918,"Ġpeoples":10919,"Ġplanets":10920,"Ġswitzer":10921,"Ġâĸ":10922,"vid":10923,"around":10924,"Ġrobin":10925,"Ġdesigners":10926,"Ġpand":10927,"Ġcomparing":10928,"izations":10929,"Ġcensus":10930,"Ġwikipedia":10931,"Ġcompletion":10932,"Ġgenet":10933,"Ġneil":10934,"Ġrealm":10935,"Ġsurvivors":10936,"Ġjazz":10937,"Ġconstrain":10938,"Ġhash":10939,"itivity":10940,"Ġstocks":10941,"Ġware":10942,"Ġimmigrant":10943,"Ġcrude":10944,"orate":10945,"enth":10946,"Ġblade":10947,"Ġintensity":10948,"zone":10949,"Ġdougl":10950,"Ġgaining":10951,"Ġtreating":10952,"ressing":10953,"à¤":10954,"Ġtrudeau":10955,"Ġfocuses":10956,"Ġchiefs":10957,"Ġfcc":10958,"Ġrespective":10959,"disc":10960,"Ġmaria":10961,"ipher":10962,"Ġave":10963,"aughters":10964,"Ġprincess":10965,"Ġports":10966,"Ġgreenhouse":10967,"Ġvertical":10968,"mir":10969,"Ġkle":10970,"Ġworthy":10971,"Ġcluster":10972,"Ġchristie":10973,"agraph":10974,"keep":10975,"Ġsketch":10976,"Ġ1987":10977,"Ġsensor":10978,"Ġ700":10979,"Ġscroll":10980,"Ġsisters":10981,"Ġflexible":10982,"charge":10983,"Ġbattlefield":10984,"Ġ^":10985,"Ġabol":10986,"Ġidentification":10987,"school":10988,"Ġcontam":10989,"Ġethical":10990,"Ġlanes":10991,"Ġmedian":10992,"ean":10993,"Ġoxford":10994,"Ġreun":10995,"super":10996,"Ġsadly":10997,"Ġjake":10998,"great":10999,"Ġdiver":11000,"Ġenjoying":11001,"('":11002,"Ġcomposed":11003,"Ġtrash":11004,"Ġcrypto":11005,"ifact":11006,"Ġdevil":11007,"Ġkrist":11008,"Ġvague":11009,"Ġsusan":11010,"Ġexperiencing":11011,"Ġsentences":11012,"Ġwhistle":11013,"ui":11014,"Ġviral":11015,"Ġdispos":11016,"Ġshorter":11017,"Ġ1979":11018,"itate":11019,"Ġcompliance":11020,"Ġcustoms":11021,"Ġportfol":11022,"Ġaftermath":11023,"borne":11024,"adi":11025,"Ġfranklin":11026,"Ġromantic":11027,"Ġrunner":11028,"Ġqualify":11029,"Ġunderstands":11030,"Ġspacecraft":11031,"Ġfolk":11032,"Ġbulls":11033,"Ġtemplate":11034,"Ġpole":11035,"Ġamd":11036,"Ġrated":11037,"Ġcelebrity":11038,"three":11039,"boards":11040,"bot":11041,"iva":11042,"Ġrogers":11043,"gregation":11044,"Ġidentifying":11045,"Ġscenarios":11046,"Ġyahoo":11047,"Ġreceives":11048,"Ġ1985":11049,"Ñı":11050,"Ġdeployment":11051,"Ġturner":11052,"Ġaccountability":11053,"Ġessence":11054,"anti":11055,"Ġunlimited":11056,"Ġcryptocur":11057,"Ġoperates":11058,"Ġideological":11059,"Ġanime":11060,"Ġemerge":11061,"Ġacquire":11062,"Ġstomach":11063,"Ġpeers":11064,"Ġdisorders":11065,"minded":11066,"Ġskull":11067,"opy":11068,"Ġadvantages":11069,"Ġbrains":11070,"Ħ¢":11071,"Ġfluid":11072,"Ġcrops":11073,"Ġhorizon":11074,"Ġimagination":11075,"due":11076,"Ġtimeline":11077,"Ġalberta":11078,"Ġinfring":11079,"Ġcondemned":11080,"Ġtyler":11081,"gets":11082,"Ġjokes":11083,"?'":11084,"safe":11085,"Ġaging":11086,"Ġbreakdown":11087,"Ġdeclare":11088,"paid":11089,"Ġsyndr":11090,"ÙĦ":11091,"Ġswitzerland":11092,"Ġmetab":11093,"Ġdistinction":11094,"cott":11095,"Ġloving":11096,"Ġsupervis":11097,"Ġillegally":11098,"Ġinterrog":11099,"Ġstructural":11100,"Ġsanct":11101,"Ġsubsidies":11102,"Ġsemin":11103,"Ġelementary":11104,"Ġtwelve":11105,"cult":11106,"Ġcultures":11107,"Ġnonprofit":11108,"Ġbiology":11109,"Ġcheer":11110,"Ġaest":11111,"Ġdy":11112,"Ġhackers":11113,"Ġeli":11114,"ridge":11115,"Ġinhib":11116,"Ġbrady":11117,"Ġparade":11118,"Ġmason":11119,"Ġtouched":11120,"Ġafterwards":11121,"Ġdoctrine":11122,"Ġpursuit":11123,"Ġemper":11124,"Ġspreading":11125,"Ġabd":11126,"lev":11127,"Ġapprove":11128,"ouses":11129,"offs":11130,"Ġinfer":11131,"Ġwidth":11132,"Ġresolved":11133,"verning":11134,"Ġformally":11135,"Ġelderly":11136,"Ġelectronics":11137,"god":11138,"Ġbrussels":11139,"Ġclicking":11140,"lay":11141,"Ġkos":11142,"Ġgamers":11143,"Ġdirectory":11144,"Ġflexibility":11145,"vide":11146,"Ġsocieties":11147,"Ġrespected":11148,"Ġhatred":11149,"Ġannouncing":11150,"Ġ73":11151,"Ġpreval":11152,"Ġincons":11153,"Ġcreek":11154,"Ġinsect":11155,"dc":11156,"dist":11157,"Ġexcessive":11158,"Ġrage":11159,"Ġsecured":11160,"Ġdifficulties":11161,"Ġoscar":11162,"loyd":11163,"Ġeconomies":11164,"max":11165,"hou":11166,"did":11167,"Ġdelicious":11168,"Ġleather":11169,"Ġglory":11170,"keeper":11171,"Ġpon":11172,"Ġneglect":11173,"Ġmaine":11174,"Ġpuerto":11175,"Ġdiabet":11176,"Ġtrusted":11177,"writer":11178,"Ġwheels":11179,"pace":11180,"Ġnag":11181,"fam":11182,"Ġpenet":11183,"Ġhabits":11184,"Ġconsequence":11185,"Ġdesired":11186,"cry":11187,"Ġsatisfied":11188,"Ġhunger":11189,"Ġwi":11190,"cup":11191,"Ġfreely":11192,"Ġ74":11193,"conduct":11194,"otypes":11195,"Ġtrapped":11196,"Ġinsider":11197,"aria":11198,"Ġrefusing":11199,"ÂĶ":11200,"happy":11201,"amo":11202,"Ġresigned":11203,"Ġtourists":11204,"Ġbeloved":11205,"Ġscul":11206,"Ġleap":11207,"Ġdw":11208,"Ġinstitutional":11209,"Ġmobil":11210,"Ġanticipated":11211,"Ġhoriz":11212,"Ġcontacts":11213,"Ġnorthwest":11214,"Ġ1930":11215,"Ġdose":11216,"Ġintrig":11217,"Ġsna":11218,"Ġbuttons":11219,"Ġspectacular":11220,"Ġfuneral":11221,"]<|":11222,"Ġcolumbus":11223,"Ġdanny":11224,"Ġobservation":11225,"Ġrip":11226,"Ġretailers":11227,"Ġcertificate":11228,"Ġregulators":11229,"Ġcolonial":11230,"Ġteenager":11231,"Ġspawn":11232,"Ġharvey":11233,"points":11234,"Ġdeliberately":11235,"Ġinappropri":11236,"Ġjefferson":11237,"Ġprest":11238,"Ġembedded":11239,"mt":11240,"Ġpence":11241,"Ġrall":11242,"Ġhealing":11243,"rot":11244,"Ġpreliminary":11245,"Ġraz":11246,"Ġcape":11247,"Ġheadline":11248,"drop":11249,"Ġmum":11250,"Ġsoutheast":11251,"Ġattitudes":11252,"Ġretreat":11253,"arded":11254,"rels":11255,"Ð²":11256,"Ġbak":11257,"Ġinvis":11258,"Ġdenial":11259,"Ġhumor":11260,"Ġgrasp":11261,"Ġstrain":11262,"Ġdeciding":11263,"blog":11264,"Ġknocked":11265,"Ġexports":11266,"vet":11267,"Ġparticipated":11268,"Ġabandon":11269,"Ġmonop":11270,"today":11271,"icut":11272,"Ġminorities":11273,"dale":11274,"Ġcontinuous":11275,"Ġcounting":11276,"âĦ¢":11277,"Ġraj":11278,"Ġtriggered":11279,"Ġsends":11280,"Ġsacred":11281,"Ġintroducing":11282,"controlled":11283,"bull":11284,"Ġattributed":11285,"Ġmidnight":11286,"Ġexcitement":11287,"Ġwrapped":11288,"feld":11289,"Ġ78":11290,"Ġreaches":11291,"Ġwwe":11292,"Ġalbums":11293,"Ġdisg":11294,"Ġdetected":11295,"Ġtrophy":11296,"take":11297,"Ġharmful":11298,"bted":11299,"Ġbeers":11300,"Ġinch":11301,"Ġchampionships":11302,"mos":11303,"Ġmadison":11304,"Ġinevit":11305,"Ġhorses":11306,"goo":11307,"Ġcodes":11308,"cycle":11309,"Ġgifts":11310,"Ġtok":11311,"Ġreed":11312,"Ġsuitable":11313,"Ġmant":11314,"Ġverdict":11315,"Ġtourism":11316,"Ġbald":11317,"gener":11318,"Ġgonz":11319,"Ġrhyth":11320,"grow":11321,"Ġdirt":11322,"Ġcorbyn":11323,"Ġthrows":11324,"incinn":11325,"Ġreson":11326,"atile":11327,"Ġmagnetic":11328,"Ġarriving":11329,"ribe":11330,"Ġlamb":11331,"Ġmul":11332,"asted":11333,"Ġkills":11334,"Ġdivorce":11335,"Ġoffset":11336,"mill":11337,"();":11338,"Ġlucas":11339,"Ġcanon":11340,"geon":11341,"Ġfeeding":11342,"Ġadvances":11343,"Ġinvestor":11344,"Ġlicensed":11345,"rane":11346,"gree":11347,"Ġfemales":11348,"abling":11349,"Ġdemol":11350,"Ġclassical":11351,"Ð¼":11352,"Ġchains":11353,"Ġubuntu":11354,"christ":11355,"Ġposed":11356,"Ġbarriers":11357,"Ġwithdraw":11358,"prom":11359,"Ġsyndrome":11360,"Ġnorway":11361,"ku":11362,"Ġlayout":11363,"Ġpledged":11364,"Ġinfected":11365,"wear":11366,"normal":11367,"Ġbapt":11368,"Ġbee":11369,"Ġcyn":11370,"mouth":11371,"Ġinstruction":11372,"Ġcondemn":11373,"since":11374,"Ġpilots":11375,"Ġundermin":11376,"Ġmold":11377,"Ġspecialist":11378,"Ġdisk":11379,"Ġseparation":11380,"Ġcreators":11381,"Ġdetective":11382,"brand":11383,"Ġnons":11384,"Ġdetain":11385,"Ġvet":11386,"rating":11387,"Ġorganizing":11388,"Ġcleaning":11389,"Ġsprint":11390,"Ġcaucus":11391,"Ġweiss":11392,"Ġpowder":11393,"Ġtexts":11394,"âĢ¢":11395,"Ġrankings":11396,"isk":11397,"Ġbrewery":11398,"wau":11399,"league":11400,"incinnati":11401,"nick":11402,"olo":11403,"Ġfinancing":11404,"Ġmerkel":11405,"Ġhelicopter":11406,"Ġ71":11407,"Ġapproaching":11408,"Ġgeneric":11409,"Ġoptimistic":11410,"Ġshifted":11411,"Ġpublishers":11412,"Ġearliest":11413,"Ġhelm":11414,"Ġirs":11415,"Ġhopeful":11416,"Ġresume":11417,"Ġdaughters":11418,"Ġentrepreneurs":11419,"Ġreminded":11420,"Ġsponsored":11421,"Ġfierce":11422,"Ġmeantime":11423,"Ġinnings":11424,"Ġteens":11425,"Ġnoble":11426,"ãģ¦":11427,"Ġkel":11428,"Ġoliver":11429,"Ġleagues":11430,"Ġarkansas":11431,"Ġconducting":11432,"Ġassured":11433,"Ġpurple":11434,"width":11435,"arettes":11436,"Ġreminder":11437,"bri":11438,"Ġemotion":11439,"Ġtemporarily":11440,"Ġphotographer":11441,"ockets":11442,"Ġwelcomed":11443,"Ġunders":11444,"Ġbloody":11445,"Ġtrafficking":11446,"Ġcolleague":11447,"Ġexecute":11448,"Ġavoided":11449,"Ġaj":11450,"Ġtendency":11451,"Ġstabil":11452,"Ġbottles":11453,"estone":11454,"acent":11455,"ahaw":11456,"Ġgrip":11457,"seud":11458,"igious":11459,"Ġlacking":11460,"gon":11461,"fight":11462,"Ġpeters":11463,"Ġrushed":11464,"Ġsilly":11465,"nt":11466,"Ġisa":11467,"imens":11468,"mw":11469,"Ġlikewise":11470,"Ġexpend":11471,"Ġvenezuela":11472,"erving":11473,"Ġlang":11474,"Ġimmense":11475,"Ġboring":11476,"Ġburns":11477,"Ġtradem":11478,"Ġdonation":11479,"Ġgrain":11480,"áĦĭáħ":11481,"Ġvariation":11482,"Ġevaluation":11483,"Ġunre":11484,"dan":11485,"vals":11486,"Ġsweat":11487,"Ġdiabetes":11488,"Ġlabels":11489,"Ġscreening":11490,"Ġchemistry":11491,"Ġpartial":11492,"Ġcarson":11493,"Ġsequel":11494,"Ġbatteries":11495,"Ġindicating":11496,"Ġastronom":11497,"rust":11498,"Ġjaw":11499,"Ġtranslated":11500,"2011":11501,"Ġlicensing":11502,"Ġdiff":11503,"Ġcharlotte":11504,"Ġpremiere":11505,"Ġsmugg":11506,"iven":11507,"iar":11508,"Ġwitch":11509,"Ġpurchases":11510,"Ġisolation":11511,"Ġholland":11512,"Ġdamaging":11513,"Ġfarming":11514,"ĠÐ¿":11515,"abe":11516,"Ġsib":11517,"Ġgoverning":11518,"Ġdecreased":11519,"Ġliterary":11520,"Ġmixture":11521,"Ġcapitalist":11522,"Ġcompound":11523,"Ġadmission":11524,"Ġinclusion":11525,"Ġadjusted":11526,"Ġworkplace":11527,"Ġ82":11528,"Ġdivine":11529,"Ġtoys":11530,"Ġhr":11531,"Ġbrun":11532,"Ġwishes":11533,"Ġpetro":11534,"Ġsheer":11535,"Ġorg":11536,"Ġsued":11537,"Ġlinear":11538,"Ġlisting":11539,"Ġhij":11540,"avis":11541,"contin":11542,"Ġterritories":11543,"Ġrushing":11544,"feed":11545,"pac":11546,"Ġgrows":11547,"Ġfraction":11548,"Ġglenn":11549,"Ġhypothesis":11550,"Ġfailures":11551,"Ġkernel":11552,"Ġstatue":11553,"Ġsparked":11554,"Ġautonomous":11555,"Ġcompassion":11556,"nered":11557,"oping":11558,"Ġpursuing":11559,"waukee":11560,"bas":11561,"Ġbradley":11562,"Ġunc":11563,"Ġcambridge":11564,"Ġpurely":11565,"Ġherald":11566,"Ġurge":11567,"Ġverizon":11568,"Ġharvest":11569,"Ġtatt":11570,"Ġwaited":11571,"rek":11572,"Ġinvite":11573,"Ġcowboys":11574,"Ġfiber":11575,"Ġgrabbed":11576,"Ġreception":11577,"usters":11578,"Ġaccounting":11579,"frame":11580,"giving":11581,"Ġrosen":11582,"fly":11583,"Ġconnecticut":11584,"Ġgrim":11585,"Ġshy":11586,"Ġteenage":11587,"Ġrecruiting":11588,"Ġdecides":11589,"Ġbelieving":11590,"Ġpermits":11591,"Ġclimbing":11592,"Ġpassionate":11593,"Ġlifted":11594,"Ġpants":11595,"Ġsooner":11596,"Ġthereby":11597,"alling":11598,"Ġintu":11599,"Î±":11600,"Ġwherever":11601,"Ġ>>":11602,"Ġmasses":11603,"Ġadmits":11604,"Ġpreference":11605,"Ġduck":11606,"Ġsue":11607,"Ġeighth":11608,"Ġjumping":11609,"Ġdestroying":11610,"Ġruth":11611,"suits":11612,"Ġdraws":11613,"Ġbanner":11614,"Ġconnecting":11615,"asse":11616,"Ġlecture":11617,"Ġstrengthe":11618,"erk":11619,"Ġbroadband":11620,"Ġjuice":11621,"Ġseam":11622,"uto":11623,"Ġswimming":11624,"Ġalternate":11625,"Ġtragic":11626,"Ġfda":11627,"Ġcareers":11628,"Ġwarnings":11629,"Ġdetection":11630,"Ġtribal":11631,"Ġelectro":11632,"Ġspotlight":11633,"Ġdonated":11634,"Ġdamages":11635,"search":11636,"Ġfence":11637,"Ġordin":11638,"Ġcorrection":11639,"Ġeld":11640,"Ġeman":11641,"Ġvillages":11642,"Ġslip":11643,"stage":11644,"Ġ::":11645,"esh":11646,"Ġundermine":11647,"Ġunfortunate":11648,"beit":11649,"irs":11650,"quality":11651,"Ġgenerous":11652,"zan":11653,"Ġmidfielder":11654,"Ġstreak":11655,"Ġvacation":11656,"Ġtreatments":11657,"ois":11658,"Ġcincinnati":11659,"Ġpakistani":11660,"Ġnovels":11661,"Ġmeals":11662,"Ġbrack":11663,"Ġcorners":11664,"Ġclause":11665,"those":11666,"Ġtaxpayer":11667,"nik":11668,"iper":11669,"aro":11670,"Ġarthur":11671,"Ġindonesia":11672,"Ġcorresponding":11673,"Ġcocaine":11674,"owners":11675,"item":11676,"Ġorganisations":11677,"Ġdoubled":11678,"Ġdecks":11679,"Ġsteep":11680,"kk":11681,"Ġrim":11682,"Ġlobbying":11683,"Ġcarn":11684,"Ġmarketplace":11685,"urt":11686,"info":11687,"general":11688,"Ġauthorized":11689,"Ġfriendship":11690,"Ġskip":11691,"interest":11692,"Ġsucceeded":11693,"gian":11694,"Ġpoem":11695,"Ġmph":11696,"write":11697,"Ġltd":11698,"Ġadvisory":11699,"brew":11700,"Ġanchor":11701,"Ġfifty":11702,"backed":11703,"Ġgarage":11704,"Ġtigers":11705,"Ġearthquake":11706,"Ġavoiding":11707,"government":11708,"Ġmim":11709,"rr":11710,"chief":11711,"Ġproc":11712,"Ġlyrics":11713,"Ġbb":11714,"tees":11715,"Ġgren":11716,"Ġbetray":11717,"Ġcomply":11718,"Ġ88":11719,"Ġoutdoor":11720,"Ġplas":11721,"Ġexpose":11722,"Ġaired":11723,"Ġexceptions":11724,"prote":11725,"Ġdnc":11726,"hon":11727,"pert":11728,"Ġfrankly":11729,"Ġaccountable":11730,"ctive":11731,"Ġtraits":11732,"Ġbreathing":11733,"Ġdubbed":11734,"Ġcrying":11735,"Ġscreaming":11736,"Ġpaths":11737,"kg":11738,"Ġdivid":11739,"alph":11740,"Ġnie":11741,"Ġstrengthen":11742,"Ġlisa":11743,"Ġworkforce":11744,"Ġacres":11745,"Ġnightmare":11746,"ums":11747,"Ġrams":11748,"Ġintentions":11749,"Ġxi":11750,"ĠðŁ":11751,"Ġjustified":11752,"Ġmarco":11753,"otion":11754,"advant":11755,"Ġcage":11756,"Ġwooden":11757,"coins":11758,"idays":11759,"ĠÂ·":11760,"Ġald":11761,"Ġkay":11762,"Ġprecious":11763,"ateur":11764,"Ġ1983":11765,"Ġtelesc":11766,"Ġdvd":11767,"Ġ()":11768,"Ġquery":11769,"Ġdancing":11770,"Ġslower":11771,"Ġmb":11772,"Ġbite":11773,"hz":11774,"Ġtactical":11775,"ioned":11776,"Ġgrie":11777,"Ġ1982":11778,"fold":11779,"Ġlocker":11780,"Ġstranger":11781,"ãģ®":11782,"Ġjuan":11783,"keys":11784,"powered":11785,"Ġforums":11786,"adic":11787,"Ġliberties":11788,"days":11789,"Ġwrap":11790,"Ġsmartphones":11791,"Ġdouglas":11792,"Ġjohnny":11793,"Ġregards":11794,"Ġshifting":11795,"]:":11796,"Ġsuspicious":11797,"Ġfilming":11798,"Ġheights":11799,"Ġsuspicion":11800,"dogan":11801,"Ġgenerating":11802,"Ġconclude":11803,"ationally":11804,"Ġcreativity":11805,"Ġtransformed":11806,"public":11807,"system":11808,"isers":11809,"ouds":11810,"Ġimplementing":11811,"rained":11812,"Ġmounted":11813,"Ġlesser":11814,"Ġsensors":11815,"Ġgoldman":11816,"Ġtenure":11817,"Ġretro":11818,"Ġmichelle":11819,"âĢ¦âĢ¦":11820,"web":11821,"Ġunrest":11822,"Ġjennifer":11823,"Ġunch":11824,"Ġfolder":11825,"ailing":11826,"Ð´":11827,"izable":11828,"Ġparenthood":11829,"eded":11830,"Ġni":11831,"Ġcompiled":11832,"Ġinterference":11833,"Ġkarl":11834,"Ġbelgium":11835,"Ġmormon":11836,"Ġleverage":11837,"atern":11838,"Ġlasted":11839,"Ġvulnerability":11840,"Ġcharts":11841,"Ġgps":11842,"mobile":11843,"Ġparagraph":11844,"Ġgb":11845,"Ġmatching":11846,"Ġinvented":11847,"Ġdispro":11848,"Ġconsultant":11849,"Ġpound":11850,"Ġcoastal":11851,"cling":11852,"Ġtube":11853,"Ġbranches":11854,"Ġemperor":11855,"Ġconsolid":11856,"Ġhistorian":11857,"Ġindie":11858,"Ġencountered":11859,"arest":11860,"Ġdiagnosed":11861,"Ġthumb":11862,"Ġstones":11863,"Ġdepri":11864,"Ġgau":11865,"Ġwheat":11866,"Ġwondered":11867,"Ġslaves":11868,"Ġsoci":11869,"Ġbros":11870,"Ġrebell":11871,"Ġargentina":11872,"unting":11873,"Ñĭ":11874,"Ġcruise":11875,"Ġspirits":11876,"gie":11877,"rand":11878,"Ġvermont":11879,"gency":11880,"anka":11881,"Ġpredictions":11882,"elle":11883,"Ġshed":11884,"Ġeuros":11885,"utical":11886,"Ġmeta":11887,"acceptable":11888,"Ġzoo":11889,"Ġevaluate":11890,"Ġindict":11891,"Ġlocals":11892,"Ġincentive":11893,"Ġremed":11894,"Ġexhibition":11895,"Ġimpress":11896,"Ġpseud":11897,"Ġrolls":11898,"Ġeducated":11899,"Ġcredibility":11900,"Ġlac":11901,"Ġkor":11902,"Ġislamist":11903,"Ġsubscription":11904,"Ġcorrid":11905,"Ġgenius":11906,"Ġrah":11907,"Ġbooth":11908,"Ġenables":11909,"Ġconsiders":11910,"Ġhungry":11911,"Ġlith":11912,"Ġsuperhero":11913,"iffe":11914,"Ġincentives":11915,"Ġoutlook":11916,"names":11917,"Ġstraw":11918,"Ġadventures":11919,"Ġtraditions":11920,"itbart":11921,"Ġflames":11922,"Ġmosque":11923,"Ġebola":11924,"stud":11925,"Ġarrangement":11926,"110":11927,"Ġreflection":11928,"Ġspare":11929,"oken":11930,"spr":11931,"Ġdynamics":11932,"Ġunle":11933,"Ġsubway":11934,"heric":11935,"avail":11936,"Ġestablishing":11937,"Ġeliminated":11938,"Ġcompatible":11939,"Ġtribune":11940,"Ġfortunately":11941,"Ġgrat":11942,"driven":11943,"Ġspencer":11944,"Ġunveiled":11945,"Ġautism":11946,"Ġreplay":11947,"Ġvigil":11948,"israel":11949,"Ġfeared":11950,"Ġsprings":11951,"Ġnixon":11952,"umbled":11953,"Ġnominated":11954,"Ġdetermination":11955,"Ġnathan":11956,"Ġgarbage":11957,"Ġindirect":11958,"Ġurging":11959,"Ġcomparable":11960,"Ġwip":11961,"Ġyours":11962,"Ġmelt":11963,"Ġrelating":11964,"illo":11965,"Ġdescript":11966,"Ġbeneficial":11967,"Ġhindu":11968,"Ġencryption":11969,"Ġcollapsed":11970,"2010":11971,"psy":11972,"Ġsandy":11973,"Ġbrooks":11974,"Ġcer":11975,"Ġsuperman":11976,"Ġhorm":11977,"both":11978,"ulative":11979,"Ġoutright":11980,"Ġshifts":11981,"itative":11982,"Ġuc":11983,"show":11984,"Ġbrazilian":11985,"Ġexhibit":11986,"Ġnationals":11987,"uded":11988,"haul":11989,"Ġmagnitude":11990,"Ġbankruptcy":11991,"Ġmeteor":11992,"jor":11993,"Ġsecurities":11994,"Ġelsa":11995,"Ġ02":11996,"Ġraf":11997,"Ġwarrior":11998,"Ġoffshore":11999,"Ġfli":12000,"Ġstevens":12001,"Ġfond":12002,"viol":12003,"Ġinmates":12004,"Ġmilwaukee":12005,"Ġhammer":12006,"================":12007,"Ġlebanon":12008,"claimed":12009,"index":12010,"bean":12011,"ueller":12012,"Ġdennis":12013,"Ġadequate":12014,"Ġmusicians":12015,"Ġbjp":12016,"boot":12017,"Ġmour":12018,"Ġpublications":12019,"Ġbast":12020,"aux":12021,"Ġgovernance":12022,"Ġrevised":12023,"repres":12024,"Ġfict":12025,"Ġobserve":12026,"aven":12027,"Ġfundraising":12028,"ovic":12029,"Ġrenewed":12030,"Ġcents":12031,"Ġkon":12032,"Ġvolcan":12033,"Ġbrick":12034,"eling":12035,"Ġappealing":12036,"Ġsponsor":12037,"astern":12038,"Ġsel":12039,"sche":12040,"Ġshaped":12041,"Ġgad":12042,"Ġtrauma":12043,"ĠÂĵ":12044,"Ġagrees":12045,"opes":12046,"Ġmortality":12047,"yeah":12048,"afi":12049,"Ġspecified":12050,"Ġwalter":12051,"Ġgrind":12052,"Ġpleaded":12053,"Ġroutinely":12054,"Ġprohibited":12055,"Ġadaptation":12056,"Ġcounted":12057,"Ġaster":12058,"px":12059,"leton":12060,"cot":12061,"Ġflick":12062,"Ġune":12063,".âĢľ":12064,"Ġtribute":12065,"Ġmuhammad":12066,"Ġmetropolitan":12067,"Ġhul":12068,"Ġcotton":12069,"Ġlaughing":12070,"opard":12071,"Ġtiger":12072,"Ġlikelihood":12073,"Ġmentally":12074,"Ġleaks":12075,"Ġharbor":12076,"Ġthreaten":12077,".:":12078,"Ġpine":12079,"aceutical":12080,"Ġana":12081,"Ġpadd":12082,"Ġpd":12083,"âĪĴ":12084,"áĨ«":12085,"aha":12086,"Ġcolomb":12087,"Ġ__":12088,"Ġstrings":12089,"Ġconvinc":12090,"Ġorganizers":12091,"Ġraiders":12092,"---":12093,"Ġerdogan":12094,"Ġ79":12095,"Ġarmen":12096,"Ġportfolio":12097,"Ġfifa":12098,"display":12099,"rament":12100,"cost":12101,"rup":12102,"Ġsox":12103,"Ġbernard":12104,"Ġmultipl":12105,"Ġcongr":12106,"Ġlb":12107,"Ġharrison":12108,"abul":12109,"bank":12110,"Ġbriefing":12111,"Ġmega":12112,"ante":12113,"Ġfreshman":12114,"Ġcache":12115,"Ġbikes":12116,"Ġignoring":12117,"Ġcarlos":12118,"Ġlamp":12119,"Ġstap":12120,"Ġsink":12121,"Ġcure":12122,"Ġpuzzle":12123,"Ġdread":12124,"ĠâĢľ[":12125,"ahl":12126,"Ġathlete":12127,"ully":12128,"Ġflesh":12129,"Ġaggression":12130,"Ġfirmly":12131,"Ġdonate":12132,"Ġpractically":12133,"Ġspike":12134,"Ġobservers":12135,"amb":12136,"Ġmodules":12137,"Ġdwar":12138,"Ġfuels":12139,"Ġshoulders":12140,"them":12141,"hit":12142,"rape":12143,"Ġdisappointing":12144,"ggle":12145,"det":12146,"Ġsuits":12147,"airy":12148,"abil":12149,"lean":12150,"avor":12151,"Ġ1920":12152,"Ġcommented":12153,"Ġwallace":12154,"Ġnortheast":12155,"iate":12156,"Ġrc":12157,"Ġpt":12158,"Ġpurchasing":12159,"Ġ1981":12160,"Ġsci":12161,"Ġtouchdowns":12162,"Ġcounterparts":12163,"Ġaliens":12164,"Ġpolitico":12165,"Ġdiox":12166,"Ġrepos":12167,"Ġcargo":12168,"Ġnexus":12169,"Ġassumptions":12170,"Ġpiv":12171,"itis":12172,"arthy":12173,"writing":12174,"Ġrubber":12175,"Ġfancy":12176,"ea":12177,"Ġairline":12178,"Ġresemb":12179,"issa":12180,"Ġendorsed":12181,"Ġgarcia":12182,"Ġdive":12183,"Ġbackl":12184,"ĠÑģ":12185,"Ġinevitably":12186,"Ġmassacre":12187,"Ġanthrop":12188,"ere":12189,"Ġ110":12190,"Ġinfamous":12191,"Ġaccurately":12192,"alys":12193,"control":12194,"Ġdealers":12195,"Ġanalyses":12196,"Ġnpr":12197,"Ġchronicle":12198,"communic":12199,"uv":12200,"Ġspurs":12201,"glo":12202,"Ġneat":12203,"Ġblend":12204,"Ġteh":12205,"Ġcups":12206,"Ġmerit":12207,"Ġsectors":12208,"kees":12209,"Ġhem":12210,"chair":12211,"Ġlawsuits":12212,"Ġdug":12213,"official":12214,"Ġsmok":12215,"Ġlengthy":12216,"Ġdelays":12217,"Ġprotective":12218,"Ġstriker":12219,"oons":12220,"Ġvariations":12221,"Ġ130":12222,"resa":12223,"Ġexamination":12224,"Ġworn":12225,">>>>":12226,"Ġheal":12227,"would":12228,"Ġcoo":12229,"Ġvikings":12230,"umbling":12231,"Ġconsumed":12232,"Ġrevelation":12233,"Ġbinding":12234,"Ġbilly":12235,"oa":12236,"Ġscal":12237,"Ġheter":12238,"Ġorganize":12239,"Ġnegotiate":12240,"pit":12241,"Ġcla":12242,"oard":12243,"Ġbuses":12244,"Ġdip":12245,"Ġformerly":12246,"Ġwillingness":12247,"Ġseverely":12248,"Ġdisadvant":12249,"Ġaveraged":12250,"Ġcalgary":12251,"Ġskilled":12252,"Ġpile":12253,"Ġkin":12254,"Ġhonour":12255,"Ġvegetables":12256,"Ġbutler":12257,"Ġseiz":12258,"abad":12259,"Ġspill":12260,"ublin":12261,"Ġaggreg":12262,"Ġattributes":12263,"Ġunst":12264,"ching":12265,"ocaly":12266,"Ġcancel":12267,"Ġlocally":12268,"Ġtales":12269,"Ġhalt":12270,"Ġtomato":12271,"Ġdrought":12272,"Ġveto":12273,"Ġtory":12274,"Ġinvisible":12275,"Ġpalin":12276,"Ġentries":12277,"Ġrevenge":12278,"semit":12279,"Ġclosure":12280,"hh":12281,"Ġedwards":12282,"blue":12283,"Ġaffecting":12284,"fed":12285,"Ġchile":12286,"Ġmodes":12287,"Ġcros":12288,"Ġdiagnosis":12289,"affe":12290,"Ġgermans":12291,"Ġshootings":12292,"Ġmush":12293,"Ġlaura":12294,"pple":12295,"anto":12296,"Ġprivately":12297,"Ġreasoning":12298,"Ġblair":12299,"Ġescaped":12300,"Ġ1967":12301,"Ġbinary":12302,"Ġski":12303,"Ġsubmar":12304,"Ġapology":12305,"Ġautomated":12306,"Ġalf":12307,"Ġsf":12308,"Ġshapes":12309,"Ġdenmark":12310,"Ġmobility":12311,"Ġqaeda":12312,"make":12313,"Ġlovely":12314,"Ġrailway":12315,"Ġclouds":12316,"Ġrecalls":12317,"Ġbroncos":12318,"Ġproblematic":12319,"iasm":12320,"Ġmarathon":12321,"bod":12322,"Ġabused":12323,"ĠÐ²":12324,"Ġmeasurements":12325,"Ġling":12326,"zech":12327,"hole":12328,"Ġevangelical":12329,"marks":12330,"Ġecl":12331,"Ġwithdrawal":12332,"itated":12333,"Ġoutbreak":12334,"Ġprophet":12335,"Ġtowers":12336,"Ġdemonstrations":12337,"Ġforming":12338,"Ġholoc":12339,"Ġprediction":12340,"Ġsculpt":12341,"Ġinterf":12342,"Ġloyalty":12343,"Ġcongressman":12344,"iosity":12345,"rows":12346,"Ġseparately":12347,"Ġammun":12348,"ÑĮ":12349,"Ġwhoever":12350,"Ġmong":12351,"Ġvand":12352,"Ġempower":12353,"Ġheroin":12354,"Ġcarriers":12355,"Ġdefendants":12356,"Ġboyfriend":12357,"Ġbehaviors":12358,"Ġastronaut":12359,"proof":12360,"Ġindependently":12361,"Ġ180":12362,"Ġsouthwest":12363,"Ġconfidential":12364,"Ġ101":12365,"Ġ81":12366,"Ġscram":12367,"Ġlinebacker":12368,"Ġliberation":12369,"Ġcc":12370,"Ġmerg":12371,"Ġfarmer":12372,"selling":12373,"Ġunanim":12374,"Ġshutdown":12375,"opt":12376,"Ġclash":12377,"Ġnamely":12378,"Ġ98":12379,"Ġdeleted":12380,"Ġguild":12381,"aba":12382,"Ġlimiting":12383,"Ġkillings":12384,"Ġpixel":12385,"social":12386,"Ġtroubles":12387,"acious":12388,"Ġsymbols":12389,"Ġresignation":12390,"Ġblur":12391,"Ġclassroom":12392,"Ġfont":12393,"yan":12394,"Ġaviation":12395,"Ġbout":12396,"Ġsupportive":12397,"Ġrico":12398,"Ġattacker":12399,"Ġtaxi":12400,"Ġsearches":12401,"Ġbp":12402,"Ġstreams":12403,"Ġinsure":12404,"Ġshah":12405,"Ġinfinite":12406,"Ġende":12407,"Ġlegends":12408,"Ġlesbian":12409,"Ġbillionaire":12410,"Ġsurveys":12411,"Ġdefining":12412,"Ġinappropriate":12413,"Ġbennett":12414,"rod":12415,"Ġunderway":12416,"Ġgit":12417,"Ġencl":12418,"Ġdemographic":12419,"Ġlately":12420,"Ġtrim":12421,"Ġalgorithms":12422,"Ġpitcher":12423,"Ġvolumes":12424,"md":12425,"pered":12426,"Ġdispens":12427,"Ġ1968":12428,"Ġtib":12429,"Ġtolerance":12430,"Ġwade":12431,"Ġcss":12432,"Ġ1940":12433,"Ġjamie":12434,"Ġmartial":12435,"php":12436,"Ġconsulting":12437,"ructive":12438,"Ġgenoc":12439,"Ġjacob":12440,"oline":12441,"Ġswitched":12442,"reach":12443,"Ġpharmaceutical":12444,"Ġcrews":12445,"Ġsull":12446,"Ġspells":12447,"Ġeagle":12448,"Ġ84":12449,"Ġammunition":12450,"oria":12451,"Ġcelebrating":12452,"Ġlegitim":12453,"democ":12454,"too":12455,"Ġgriffin":12456,"Ġeffectiveness":12457,"Ġarchives":12458,"ahawks":12459,"Ġthoroughly":12460,"Ġstrictly":12461,"Ġdaw":12462,"Ġninth":12463,"Ġenthusiasm":12464,"omo":12465,"Ġmedication":12466,"Ġ83":12467,"object":12468,"Ġslic":12469,"Ġbobby":12470,"Ġrachel":12471,"Ġcrashed":12472,"respons":12473,"Ġedges":12474,"Ġfathers":12475,"Ġace":12476,"cules":12477,"Ġrack":12478,"Ġduo":12479,"inf":12480,"Ġvariant":12481,"Ġdated":12482,"atherine":12483,"Ġcostly":12484,"Ġvessel":12485,"Ġmatched":12486,"neath":12487,"Ġevolutionary":12488,"had":12489,"Ġfart":12490,"Ġmueller":12491,"asi":12492,"Ġintake":12493,"Ġassociates":12494,"Ġimpe":12495,"pection":12496,"Ġfundamentally":12497,"Ġdrill":12498,"aults":12499,"iguez":12500,"Ġuran":12501,"Ġgithub":12502,"Ġbreitbart":12503,"Ġobligation":12504,"Ġchand":12505,"Ġhazard":12506,"Ġroth":12507,"Ġnodes":12508,"Ġww":12509,"iche":12510,"Ġjed":12511,"Ġreduces":12512,"update":12513,"Ġprescription":12514,"Ġwag":12515,"Ġcandy":12516,"Ġ1976":12517,"Ġgand":12518,"never":12519,"Ġprejud":12520,"ailand":12521,"science":12522,"Ġrecommendation":12523,"Ġsacrament":12524,"Ġbipart":12525,"Ġrisen":12526,"ulum":12527,"Ġpalestine":12528,"Ġmamm":12529,"Ġzombie":12530,"Ġchef":12531,"Ġshin":12532,"Ġjulian":12533,"connected":12534,"ecd":12535,"Ġpassive":12536,"Ġdolphins":12537,"Ġaltered":12538,"ocity":12539,"Ġ***":12540,"oop":12541,"Ġinsists":12542,"esity":12543,"Ġsounded":12544,"maybe":12545,"Ġdangers":12546,"dated":12547,"Ġrichmond":12548,"oler":12549,"Ġnurse":12550,"Ġfusion":12551,"Ġtranslate":12552,"Ġethere":12553,"Ġ]<|":12554,"actic":12555,"sum":12556,"âĸĪâĸĪ":12557,"issance":12558,"wealth":12559,"Ġtestified":12560,"Ġboots":12561,"Ġmyst":12562,"Ġbryan":12563,"Ġresponsibilities":12564,"Ġmccarthy":12565,"Ġsexuality":12566,"Ġoral":12567,"dec":12568,"Ġ86":12569,"Ġcinema":12570,"Ġinspector":12571,"washington":12572,"Ġmalaysia":12573,"Ġinvestigative":12574,"Ġunfold":12575,"Ġexercises":12576,"Ġintend":12577,"vm":12578,"Ġcopper":12579,"Ġinsights":12580,"Ġmilitant":12581,"true":12582,"Ġaccordingly":12583,"Ġelaborate":12584,"Ġcivic":12585,"runner":12586,"Ġtout":12587,"Ġ1975":12588,"Ġdioxide":12589,"orth":12590,"Ġpenins":12591,"Ġexceptional":12592,"Ġsometime":12593,"Ġbend":12594,"roots":12595,"aca":12596,"Ġfrustrating":12597,"eg":12598,"Ġbatch":12599,"Ġshark":12600,"Ġkan":12601,"ppo":12602,"Ġbarbara":12603,"doing":12604,"Ġskeptical":12605,"nandez":12606,"lements":12607,"Ġladen":12608,"eb":12609,"Ġcf":12610,"Ġstraightforward":12611,"shirt":12612,"Ġshi":12613,"Ġunderneath":12614,"Ġpuck":12615,"bris":12616,"stitutional":12617,"Ġcoat":12618,"Ġslim":12619,"Ġitunes":12620,"Ġtyr":12621,"please":12622,"funded":12623,"Ġ03":12624,"Ġ1973":12625,"Ġdrift":12626,"Ġrider":12627,"Ġstroke":12628,"Ġmisleading":12629,"Ġdisability":12630,"Ġwow":12631,"Ġconvey":12632,"Ġplea":12633,"Ġrendering":12634,"fun":12635,"Ġswitching":12636,"Ġtide":12637,"Ġstays":12638,"Ġbedroom":12639,"Ġmature":12640,"Ġ96":12641,"120":12642,"Ġcliff":12643,"...\"":12644,"Ġrats":12645,"Ġboats":12646,"Ġclarity":12647,"Ġstepping":12648,"Ġbicycle":12649,"Ġsuite":12650,"Ġguer":12651,"Ġhello":12652,"Ġhend":12653,"Ġrecipes":12654,"Ġinhabit":12655,"Ġvamp":12656,"hner":12657,"again":12658,"Ġdeclining":12659,"player":12660,"Ġneural":12661,"Ġschemes":12662,"Ġpup":12663,"Ġdisclose":12664,"Ġdrilling":12665,"Ġexpressing":12666,"Ġdimensions":12667,"Ġatomic":12668,"Ġ87":12669,"othy":12670,"Ġmma":12671,"Ġsnake":12672,"Ġsolic":12673,"Ġdelete":12674,"Ġsoup":12675,"Ġimagined":12676,"Ġfines":12677,"Ġ1972":12678,"oust":12679,"Ġstarring":12680,"develop":12681,"Ġmacro":12682,"Ġfulfill":12683,"cla":12684,"Ġreinfor":12685,"Ġexagger":12686,"Ġqualities":12687,"ighters":12688,"Ġirr":12689,"Ġoptional":12690,"Ġvp":12691,"gence":12692,"Ġdivisions":12693,"Ġ97":12694,"Ġgrocery":12695,"Ġplayback":12696,"hammed":12697,"Ġforty":12698,"pos":12699,"ril":12700,"Ġfilmed":12701,"aley":12702,"Ġdefendant":12703,"oubted":12704,"Ġinterim":12705,"Ġaccommodate":12706,"Ġog":12707,"Ġfitz":12708,"Ġmvp":12709,"Ġdublin":12710,"Ġci":12711,")(":12712,"Ġthailand":12713,"Ġconsume":12714,"Ġaide":12715,"Ġrect":12716,"Ġopera":12717,"Ġcontractors":12718,"illery":12719,"Ġsouls":12720,"Ġoverlook":12721,"Ġconsistency":12722,"kit":12723,"Ġsocialism":12724,"Ġliability":12725,"Ġndp":12726,"astically":12727,"Ġnewest":12728,"Ġshakes":12729,"Ġdiffer":12730,"Ġnavigation":12731,"fan":12732,"Ġquo":12733,"Ġconfusing":12734,"iliation":12735,"Ġcompact":12736,"ä¸":12737,"Ġwounds":12738,"obe":12739,"ync":12740,"900":12741,"Ġbreed":12742,"Ġwreck":12743,"Ġtongue":12744,"Ġmisconduct":12745,"arez":12746,"Ġtriumph":12747,"Ġkoch":12748,"Ġbryant":12749,"Ġartifact":12750,"Ġcredential":12751,"generation":12752,"Ġadapted":12753,"nesty":12754,"Ġ1978":12755,"Ġmint":12756,"Ġtet":12757,"lett":12758,"Ġsubstantially":12759,"Ġseahawks":12760,"din":12761,"Ġcatching":12762,"Ġloses":12763,"Ġraped":12764,"Ġfranco":12765,"igo":12766,"Ġfreeze":12767,"jack":12768,"Ġnam":12769,"Ġsells":12770,"Ġdignity":12771,"Ġpreseason":12772,"Ġdenying":12773,"Ġwinn":12774,"yon":12775,"Ġadvers":12776,"Ġalumin":12777,"prov":12778,"Ġanno":12779,"qual":12780,"Ġmaintains":12781,"uity":12782,"Ġintermedi":12783,"Ġacute":12784,"kill":12785,"Ġdesperately":12786,"Ġtackles":12787,"Ġmultiplayer":12788,"Ġgoodman":12789,"Ġguilt":12790,"Ġincoming":12791,"Ġanalog":12792,"uz":12793,"Ġcancelled":12794,"Ġteenagers":12795,"Ġmatrix":12796,"Ġpermanently":12797,"Ġrelies":12798,"Ġsolved":12799,"Ġsunni":12800,"ocumented":12801,"Ġregulate":12802,"access":12803,"Ġrestored":12804,"Ġtheoretical":12805,"Ġlakes":12806,"Ġshep":12807,"Ġmalware":12808,"opia":12809,"Ġobserver":12810,"Ġrodriguez":12811,"Ġqatar":12812,"Ġcardinals":12813,"Ġapt":12814,"Ġphillips":12815,"Ġoccurring":12816,"Ġzion":12817,"Ġcute":12818,"Ġairpl":12819,"bron":12820,"local":12821,"Ġbangl":12822,"Ġbelongs":12823,"Ġchess":12824,"Ġadverse":12825,"pic":12826,"bes":12827,"Ġbullets":12828,"Ġmidst":12829,"Â®":12830,"Ġarranged":12831,"Ġvendors":12832,"Ġincumb":12833,"borough":12834,"Ġemplo":12835,"Ġmarcus":12836,"usting":12837,"dav":12838,"Â£":12839,"Ġmetres":12840,"Ġlasting":12841,"Ġforests":12842,"pict":12843,"Ġshipped":12844,"Ġjudici":12845,"Ġinsert":12846,"Ġlegislators":12847,"lon":12848,"Ġsweep":12849,"Ġprocessed":12850,"Ġrb":12851,"Ġassociations":12852,"Ġaccidentally":12853,"Ġbrowns":12854,"Ġprecision":12855,"Ġtravelling":12856,"Ġtherap":12857,"Ġbackers":12858,"!!!":12859,"Ġmlb":12860,"chat":12861,"say":12862,"Ġpupp":12863,"Ġnad":12864,"osc":12865,"ĠÐ½":12866,"Ġtribes":12867,"Ġtexture":12868,"moder":12869,"Ġflower":12870,"building":12871,"squ":12872,"Ġobjectives":12873,"Ġhedge":12874,"Ġree":12875,"Ġnationally":12876,"Ġhydrogen":12877,"Ġspee":12878,"Ġadministrator":12879,"Ġcurry":12880,"Ġhearings":12881,"Ġmartine":12882,"dou":12883,"something":12884,"Ġczech":12885,"Ġpartisan":12886,"Ġspite":12887,"Ġnationalist":12888,"Ġgmt":12889,"Ġaboard":12890,"Ġkate":12891,"Ġoverview":12892,"cca":12893,"before":12894,"Ġspat":12895,"especially":12896,"qaeda":12897,"Ġlud":12898,"Ġobesity":12899,"Ġsovereignty":12900,"Ġstealing":12901,"storm":12902,"Ġhelmet":12903,"Ġglobally":12904,"asses":12905,"Ġlabeled":12906,"Ġpeninsula":12907,"Ġsalaries":12908,"ĠÂ»":12909,"Ġbroadcasting":12910,"Ġtire":12911,"Ġpropri":12912,"Ġalice":12913,"Ġundoubted":12914,"Ġplates":12915,"Ġbreakthrough":12916,"Ġholocaust":12917,"Ġterrain":12918,"rt":12919,"Ġct":12920,"Ġjudiciary":12921,"Ġhbo":12922,"Ġdelta":12923,"yout":12924,"Ġcompleting":12925,"wick":12926,"Ġpunk":12927,"Ġpredomin":12928,"Ġconcess":12929,"Ġ93":12930,"acies":12931,"Ġimmers":12932,"Ġmentions":12933,"########":12934,"Ġiceland":12935,"Ġaids":12936,"holder":12937,"âĢ¦âĢĿ":12938,"naissance":12939,"Ġpackers":12940,"Ġfixes":12941,"Ġbacklash":12942,"Ġequation":12943,"Ġtuned":12944,"Ġqb":12945,"Ġtricks":12946,"arette":12947,"pired":12948,"Ġdrain":12949,"Ġlicenses":12950,"Ġmoz":12951,"aneous":12952,"Ġmend":12953,"Ġallied":12954,"Ġyoga":12955,"abl":12956,"degree":12957,"Ġcuban":12958,"Ġdemonstrates":12959,"Ġdetermining":12960,"islam":12961,"ulsion":12962,"Ġgly":12963,"Ġpreferences":12964,"utter":12965,"Ġinventory":12966,"Ġanonymity":12967,"Ġcasualties":12968,"Ġbans":12969,"Ġmanages":12970,"Ġexploitation":12971,"Ġkaz":12972,"Ġconfronted":12973,"arations":12974,"Ġenabling":12975,"Ġtelegraph":12976,"Ġmeasuring":12977,"exist":12978,"Ġhod":12979,"Ġartwork":12980,"Ġconsiderably":12981,"Ġzen":12982,"Ġreasonably":12983,"Ġink":12984,"Ġsuccessor":12985,"Ġspeeches":12986,"Ġunacceptable":12987,"leep":12988,"Ġextending":12989,"Ġheck":12990,"Ġfelony":12991,"heimer":12992,"sim":12993,"Ġtravels":12994,"aj":12995,"pelled":12996,"Ġaffiliate":12997,"Ġhipp":12998,"Ġextends":12999,"Ġaudit":13000,"Ġcis":13001,"Ġnewer":13002,"Ġpersistent":13003,"Ġtourist":13004,"Ġobligations":13005,"orph":13006,"lington":13007,"Ġbacon":13008,"Ġrevelations":13009,"ĠâĢĭ":13010,"Ġpirates":13011,"Ġproposition":13012,"Ġgenuinely":13013,"Ġkg":13014,"Ġsensitivity":13015,"Ġvictories":13016,"lat":13017,"uki":13018,"available":13019,"camp":13020,"Ġfloat":13021,"Ġglasses":13022,"puted":13023,"Ġprey":13024,"ieval":13025,"oft":13026,"Ġlieuten":13027,"Ġvector":13028,"Ġpretend":13029,"Ġcooling":13030,"2009":13031,"Ġnotorious":13032,"Ġinability":13033,"children":13034,"Ġfacilitate":13035,"Ġhallow":13036,"Ġberg":13037,"Ġpatriot":13038,"Ġflooding":13039,"third":13040,"vance":13041,"Ġmam":13042,"config":13043,"Ġchan":13044,"Ġspends":13045,"Ġcaval":13046,"Ġost":13047,"Ġrelate":13048,"headed":13049,"Ġtak":13050,"Ġnancy":13051,"irk":13052,"Ġchin":13053,"mmet":13054,"Ġibm":13055,"ulous":13056,"Ġreinforce":13057,"Ġtooth":13058,"uum":13059,"Ġsubscribers":13060,"Ġbearing":13061,"ĠÂ°":13062,"Ġoutlet":13063,"rats":13064,"Ġdoubts":13065,"Ġmurders":13066,"Ġpleasant":13067,"Ġprosperity":13068,"iang":13069,"information":13070,"thirds":13071,"Ġtablets":13072,"Ġ92":13073,"Ġachieving":13074,"Ġproving":13075,"Ġbuffer":13076,"inging":13077,"Ġsmash":13078,"vation":13079,"Ġanalytics":13080,"Ġstu":13081,"Ġnewton":13082,"Ġmanus":13083,"exper":13084,"Ġ1969":13085,"Ġpatience":13086,"Ġkath":13087,"Ġdigit":13088,"Ġhaul":13089,"Ġquinn":13090,"Ġsignatures":13091,"Ġdrown":13092,"muslim":13093,"Ġbiden":13094,"Ġoutlined":13095,"sson":13096,"vr":13097,"Ġrises":13098,"Ġlined":13099,"Ġdm":13100,"Ġshaw":13101,"Ġfinancially":13102,"Ġarrives":13103,"Ġquarters":13104,"Ġdebris":13105,"Ġvillain":13106,"hell":13107,"Ġtroubled":13108,"Ġarn":13109,"Ġcongrat":13110,"Ġpete":13111,"Ġampl":13112,"nut":13113,"Ġthorn":13114,"Ġanalyzed":13115,"Ġtags":13116,"Ġproxy":13117,"retion":13118,"Ġcycles":13119,"num":13120,"Ġnetworking":13121,"google":13122,"hat":13123,"Ġinterfe":13124,"Ġsubmission":13125,"Ġfunctioning":13126,"Ġcousin":13127,"Ġupside":13128,"Ġsharks":13129,"original":13130,"mile":13131,"Ġcares":13132,"exe":13133,"throw":13134,"Ġ911":13135,"Ġbridges":13136,"Ġbannon":13137,"Ġnecessity":13138,"Ġholmes":13139,"unted":13140,"Ġsheep":13141,"accur":13142,"Ġcommittees":13143,"Ġrocky":13144,"supported":13145,"Ġuseless":13146,"Ġnegotiating":13147,"Ġarrangements":13148,"rolling":13149,"Ġ09":13150,"Ġframes":13151,"................":13152,"Ġstimulus":13153,"Ġbipartisan":13154,"Ġoutfit":13155,"castle":13156,"Ġlacks":13157,"Ġshadows":13158,"Ġcontributor":13159,"Ġneutrality":13160,"Ġmarty":13161,"Ġsettlements":13162,"Ġvag":13163,"Ġ\"[":13164,"Ġphysician":13165,"Ġvessels":13166,"Ġcostume":13167,"Ġsubjected":13168,"Ġlighter":13169,"relevant":13170,"entions":13171,"mingham":13172,"Ġpause":13173,"Ġredist":13174,"Ġintens":13175,"Ġpdf":13176,"Ġtropical":13177,"Ġartistic":13178,"apor":13179,"oriented":13180,"Ġamateur":13181,"riel":13182,"Ġcox":13183,"Ġdense":13184,"Ġbrotherhood":13185,"Ġmercury":13186,"yang":13187,"Ġlever":13188,"current":13189,"Ġflows":13190,"Ġunlock":13191,"Ġundoubtedly":13192,"remlin":13193,"Ġillustrated":13194,"Ġpanthers":13195,"arming":13196,"Ġassassination":13197,"Ġcompanion":13198,"Ġfinale":13199,"ugging":13200,"Ġfirearm":13201,"Ġexter":13202,"Ġpriorit":13203,"Ġoverhaul":13204,"rates":13205,"Ġentrepreneur":13206,"Ġcp":13207,"Ġhandy":13208,"Ġbeside":13209,"iri":13210,"Ġprisons":13211,"Ġreferen":13212,"Ġplum":13213,"Ġaustria":13214,"Ġembraced":13215,"lessness":13216,"Ġbarrels":13217,"Ġnavigate":13218,"Ġrental":13219,"Ġmonument":13220,"Ġurgent":13221,"Ġfork":13222,"Ġchal":13223,"Ġbrush":13224,"Ġ1977":13225,"Ġmcl":13226,"Ġmak":13227,"Ġfirefox":13228,"inces":13229,"lsen":13230,"ranean":13231,"Ġstub":13232,"Ġcorrespondent":13233,"Ġslides":13234,"raham":13235,"share":13236,"Ġmerced":13237,"Ġglac":13238,"Ġholders":13239,"Ġconvincing":13240,"Ġspecify":13241,"respect":13242,"Ġinspire":13243,"Ġblown":13244,"Ġdescend":13245,"Ġangels":13246,"ayed":13247,"inery":13248,"Ġaides":13249,"Ġreviewing":13250,"Ġblogs":13251,"former":13252,"Ġmuscles":13253,"si":13254,"Ġmills":13255,"Ġtoilet":13256,"opp":13257,"âĢĿâĢĶ":13258,"Ġpengu":13259,"Ġkicking":13260,"Ġpictured":13261,"Ġfitting":13262,"ceptions":13263,"Ġllc":13264,"Ġmeditation":13265,"Ġcubs":13266,"Ġattackers":13267,"Ġsamuel":13268,"Ġelevated":13269,"Ġdissent":13270,"Ġtournaments":13271,"osi":13272,"Ġutterly":13273,"Ġjurisdiction":13274,"alism":13275,"Ġsupplied":13276,"Ġarbitrary":13277,"Ġdia":13278,"Ġwii":13279,"ãĢĤ":13280,"Ġcalories":13281,"Ġreiter":13282,"Ġholidays":13283,"vidia":13284,"Ġmana":13285,"Ġminer":13286,"Ġvoluntary":13287,"Ġcbc":13288,"Ġsincere":13289,"video":13290,"Ġcolum":13291,"Ġburger":13292,"direct":13293,"pad":13294,"Ġenlarge":13295,"{\\":13296,"Ġeleg":13297,"Ġups":13298,"Ġdefinitive":13299,"Ġfrost":13300,"Ġamnesty":13301,"Ġinflamm":13302,"Ġambul":13303,"Ġpirate":13304,"atican":13305,"Ġgw":13306,"Ġdairy":13307,"Ġboxing":13308,"Ġmitch":13309,"aders":13310,"priv":13311,"Ġrenov":13312,"Ġjessica":13313,"Ġsadd":13314,"Ġbusinessman":13315,"Ġhotels":13316,"Ġ89":13317,"Ġ1974":13318,"sat":13319,"Ġarabic":13320,"Ġsund":13321,"Ġpairs":13322,"ener":13323,"script":13324,"Ġhypoc":13325,"Ġachievements":13326,"Ġbeats":13327,"Ġdisclosed":13328,"Ġlethal":13329,"Ġtactic":13330,"Ġcem":13331,"Ġpacks":13332,"nar":13333,"Ġdb":13334,"Ġphilosophical":13335,"Ġmathematical":13336,"Ġvolt":13337,"laugh":13338,"Ġcasino":13339,"Ġladies":13340,"dering":13341,"Ġtehran":13342,"Ġ),":13343,"Ġsaves":13344,"Ġstern":13345,"Ġenlight":13346,"Ġrefusal":13347,"Ġkicks":13348,"struction":13349,"=âĢĿ":13350,"onts":13351,"Ġbeam":13352,"Ġ07":13353,"Ġours":13354,"rev":13355,"Ġcort":13356,"Ġmusk":13357,"economic":13358,"Ġtokens":13359,"rising":13360,"Ġya":13361,"Ġsweeping":13362,"Ġbats":13363,"Ġbaseline":13364,"effective":13365,"Ġcharacterized":13366,"imag":13367,"terrorism":13368,"Ġlaug":13369,"miss":13370,"Ġrelying":13371,"Ġsheets":13372,"Ġtennis":13373,"Ġ{\\":13374,"length":13375,"Ġpockets":13376,"Ġmistaken":13377,"Ġaur":13378,"Ġgore":13379,"Ġattribute":13380,"mag":13381,"Ġhardest":13382,"Ġgpu":13383,"Ġlips":13384,"Ġintersection":13385,"Ġnr":13386,"Ġadoles":13387,"Ġmedieval":13388,"orus":13389,"Ġcaut":13390,"process":13391,"oner":13392,"Ġdimension":13393,"Ġdesigning":13394,"Ġbroadly":13395,"mination":13396,"Ġhorizont":13397,"Ġovertime":13398,"Ġrecur":13399,"Ġbever":13400,"Ġstall":13401,"Ġabdu":13402,"Ġevolve":13403,"Ġsubt":13404,"secret":13405,"Ġfacial":13406,"2000":13407,"?!":13408,"Ġrelent":13409,"Ġdru":13410,"Ġneurons":13411,"Ġprisoner":13412,"Ġbaghd":13413,"Ġdeclaring":13414,"asters":13415,"Ġsubstitute":13416,"itary":13417,"Ġadministrators":13418,"Ġdiscourse":13419,"Ġrecreational":13420,"Ġswall":13421,"Ġ1971":13422,"Ġsatisfaction":13423,"Ġexpectation":13424,"Ġportrait":13425,"Ġprovinces":13426,"Ġcolony":13427,"Ġsudan":13428,"Ġ140":13429,"Ġuss":13430,"wat":13431,"Ġdeputies":13432,"Ġcarib":13433,"Ġreconc":13434,"Ġeternal":13435,"bear":13436,"Ġjesse":13437,"Ġexpressions":13438,"Ġprayers":13439,"Ġsticks":13440,"center":13441,"Ġmartinez":13442,"Ġcredible":13443,"atter":13444,"stick":13445,"Ġattraction":13446,"Ġpaste":13447,"Ġdominate":13448,"Ġendorsement":13449,"Ġinterestingly":13450,"Ġfounders":13451,"uting":13452,"Ġidentities":13453,"Ġcolin":13454,"blr":13455,"fal":13456,"Ġsier":13457,"lude":13458,"Ġnashville":13459,"Ġ350":13460,"Ġviolating":13461,"Ġgul":13462,"Ġplugin":13463,"Ġinfluences":13464,"Ġreadily":13465,"Ġanalyze":13466,"Ġrisky":13467,"oster":13468,"Ġsubscribing":13469,"race":13470,"Ġlistened":13471,"Ġoverturn":13472,"Ġrailroad":13473,"Ġaiming":13474,"Ġsiege":13475,"Ġaus":13476,"Ġhav":13477,"mac":13478,"Ġki":13479,"Ġhalloween":13480,"Ġlaying":13481,"Ġexemp":13482,"Ġdas":13483,"Ġ04":13484,"Ġtestament":13485,"Ġconcur":13486,"ometer":13487,"llen":13488,"Ġferr":13489,"Ġoverr":13490,"Ġqualifying":13491,"Ġdos":13492,"Ġlaughed":13493,"Ġsurpass":13494,"Ġmagazines":13495,"Ġapologize":13496,"Ġweed":13497,"Ġfog":13498,"desc":13499,"Ġinjection":13500,"Ġkash":13501,"Ġpastor":13502,"Ġtract":13503,"Ġauster":13504,"asant":13505,"rise":13506,"Ġwhats":13507,"Ġpredecessor":13508,"Ġscripts":13509,"Ġtac":13510,"istically":13511,")|":13512,"athetic":13513,"Ġoffline":13514,"Ġfeminism":13515,"osaur":13516,"Ġcommitting":13517,"uda":13518,"Ġhollow":13519,"Ġparameter":13520,"Ġposes":13521,"Ġangela":13522,"Ġdigest":13523,"Ġportrayed":13524,"Ġatmospheric":13525,"Ġignorance":13526,"Ġ94":13527,"Ġfavorable":13528,"Ġanat":13529,"Ġfactories":13530,"Ġjacket":13531,"Ġalban":13532,"Ġvine":13533,"Ġturb":13534,"monton":13535,"euro":13536,"Ġtwins":13537,"Ġmaneu":13538,"Ġaub":13539,"Ġyu":13540,"Ġdough":13541,"Ġlazy":13542,"Ġshortage":13543,"Ġdeterior":13544,"Ġworkshop":13545,"velt":13546,"Ġsummar":13547,"Ġmoss":13548,"Ġdiction":13549,"Ġsv":13550,"Ġ91":13551,"Ġbirmingham":13552,"ĠØ":13553,"Ġaccusing":13554,"bone":13555,"Ġbanning":13556,"Ġroose":13557,"Ġtricky":13558,"Ġsticking":13559,"Ġchen":13560,"Ġjoel":13561,"Ġmemorable":13562,"roc":13563,"Ġlum":13564,"Ġupgrades":13565,"Ġreceivers":13566,"Ġsponsors":13567,"Ġnig":13568,"Ġgraduated":13569,"Ġprohibition":13570,"Ġconvenience":13571,"Ġexcluded":13572,"Ġvatican":13573,"âĢĭ":13574,"Ġstig":13575,"Ġluther":13576,"Ġmodify":13577,"Ġadvisor":13578,"Ġvalve":13579,"Ġpalmer":13580,"Ġcontractor":13581,"Ġ08":13582,"Ġlabs":13583,"uced":13584,"Ġrecordings":13585,"Ġassembled":13586,"Ñĩ":13587,"Ġxen":13588,"arcer":13589,"Ġzach":13590,"Ġwolves":13591,"grav":13592,"Ġwig":13593,"ufficient":13594,"Ġrecount":13595,"Ġmakeup":13596,"Ġsealed":13597,"Ġduncan":13598,"Ġappet":13599,"Ġpond":13600,"Ġpronounced":13601,"Ġfamously":13602,"Ġhughes":13603,"Ġgreed":13604,"agonist":13605,"love":13606,"Ġnasty":13607,"dling":13608,"omatic":13609,"Ġshuttle":13610,"Ġplun":13611,"Ġscare":13612,"auth":13613,"tail":13614,"Ġcri":13615,"Ġvowed":13616,"Ġbloc":13617,"Ġrodgers":13618,"alous":13619,"Ġimports":13620,"ede":13621,"aman":13622,"Ġsocially":13623,"Ġlinkedin":13624,"anchez":13625,"Ġrelied":13626,"Ä±":13627,"iances":13628,"Ġviolate":13629,"Ġcuriosity":13630,"Ġpoetry":13631,"Ġjong":13632,"Ġethereum":13633,"Ġenroll":13634,"Ġrestoration":13635,"Ġmohammed":13636,"aku":13637,"Ġvarying":13638,"irical":13639,"Ġtd":13640,"Ġoversee":13641,"Ġepidemic":13642,"agery":13643,"Ġsuburban":13644,"Ġvaried":13645,"Ġreluctant":13646,"Ġerr":13647,"Ġgrandfather":13648,"Ġns":13649,"Ġcattle":13650,"Ġassange":13651,"Ġquantity":13652,"Ġworries":13653,"oz":13654,"heav":13655,"Ġbrend":13656,"Ġhispanic":13657,"adequ":13658,"Ġunbel":13659,"ĠâĨ":13660,"Ġboeing":13661,"inho":13662,"Ġrogue":13663,"educ":13664,"Ġnvidia":13665,"Ġfever":13666,"Ġate":13667,"Ġtheaters":13668,"Ġmetric":13669,"Ġdistinguish":13670,"Ġinspection":13671,"dic":13672,"aby":13673,"Ġtheor":13674,"Ġhoo":13675,"Ġsach":13676,"Ġfictional":13677,"Ġsullivan":13678,"Ġfifteen":13679,"Ġmercedes":13680,"Ġalbeit":13681,"Ġmines":13682,"Ġunsuccess":13683,"Ġfury":13684,"mich":13685,"orms":13686,"Ġdominance":13687,"Ġhilar":13688,"Ġmathematics":13689,"Ġbronze":13690,"Ġsoy":13691,"Ġinjust":13692,"Ġportugal":13693,"Ġindianapolis":13694,"alez":13695,"iden":13696,"Ġsubstances":13697,"Ġpg":13698,"Ġdare":13699,"Ġtrades":13700,"Ġ05":13701,"inos":13702,"Ġnuts":13703,"portion":13704,"Ġnobel":13705,"Ġcontainers":13706,"Ġneighbourhood":13707,"Ġdoom":13708,"Ġheated":13709,"Ġslice":13710,"Ġcomplement":13711,"omi":13712,"Ġvitamin":13713,"kan":13714,"Ġhs":13715,"ulator":13716,"rogen":13717,"Ġvacuum":13718,"Ġeg":13719,"Ġdude":13720,"Ġscholarship":13721,"Ġvirtue":13722,"Ġkilometers":13723,"unique":13724,"Ġprofitable":13725,"ervation":13726,"Ġcarp":13727,"Ġtouching":13728,"without":13729,"Ġslaughter":13730,"Ġcorrelation":13731,"gow":13732,"Ġyankees":13733,"heads":13734,"Ġdice":13735,"arians":13736,"fu":13737,"Ġcurric":13738,"Ġdiesel":13739,"Ġkremlin":13740,"Ġcredited":13741,"Ġstrat":13742,"cli":13743,"Ġintentionally":13744,"Ġdonor":13745,"Ġlandmark":13746,"Ġnotification":13747,"Ġimplies":13748,"Ġfinland":13749,"Ġyo":13750,"Ġfinn":13751,"gger":13752,"Ġunaware":13753,"Ġstur":13754,"ublished":13755,"eston":13756,"Ġcommem":13757,"Ġrobbery":13758,"rill":13759,"init":13760,"Ġfoul":13761,"Ġdisappointment":13762,"nels":13763,"Ġpeterson":13764,"Ġinstalling":13765,"liers":13766,"Ġteammate":13767,"erting":13768,"bish":13769,"Ġprecedent":13770,"Ġfeather":13771,"Ġcollections":13772,"Ġsatan":13773,"Ġtuition":13774,"Ġmisunder":13775,"Ġinvitation":13776,"irable":13777,"Ġlieutenant":13778,"enna":13779,"umbai":13780,"Ġsurviving":13781,"aru":13782,"icer":13783,"sor":13784,"Ġorganised":13785,"Ġqueensland":13786,"Ġstarters":13787,"Ġwrist":13788,"braska":13789,"cnn":13790,"aky":13791,"Ġsolving":13792,"iga":13793,"Ġnoon":13794,"should":13795,"Ġswap":13796,"Ġlemon":13797,"Ġfrontier":13798,"Ġharmon":13799,"Ġeliminating":13800,"Ġwes":13801,"Ġplaus":13802,"Ġmalicious":13803,"Ġapost":13804,"times":13805,"Ġridge":13806,"Ġworrying":13807,"Ġgenocide":13808,"Ġbarn":13809,"pound":13810,"Ġincomes":13811,"Ġrut":13812,"telling":13813,"Ġmessaging":13814,"dles":13815,"Ġpitching":13816,"Ġtomm":13817,"ometown":13818,"ribly":13819,"Ġblunt":13820,"wait":13821,"osures":13822,"Ġflaws":13823,"aho":13824,"Ġhtc":13825,"Ġbasement":13826,"Ġzimmer":13827,"Ġjungle":13828,"Ġproves":13829,"Ġrides":13830,"Ġvalued":13831,"Ġjab":13832,"soever":13833,"Ġutilities":13834,"Ġmontana":13835,"Ġinitiated":13836,"Ġblizz":13837,"Ġgospel":13838,"rint":13839,"Ġaerial":13840,"aaaaaaaaaaaaaaaa":13841,"Ġincarcer":13842,"Ġobstacles":13843,"Ġcensorship":13844,"Ġdefines":13845,"Ġadvisers":13846,"eting":13847,"six":13848,"Ġmast":13849,"Ġain":13850,"Ġarise":13851,"Ġwilder":13852,"Ġmsnbc":13853,"Ġclarke":13854,"Ġausterity":13855,"Ġconform":13856,"Ġphysicians":13857,"does":13858,"Ġyoungest":13859,"Ġintact":13860,"Ġpresenting":13861,"Ġoffenders":13862,"neapolis":13863,"Ġluis":13864,"Ġlinking":13865,"Ġlaunches":13866,"Ġisraelis":13867,"Ġannoying":13868,"Ġtrademark":13869,"Ġphysi":13870,"Ġhabitat":13871,"Ġinflic":13872,"odies":13873,"Ġconting":13874,"Ġthroat":13875,"Ġahmed":13876,"Î¿":13877,"efficient":13878,"Ġlur":13879,"Ġnerve":13880,"Ġoppression":13881,"resist":13882,"Ġswept":13883,"Ġgaps":13884,"Ġcherry":13885,"Ġti":13886,"Ġnhs":13887,"Ġdian":13888,"Ġillum":13889,"Ġconcentrated":13890,"Ġrejection":13891,"Ġduplic":13892,"Ġpulse":13893,"mess":13894,"Ġfreel":13895,"ream":13896,"Ġresid":13897,"plant":13898,"tha":13899,"Ġbehavioral":13900,"Ġnigeria":13901,"Ġlending":13902,"Ġquestionable":13903,"eva":13904,"Ġcosta":13905,"Ġroosevelt":13906,"Ġeventual":13907,"Ġjeffrey":13908,"rophic":13909,"ulin":13910,"Ġuranium":13911,"Ġgrandmother":13912,"Ġsearched":13913,"Ġmanipulation":13914,"ahan":13915,"Ġcannon":13916,"mur":13917,"heastern":13918,"Î¹":13919,"Ġreset":13920,"Ġshoe":13921,"Ġcabin":13922,"igate":13923,"Ġconfrontation":13924,"Ġsacramento":13925,"Ġreloc":13926,"Ġnonsense":13927,"Ġdestiny":13928,"Ġapo":13929,"Ġexamining":13930,"Ġhated":13931,"Ġentertaining":13932,
[...]
