#version: 0.2
Ġ t
Ġ a
h e
i n
Ġt he
r e
Ġ s
o n
e r
Ġ w
Ġ c
Ġ o
a t
Ġ b
e n
i t
Ġ p
Ġ f
i s
a n
Ġ m
o r
e d
e s
in g
Ġa n
o u
Ġ in
Ġt o
Ġ d
a l
a r
Ġ h
Ġo f
Ġt h
Ġan d
a s
Ġ Ċ
Ġ l
â Ģ
i c
Ġ n
o m
i on
l e
Ġ g
Ġ re
Ġ e
en t
l l
s t
v e
r o
Ġb e
l y
i d
a c
u t
o t
Ġ on
Ġ u
Ġth at
Ġ is
Ġ i
Ġs t
a y
e t
Ġf or
a m
a d
s e
o w
Ġ he
Ġ y
Ġ it
i g
âĢ Ļ
v er
c t
l d
u r
Ġw h
i m
Ġw e
Ġ r
Ġa s
at ion
i r
it h
c e
t er
Ġw ith
o l
Ġ âĢ
i l
Ġd e
c h
Ġy ou
Ġc on
Ġ j
i ll
Ġw as
k e
Ġs e
er s
Ġa t
Ġm o
Ġn e
Ġp ro
Ġf r
Ġ v
Ġh a
he r
at e
Ġc om
a g
u n
Ġ 1
u l
p p
Ġa re
Ġc h
m ent
u s
es t
an d
is t
t h
o p
Ġ 2
Ġth is
a in
r i
Ġ (
ig h
ou n
Ġ k
Ġe x
en d
Ġa l
Ġs u
Ġn ot
Ġu n
re s
Ġo r
a b
Ġs h
t e
ĠâĢ ľ
Ġb y
âĢ Ŀ
es s
Ġha ve
o o
it y
i f
ou ld
u m
Ġfr om
Ġt r
or t
i ve
Ġb ut
q u
an t
o s
' s
ar t
Ġl e
o c
p e
Ġa b
Ġs a
igh t
u st
re d
Ġp l
Ġ "
i es
i e
Ġthe y
al l
ou t
Ġm e
ac k
Ġh as
Ġh is
0 0
al ly
Ġw or
Ġw he
om e
Ġd o
a p
ar d
i v
Ġc an
g h
e l
Ġg o
ou r
Ġa ll
a k
u d
as t
Ġw ill
re n
e ar
Ġa r
g e
Ġa d
Ġsa id
Ġs o
m p
Ġwh o
ic h
Ġc l
id e
Ġu s
Ġt e
ou gh
Ġo ut
Ġl i
Ġthe ir
am e
an s
Ġmo re
i al
t her
Ġu p
Ġon e
ic e
oun d
on e
Ġc o
Ġne w
f f
ag e
ac t
u re
Ġ en
ion s
ou s
in e
Ġs p
Ġcom p
on g
Ġa c
Ġab out
e m
at ed
Ġm an
Ġa g
b er
d er
i a
Ġthe re
o re
im e
Ġof f
Ġh ad
Ġa m
Ġwe re
e ct
r a
Ġi f
Ġ2 0
Ġw ould
Ġwh ich
Ġe v
Ġcon t
i p
Ġ ro
a ke
ver y
Ġp e
s o
Ġn o
u b
in d
x t
i z
Ġs c
t o
Ġp o
u e
Ġwhe n
k s
Ġbe en
Ġre p
Ġp er
Ġli ke
Ġwh at
Ġy ear
a u
Ġre s
Ġf e
Ġin c
Ġs ome
ar y
ac e
Ġp r
p t
ig n
Ġo ther
p er
ay s
Ġa f
o g
Ġa pp
Ġd is
it e
ab le
Ġp art
r y
Ġ qu
as s
Ġo ver
Ġt w
Ġbe c
oo d
i re
Ġj ust
Ġg r
i le
Ġth an
a re
Ġal so
Ġ20 1
Ġh ow
op le
t s
en ce
k ing
Ġs he
Ġyou r
Ġm y
ation s
ow n
ic al
Ġpe ople
res s
re e
o se
Ġthe m
l ic
Ġhe r
f or
an ce
a il
Ġan y
w e
Ġm ar
Ġb l
Ġk n
a v
i b
Ġre c
Ġt ime
Ġg et
Ġit s
Ġ 3
Ġcom m
as e
r u
Ġf ir
ct ion
o d
Ġp ol
t he
Ġaf ter
ac h
en s
Ġb r
Ġp re
oun t
o f
re at
or d
Ġo ur
i an
Ġin to
ve l
on d
. âĢĿ
Ġi mp
Ġ -
Ġac c
Ġpl ay
d u
ul t
f e
am p
or y
Ġfir st
Ġin d
id ent
it ion
or s
ing s
Ġs er
e p
in t
w n
an g
ic k
Ġa ct
au se
Ġs pe
te xt
h ing
ad e
at es
oo k
ver s
d ay
Ġ1 9
Ġc ould
Ġtw o
Ġon ly
, âĢĿ
l o
Ġin ter
Ġh im
Ġn ow
i ous
i ld
' t
Ġp h
Ġex p
Ġj o
Ġse c
Ġmo st
| >
end of
< |
endof text
Ġde c
Ġd es
he d
Ġl a
ren t
for m
Ġm ay
Ġb ack
Ġbe t
Ġwor k
Ġp res
is h
ic t
Ġb u
in k
Ġs y
Ġev en
Ġcon s
Ġthe se
Ġd on
Ġf o
. "
n ing
Ġ 4
ĠâĢ ĵ
Ġun der
Ġbec ause
f t
Ġd id
c es
l i
Ġc r
Ġag ain
it t
m an
Ġst ate
Ġad d
on s
Ġat t
Ġin v
Ġe very
Ġse e
at er
Ġo b
Ġw ant
ĠâĢ Ķ
v ed
is e
c k
n e
Ġ ke
se l
u al
Ġyear s
Ġne ed
Ġ $
l es
. .
Ġkn ow
l ud
ent s
Ġthe n
Ġ 5
ub lic
Ġm u
is s
Ġsu pp
Ġc ar
Ġas s
c ess
Ġman y
Ġl o
ment s
Ġwhe re
Ġi m
Ġm ake
c ed
, "
Ġb o
Ġ [
Ġr ight
ur n
Ġm on
Ġc ol
Ġre g
f ore
Ġth r
g r
Ġre m
Ġf l
er ic
Ġm in
Ġl ast
Ġwh ile
Ġwor ld
Ġw ay
pe ct
Ġs m
j ect
Ġc ount
Ġg u
ver n
Ġ ed
u ll
ation al
Ġwe ll
Ġf in
ou p
Ġc all
Ġth ose
Ġp os
Ġbe ing
Ġg en
Ġd own
um p
Ġbe l
t y
Ġde f
at ing
Ġsh ow
Ġin st
Ġd if
Ġre l
Ġthr ough
le ct
ro w
ie w
i ly
Ġgo vern
Ġe ar
as on
Ġinc lud
v ing
g et
Ġsh ould
as ed
ak ing
Ġs ay
at h
Ġ very
) .
Ġmu ch
Ġfor m
it ed
ri b
Ġe m
Ġw ar
Ġto o
Ġ end
t ing
ur ing
ot her
Ġbe fore
it ies
Ġdo es
Ġl ong
Ġu se
Ġte am
at ive
Ġch ar
y s
Ġrep ort
Ġst ud
Ġm ed
Ġo wn
Ġ2 00
al s
ic s
Ġw r
ow er
Ġb ot
Ġst art
Ġsu b
Ġg ood
Ġam eric
w ard
c on
Ġde p
Ġde m
an ge
Ġs im
Ġhe re
ter s
Ġg ame
om et
c om
if ic
Ġs ur
in ce
Ġf un
Ġc ent
Ġth ink
Ġsu ch
ll ow
Ġ ent
oc k
u es
Ġwe e
c o
Ġhe l
ib le
i ed
Ġs et
- -
Ġin te
o ld
Ġm ade
Ġst r
b le
u p
d e
Ġst ill
Ġo p
Ġ 6
Ġc our
if e
m s
Ġh igh
re st
Ġe ff
ol og
Ġgo ing
) ,
ers on
ul ar
Ġp ar
Ġle ad
Ġla w
Ġm a
t ain
il ity
f ul
Ġagain st
u ally
ist s
it s
Ġpro du
Ġtr ans
Ġth ough
Ġt er
i x
Ġpro v
Ġhel p
Ġoff ic
Ġt ake
Ġgovern ment
g an
o st
Ġs ign
Ġc ap
âĢ Ķ
00 0
st em
Ġf ound
v es
Ġre ad
Ġc or
Ġin s
Ġs ch
ill ion
i o
is m
Ġm at
c y
w ay
Ġs ays
we en
Ġpres ident
. <|
im es
Ġme m
Ġs omet
Ġc he
l and
Ġn um
Ġbet ween
Ġd ay
Ġb ro
l ed
sel f
Ġdif fe
Ġgr oup
Ġr un
Ġ z
Ġs ame
Ġth ree
Ġg reat
Ġre al
u res
re ad
Ġp a
Ġc ur
Ġspe c
v en
Ġsy stem
us s
Ġp ublic
Ġs ince
t on
ut ion
Ġa ut
c ent
Ġd uring
b e
k ed
s s
Ġs l
Ġd et
Ġcomp an
Ġbot h
g g
er al
Ġ1 0
am es
y ing
Ġfo llow
Ġre t
Ġb ig
Ġ 7
Ġd r
Ġar ound
h ip
vel op
Ġw om
Ġsupp ort
a h
Ġs oc
Ġf am
Ġd ire
Ġtr ump
Ġn or
iv es
Ġh and
p h
Ġre ally
or k
Ġle g
at her
Ġus ed
Ġs en
Ġpo st
al e
Ġex t
ou se
he s
Ġb us
ce pt
c er
Ġin t
Ġcon f
c l
n er
Ġm et
Ġc le
in s
Ġex per
Ġde velop
Ġf act
Ġan other
Ġl et
Ġl ar
Ġe l
p l
p r
Ġf ind
Ġha pp
Ġnew s
Ġwee k
u c
Ġc re
Ġar t
al th
Ġt al
Ġ 8
Ġpol it
Ġ 0
g er
. [
Ġp erson
o ol
a ir
i ent
m in
Ġp ut
a z
Ġc ity
Ġl ook
Ġf ar
Ġcomm un
a x
i ence
e ver
Ġf il
ic es
Ġis s
a ve
Ġmar k
Ġcont in
Ġun i
Ġ '
Ġpl an
Ġmon th
Ġh ome
Ġl oc
Ġin f
Ġp ower
b s
in es
Ġc amp
is ion
Ġ 9
Ġfe w
ak es
Ġl ot
Ġl ife
Ġto ld
Ġp ri
Ġop en
ar ch
Ġe ach
ag es
Ġo pp
Ġinv est
a red
ic ally
Ġdire ct
Ġd ist
Ġsec ond
d s
Ġad v
Ġre f
ord ing
Ġch ild
Ġhe ad
Ġres p
Ġre qu
Ġpol ice
Ġbel ie
Ġen g
i et
Ġne xt
Ġp ass
Ġp at
Ġb est
Ġinter n
as h
Ġne ver
Ġsomet hing
Ġpo int
Ġh um
m ed
c c
at a
Ġm il
Ġa v
i ally
Ġth ings
Ġv al
Ġv ot
b ers
Ġcom e
Ġre le
an k
Ġdiffe rent
Ġser v
ent ion
iz ed
ut e
Ġg ot
Ġb re
ĠâĢ ĺ
Ġqu est
Ġ .
v iew
r ic
n ed
Ġpos s
t ed
ter n
Ġb ar
Ġto p
t en
et s
er g
Ġcont ro
Ġte ch
th ing
Ġm ight
od y
w h
Ġst ates
ro ss
Ġc e
i er
Ġan n
Ġhow ever
Ġwh y
an c
iz e
l ess
Ġh ard
Ġc are
in ess
Ġsch ool
en e
ant s
Ġacc ording
Ġf our
Ġin form
Ġn ational
ie ld
Ġst e
s on
Ġwith out
Ġe mp
Ġall ow
l ine
b r
Ġh ouse
Ġt ri
Ġr a
Ġst and
it al
Ġfe el
Ġbu ild
n ess
at ch
Ġm us
2 0
Ġs w
Ġse em
Ġw in
Ġinc re
Ġt urn
itt le
Ġcomp le
Ġp op
Ġpl ace
Ġs k
Ġper cent
Ġe u
gr am
Ġ ide
con om
i red
Ġimp ort
Ġse ason
re t
Ġl ittle
Ġt y
m e
Ġnum ber
Ġa ir
Ġm illion
Ġm ain
Ġcount ry
Ġdis c
s h
Ġpro ble
Ġf ull
Ġexp l
Ġrec ent
Ġinclud ing
Ġinte rest
Ġt est
or n
s c
ate ly
r at
m ber
Ġch r
Ġbe h
Ġc ase
Ġbet ter
Ġhe alth
Ġl ess
Ġpart ic
Ġh ar
Ġw on
Ġe conom
Ġ es
Ġre st
am a
g ress
Ġpro gram
Ġs ol
Ġke ep
Ġe as
w ays
Ġre se
Ġp ay
Ġt imes
l ing
Ġus ing
Ġle ft
one y
os ed
Ġh ist
Ġpre v
it ing
Ġapp ro
Ġmo ve
Ġpro f
b o
a im
ab ly
is hed
Ġl oo
Ġatt ack
Ġd ri
Ġd ata
u g
Ġf ree
ar k
r al
Ġmo d
Ġwom en
Ġeff ect
Ġf ace
Ġl ist
Ġcall ed
Ġg iv
Ġtech n
at t
in a
is ed
Ġma j
Ġpro ject
he n
Ġ ve
Ġcompan y
on t
Ġne ar
Ġcon st
Ġe le
g ed
en cy
Ġdid n
Ġle vel
Ġcl ass
r act
Ġm iss
Ġsm all
r ation
id er
Ġbus iness
Ġcur rent
_ _
b y
Ġuni vers
Ġst ory
Ġch ange
Ġor gan
h n
Ġv is
Ġameric an
Ġl ater
pp ed
ren ce
Ġmaj or
Ġinform ation
en se
Ġo per
Ġpr om
Ġ est
Ġo ld
Ġg re
Ġpro cess
Ġc al
Ġst re
Ġdes ign
Ġm en
Ġun ited
e red
Ġoffic ial
read y
Ġa ff
in ed
Ġre ce
ain s
' re
Ġv iew
at ure
olog y
h or
Ġv ar
Ġm oney
Ġh op
Ġb it
id ed
Ġun t
1 0
Ġto day
lo y
Ġn et
Ġp ur
Ġb as
Ġe lect
Ġ =
Ġme an
Ġch ang
p s
Ġal ready
Ġp ress
in al
i ans
Ġk ill
Ġed it
Ġpart y
Ġf ore
Ġal ways
Ġv i
Ġv ide
Ġex pect
er tain
Ġsim p
Ġm or
Ġph ot
Ġm ust
end s
Ġwh ite
Ġm id
Ġco st
us ed
Ġcour t
Ġ- -
Ġi r
os s
ru ct
a w
Ġhum an
o k
Ġ x
Ġth ing
Ġcl aim
n o
st and
Ġs ing
Ġcle ar
Ġfr i
a ff
Ġm r
Ġbl ack
Ġfam ily
Ġrec ord
ar s
Ġde v
Ġon ce
a ign
t t
i k
Ġl ine
Ġc oun
Ġb ill
Ġp ast
Ġpol ic
Ġg row
Ġab le
Ġ1 2
Ġte ll
Ġ1 8
Ġdem oc
Ġa way
Ġsoc ial
Ġcamp aign
m m
Ġc a
Ġg ames
Ġw al
Ġmed ia
ou th
ort s
Ġimport ant
Ġt ax
Ġd ays
i or
Ġhapp en
Ġsu c
Ġdoes n
Ġjo hn
ard s
Ġeu ro
amp le
Ġunt il
er v
Ġm aking
Ġf ed
.. .
ur al
ac y
Ġpro te
u red
Ġrep ublic
Ġde b
ap h
end ing
u ck
ur y
un d
Ġlar ge
Ġpro p
Ġk ind
Ġle ast
Ġy et
Ġan t
Ġn ight
Ġ1 5
Ġpolit ical
Ġj e
ne y
Ġform er
ur ity
ion al
id es
as es
Ġen ough
Ġwor king
Ġc ame
Ġs it
Ġse ver
g in
ain ed
g u
Ġde al
Ġe ver
Ġyou n
le y
Ġg l
Ġ er
Ġmark et
Ġgen er
Ġp ot
ir d
Ġh al
Ġor der
Ġact ually
is ing
at or
Ġw ater
Ġo pt
au gh
al ity
iv ed
r or
Ġn ame
Ġsever al
Ġha ving
Ġl ab
Ġl and
Ġwhe ther
Ġret urn
Ġcol le
Ġof ten
Ġg ive
Ġs un
c ut
Ġf ut
Ġper form
Ġcontro l
Ġle ar
Ġtoo k
Ġev ent
m ost
Ġbec ome
Ġear ly
o ve
is ter
Ġf ac
Ġchild ren
an e
Ġunivers ity
Ġaut hor
âĢ ¦
in c
Ġam ong
le t
Ġf ive
Ġcr it
on y
Ġs al
Ġr uss
ri es
Ġsu re
Ġe qu
ain ing
s ide
Ġplay ers
n a
Ġ1 1
-- --
Ġg e
y ear
ap s
st er
Ġsu per
if ied
he re
Ġa p
Ġre d
Ġmil it
Ġchar ac
Ġo cc
n ot
Ġs our
is on
Ġsec urity
Ġf re
ver t
Ġor ig
Ġ19 9
iz ation
Ġ ,
Ġme et
Ġl ight
Ġdo ing
Ġnor th
qu e
Ġmem bers
Ġapp ear
ic le
Ġs ide
it her
o ot
Ġsh ort
Ġdep art
Ġ vers
er ing
Ġal ong
Ġpri v
Ġcommun ity
Ġquest ion
m y
Ġn on
Ġse p
Ġinvest ig
el s
Ġse x
Ġc ertain
c hed
g es
Ġwith in
Ġf ight
Ġfut ure
Ġvide o
ar ing
l f
Ġd ra
Ġse en
ak en
Ġgiv en
Ġb ook
g o
a pp
Ġh old
Ġact iv
Ġdemoc rat
ough t
Ġw ent
Ġh our
Ġdes c
/ /
Ġloc al
Ġex ample
Ġf ur
Ġl im
Ġprodu ct
i um
5 0
id ence
Ġlo ve
Ġy ork
ot s
or ies
w ork
Ġsuc cess
Ġb an
Ġd i
Ġst ep
Ġd one
Ġgen eral
Ġlike ly
un e
ious ly
Ġeuro pe
te mp
Ġyoun g
on es
Ġvi ol
w are
Ġother s
Ġcon cer
Ġinv ol
end ed
b all
Ġob ama
Ġmonth s
Ġ #
Ġhist ory
Ġfollow ing
Ġc reat
Ġunder stand
Ġv ict
Ġav ail
it ter
Ġas ked
ent ial
Ġcour se
Ġfun d
Ġser ies
p ro
Ġf ail
Ġde ath
at s
Ġproble m
e ad
Ġres ult
Ġl ow
1 1
Ġposs ible
il ar
Ġc ut
im ate
Ġrese arch
get her
in ts
Ġme ans
Ġac ross
Ġpro b
Ġkn own
Ġm ag
n ect
b ack
Ġre ason
ul ation
ub l
Ġ ]
Ġind ust
Ġthough t
Ġt ar
Ġl ive
Ġget ting
Ġstr ong
Ġf ire
ag ue
Ġoff ice
l er
ur s
it ive
Ġs outh
gg est
1 9
Ġs at
Ġchr ist
Ġs ent
Ġm akes
iv id
Ġserv ice
n es
Ġsu ggest
Ġw ind
Ġsp ace
Ġ201 6
Ġadd ition
Ġb ased
Ġw atch
oc i
our n
Ġ ident
Ġm ass
ver age
Ġh ig
Ġm om
Ġ &
Ġcon d
Ġacc ess
Ġreport ed
Ġpro t
u ed
Ġan al
Ġcl ose
iv ing
Ġbelie ve
Ġrep res
Ġs ix
e x
Ġann oun
Ġto t
ag ed
Ġb ad
Ġex e
Ġh o
ens ive
Ġst ar
Ġ3 0
Ġinst ead
f ic
all en
Ġde l
Ġtr ad
Ġke y
ort un
Ġp le
Ġspec ial
an ces
Ġfed eral
i en
Ġal most
Ġavail able
Ġg lo
Ġf ood
b ook
it ions
iet y
Ġiss ue
Ġ Â
Ġto gether
Ġpolic y
Ġare a
ul ts
Ġsim ilar
Ġj ud
ate g
ll ing
Ġfo ot
Ġass oci
ri pt
Ġpartic ular
Ġadd ed
r ing
Ġf oc
Ġimp ro
Ġc ust
Ġd en
m ing
Ġstart ed
Ġloo king
Ġf ig
p ort
le g
al d
Ġm ult
' ve
Ġhal f
am ent
Ġst at
pe c
Ġfur ther
Ġintern ational
. ,
Ġr ather
Ġ201 5
Ġd ou
Ġl at
Ġ1 6
Ġright s
Ġr ad
Ġpr act
Ġemp loy
3 0
Ġtr ying
ro p
Ġcomm it
Ġe p
and s
Ġameric a
Ġis n
am s
Ġag o
Ġr ul
Ġs n
Ġm ess
Ġcom es
Ġr is
Ġp ort
ab ility
sel ves
Ġexper ience
Ġide a
Ġjo b
u ly
Ġdepart ment
d en
Ġcomple te
Ġcons ider
iss ion
Ġg er
c her
b al
erg y
og r
1 2
it er
in ation
Ġf av
Ġtr y
Ġd am
Ġmilit ary
Ġm ot
Ġs us
Ġany thing
Ġind ivid
ut es
an n
Ġm ind
Ġen v
Ġp ubl
Ġtr a
ail s
Ġcon nect
Ġad min
Ġplay er
Ġc op
as ter
ie f
Ġpres ent
g est
Ġb ene
Ġc ult
Ġcan ad
id s
Ġcomp et
Ġw a
Ġ201 4
Ġh it
u ff
Ġ1 4
Ġstud y
Ġqu ick
Ġbeh ind
ward s
Ġpro per
Ġb i
un ch
Ġf ield
int on
r on
l s
j o
Ġnot hing
âĢ ĵ
Ġsing le
Ġv ir
Ġan g
Ġp en
Ġim m
fe rence
Ġcon v
Ġa ust
Ġt aken
Ġsay ing
ra el
Ġdisc uss
Ġfr ont
Ġindivid ual
Ġsome one
Ġte mp
Ġcom b
Ġcent er
Ġd om
Ġprof ess
Ġsu mm
Ġ :
' m
y n
u ge
Ġent ire
Ġs ound
Ġt re
Ġt ur
Ġ1 3
Ġth reat
th ough
Ġdevelop ment
a f
oc u
Ġfil m
at ors
Ġf all
us h
s w
Ġst ri
Ġadmin ist
ap er
o ice
pp ing
Ġn at
Ġt aking
ll s
Ġ1 7
Ġbr ing
Ġs an
c hes
Ġth ird
s u
c he
Ġcust om
Ġb ody
er t
Ġen ergy
Ġfin al
Ġpre t
Ġ /
Ġa ction
ir on
Ġw est
ru g
Ġg un
hing ton
Ġwant ed
Ġevery thing
Ġp et
am ed
Ġd av
Ġprob ably
Ġup d
Ġe ither
Ġtar get
1 5
Ġfe at
Ġe y
Ġbr it
Ġcl inton
Ġre du
Ġch allen
Ġel se
Ġpo ints
Ġre v
Ġat temp
Ġhop e
Ġcom ing
* *
Ġmus ic
Ġ |
Ġsec ret
Ġc am
Ġd a
Ġst op
Ġin it
b l
s y
Ġb ur
Ġis rael
Ġrepres ent
Ġb all
Ġm ic
t r
Ġh y
Ġcre ate
Ġc and
er c
Ġd ue
Ġro om
Ġen c
Ġsc re
Ġrel ations
os p
Ġt it
m a
Ġcontin ue
li er
Ġprote ct
ow s
ir c
Ġbel ow
o ff
Ġad vert
Ġv ol
Ġse lf
if y
: //
Ġcomm on
Ġdesc rib
Ġtr ue
Ġbe gin
Ġsign ific
Ġt reat
ro te
Ġdes p
Ġfor ce
. )
r ict
Ġdec ision
Ġsh are
Ġofficial s
ol ution
Ġu k
Ġevery one
Ġim age
an a
Ġme as
Ġc iv
Ġbre ak
Ġex ist
pl ay
c ing
Ġwas hington
Ġle ague
g le
Ġenv iron
Ġm c
Ġstud ents
Ġj an
o v
Ġar gu
Ġcompan ies
d le
Ġstre et
Ġal though
f l
re me
a i
Ġlead ers
w w
Ġ201 3
Ġwho le
Ġli ber
ac es
Ġb oo
Ġed uc
Ġd rug
Ġiss ues
Ġmat ter
Ġan im
att le
Ġd ocu
it es
th is
f er
Ġro le
Ġu r
Ġw rote
Ġg ir
Ġbuild ing
Ġne g
Ġout side
Ġinf l
Ġre view
b ody
Ġseem s
Ġserv ices
as ing
Ġc red
Ġpos ition
Ġ )
Ġcharac ter
he ad
Ġcon gress
Ġapp e
li ke
Ġab ove
ive ly
Ġd iv
Ġrele ased
Ġmar ch
Ġd est
Ġc oup
a ut
w or
Ġdirect or
Ġadd ress
Ġgr ound
Ġty p
Ġc irc
at ic
Ġhour s
itt ed
pec ially
Ġsimp ly
Ġag ree
Ġ201 2
Ġde ad
Ġro ad
Ġp al
Ġtw itter
Ġro b
Ġph ys
Ġstate ment
u ation
m b
Ġwom an
l im
id ay
f ull
Ġth in
Ġinter view
Ġc y
ib ility
Ġco de
Ġbe gan
Ġa ud
Ġvers ion
Ġfri ends
1 6
Ġrun ning
Ġch ina
Ġ1 00
Ġfin anc
Ġacc ount
Ġ201 7
Ġ2 5
Ġspec ific
w s
le ment
Ġhim self
Ġprov ide
it ch
Ġrele ase
1 4
Ġ19 8
Ġcount ries
m on
ot t
Ġe t
Ġp ick
y le
Ġeconom ic
Ġst o
Ġb en
Ġcl ub
ro du
Ġab s
ad es
Ġa ge
Ġev idence
end er
Ġit self
Ġp ack
Ġresp ons
Ġon line
Ġbec ame
Ġsignific ant
Ġh tt
Ġthem selves
fic ult
Ġger man
Ġm ill
Ġleg al
h am
Ġbene f
Ġl ate
Ġciv il
Ġlo st
u se
Ġart icle
o int
Ġg oo
a pe
Ġl ed
Ġtot al
Ġear lier
Ġele ction
Ġmin ister
Ġi ll
Ġsc ient
Ġgo d
te e
Ġdif ficult
Ġenviron ment
Ġche ck
Ġwas n
Ġindust ry
Ġy es
Ġgre en
il t
Ġpret ty
Ġtal k
Ġgroup s
l ish
Ġex c
Ġtr ack
Ġdesp ite
Ġso on
' ll
Ġsa w
ac ed
Ġsour ce
t ime
Ġin j
Ġtechn ology
Ġneed s
Ġant i
Ġshow s
Ġo ct
ag er
Ġob ject
Ġh ost
Ġplay ing
Ġes pecially
Ġb ase
w here
il i
Ġco ll
Ġb ank
o b
Ġrecent ly
Ġcons um
Ġh or
ent ly
Ġp ain
Ġval ue
Ġqu ite
Ġm ur
ang u
i od
Ġcand id
Ġinst it
Ġneed ed
Ġh ill
Ġn ation
ogr aph
Ġglo bal
Ġb ud
Ġsen se
Ġwor ks
Ġmo v
ourn al
id ing
a ult
Ġ5 0
Ġinclud e
Ġw all
Ġface book
Ġplay ed
Ġp red
Ġw ed
Ġrel ig
full y
rib ut
1 3
Ġr an
Ġexp ress
Ġexe cut
ke y
Ġb or
Ġpar k
ou d
Ġa ug
Ġfor ward
Ġcap t
Ġs ite
Ġvot e
Ġbro ad
Ġb illion
Ġm ich
e e
Ġsh oot
Ġdec l
Ġwe bs
Ġmet h
Ġbo ard
Ġfore ign
Ġchang es
lo ad
Ġper iod
Ġst ay
Ġsu ff
Ġ ver
Ġp ie
Ġcomp ut
Ġr i
un g
Ġany one
p or
iv al
Ġm i
Ġopp ortun
Ġfoc us
Ġ {
s er
Ġso ld
Ġwee ks
Ġpr im
ist ic
Ġst aff
Ġs qu
ri ed
n ers
Ġdet er
Ġm is
l am
Ġte le
Ġapp lic
Ġmo der
Ġgo ld
g n
Ġac cept
Ġd ig
Ġs il
g ing
Ġl og
l t
Ġres ults
Ġspe ak
Ġhig her
Ġpr ice
Ġf el
ra ft
Ġmod el
od e
Ġbl ock
Ġmom ent
Ġcons erv
st r
Ġre ve
z e
1 7
a a
Ġwr ong
med i
Ġ2 4
ep end
Ġperson al
Ġt en
Ġhe art
Ġlong er
Ġj ournal
Ġrep l
Ġgo al
Ġty pe
Ġrepublic an
Ġpot ential
Ġc it
Ġmid dle
n s
y ou
Ġfun ction
Ġgoo gle
Ġcom ment
k n
Ġb al
if t
ll ed
Ġcont ract
ac hed
Ġwor ds
Ġde ep
Ġ q
r ight
c le
__ __
itt ing
ot e
Ġpop ular
Ġ +
Ġst ru
er y
ct or
Ġk ing
Ġso ft
Ġfav or
b or
Ġ <
Ġch ief
Ġhe ld
Ġa pr
Ġpriv ate
Ġm al
Ġmin utes
op h
Ġr ich
om es
Ġan sw
Ġem ail
Ġo il
Ġadminist ration
Ġsy ri
1 8
m al
Ġins ide
Ġcap ital
Ġj une
on se
d o
ri e
Ġnet work
Ġl angu
Ġc ard
c il
Ġa w
o id
Ġp ict
Ġr ate
Ġorig inal
Ġm ater
Ġimp act
Ġh on
Ġeas y
Ġter ror
Ġcre ated
Ġcont ent
Ġnear ly
Ġsur pr
Ġm other
Ġro ck
Ġbu y
Ġsh ot
Ġris k
um b
Ġeng ine
Ġhe av
Ġch ur
Ġt ou
i j
i ents
Ġfinanc ial
Ġl os
Ġh ot
Ġquest ions
Ġstr ateg
Ġj uly
Ġl iving
Ġr u
Ġs and
Ġaust ral
= =
Ġch ance
Ġ *
Ġres pect
u ary
Ġto wn
g th
Ġch amp
as k
il ities
Ġcolle ge
Ġsc ience
ang er
Ġw ays
Ġintern et
as ons
Ġrece ived
Ġne cess
Ġle ave
Ġproble ms
Ġ ut
ar ter
f ect
Ġ201 1
st on
Ġm ond
le x
Ġp age
Ġf air
Ġexpect ed
Ġf em
act ion
Ġb er
l in
Ġpre p
Ġph one
2 5
Ġincre ase
the re
u el
ap an
ag ing
Ġa verage
e w
Ġf ans
Ġr ac
h aps
b c
Ġsub ject
b it
Ġcol lect
Ġwork ers
Ġad m
Ġcurrent ly
Ġreport s
Ġcount y
Ġus ers
Ġcan not
Ġex act
v al
Ġdef ense
Ġtr ade
Ġannoun ced
Ġopp os
Ġr ound
Ġp ers
Ġresp onse
Ġp an
c ast
Ġwe ap
Ġrem em
Ġ @
Ġam ount
Ġind epend
Ġwor th
ud e
b i
Ġfr iday
is l
Ġear th
ip le
Ġr om
Ġe ast
Ġapr il
Ġreg ard
Ġdis co
Ġinvol ved
Ġwor d
h ood
Ġmeth od
ber t
i res
n y
Ġmem ber
Ġmic ro
Ġrelations hip
Ġdav id
Ġf ather
Ġ19 7
Ġb at
m er
og n
Ġte xt
Ġnot e
Ġc ases
Ġest ab
Ġfin ally
itt en
Ġt ues
Ġsoc iety
Ġre n
her n
Ġd re
Ġpubl ished
Ġar rest
Ġim medi
ru pt
Ġphot o
b ut
l ight
Ġfri end
o ke
Ġcent ral
Ġkill ed
r ay
Ġdef in
Ġadvert ise
ll ig
Ġrequ est
Ġs on
Ġl ives
Ġmond ay
6 0
Ġtues day
Ġresp ond
Ġc ross
Ġper haps
Ġmed ical
Ġsp ok
Ġph il
re g
du ct
Ġmay be
Ġun ion
Ġruss ia
Ġj apan
Ġint rodu
Ġr ace
Ġpa ul
at ives
ve red
om m
as c
Ġd ro
Ġmater ial
Ġge or
Ġ201 0
Ġl ink
ver se
s p
Ġab ility
in o
Ġameric ans
Ġcam er
Ġter ms
Ġlead er
Ġcommit tee
Ġl ack
f r
Ġt akes
Ġleg isl
ll y
Ġto ol
Ġpartic ip
Ġwork ed
iz ing
ã ģ
Ġperform ance
Ġinfl u
Ġm ach
te mber
Ġev ents
Ġcal if
Ġvis it
Ġcol or
es e
p ut
Ġde ce
Ġsimp le
Ġrequ ire
Ġ4 0
op s
Ġwe b
Ġteam s
Ġtra vel
is es
Ġfor ces
o red
un t
Ġfe b
Ġar ri
wh at
b ased
f ace
om b
n et
olog ical
Ġjust ice
a el
Ġde li
ren ts
Ġv ia
cl us
Ġcoun cil
Ġsomet imes
Ġpl ans
Ġgo es
Ġt ro
Ġun f
Ġmeet ing
Ġt v
Ġdec ided
Ġhappen ed
Ġpro gress
Ġg ave
Ġconf ir
ve mber
Ġoff er
Ġcor re
Ġind ic
Ġmat ch
Ġwebs ite
Ġprodu ction
Ġco ver
ut h
Ġth ous
or m
x ic
Ġrec ogn
d own
Ġsit uation
ip s
Ġen jo
Ġmove ment
Ġs ong
Ġl ower
Ġl in
Ġcl os
Ġchur ch
Ġjan uary
Ġaff ect
Ġar ch
Ġbo x
Ġh uge
Ġcit iz
Ġsep tember
Ġcare er
Ġm er
Ġmor ning
Ġis lam
Ġb ir
Ġwho se
Ġeduc ation
Ġ ess
Ġbeh av
Ġcont act
o ber
Ġ2 1
Ġas k
Ġre pe
Ġimpro ve
Ġp ull
Ġtrad ition
am ing
g en
s et
Ġam az
Ġnum bers
Ġag ency
Ġim ages
Ġare as
Ġvict im
al ed
nes day
Ġar m
Ġman age
Ġturn ed
Ġeconom y
Ġno vember
Ġ2 2
Ġth urs
Ġappro ach
or ing
Ġ }
ct ions
Ġne igh
ru ction
Ġcomm ission
Ġf ast
Ġaf ric
Ġdemocrat ic
Ġf ear
k y
Ġw ide
" .
Ġwed nesday
h a
Ġbu ilt
Ġspe ed
Ġc ast
Ġcoup le
Ġl oss
Ġinte llig
Ġse arch
Ġd ark
Ġu lt
Ġthurs day
Ġaug ust
Ġco ach
Ġple ase
Ġper fect
Ġt im
Ġt able
Ġquick ly
et y
Ġh osp
Ġfel t
k er
Ġprev ious
p a
Ġqu e
Ġeurope an
Ġc at
Ġset t
ist an
for ce
Ġsep ar
Ġconst it
Ġup on
Ġtr aining
Ġpl at
Ġem erg
Ġoct ober
Ġve h
" ,
Ġsa f
Ġf ix
Ġcalif orn
Ġle av
Ġc ru
4 0
o ver
Ġpri or
Ġst ruct
Ġhe ard
Ġcanad a
Ġa ch
Ġy e
Ġh am
Ġ â
Ġcl imate
Ġbrit ish
Ġinclud ed
en ing
Ġlear n
Ġc ause
Ġt or
Ġj ack
at ory
Ġsun day
Ġsur ve
Ġrul es
Ġres our
Ġb attle
r ain
Ġgrow th
Ġvar ious
Ġallow ed
um e
Ġpre m
Â Ń
---- ----
Ġget s
Ġpop ulation
Ġhand s
Ġsp ent
Ġf lo
Ġwant s
Ġre ach
Ġs ize
Ġf a
Ġob v
Ġ2 3
Ġres ident
Ġmo b
Ġkn ew
Ġfoot ball
Ġdem on
Ġbl ood
Ġsystem s
Ġloo ks
Ġgr and
Ġmoder n
ict ion
Ġh ur
or ters
Ġcommun ic
Ġg ar
gr ound
us es
Ġcaliforn ia
Ġse ven
Ġus er
Ġhist or
Ġrel ated
Ġs ens
Ġfeat ures
? âĢĿ
e es
Ġtri ed
' d
if f
Ġatt ention
Ġruss ian
Ġimm ig
Ġg ra
Ġprot est
es tern
Ġgu y
is hing
Ġreg ular
Ġcr im
Ġlangu age
Ġjo bs
Ġto m
h old
âĢĿ .
b t
Ġen s
re m
he l
Ġbe y
Ġp sy
Ġdem and
Ġcor por
Ġsen ate
Ġp aper
Ġcomm and
Ġnat ural
Ġcon c
ce ed
Ġlat est
Ġsat ur
ess ion
f ield
Ġk ore
Ġt our
se qu
Ġm ention
Ġinvestig ation
Ġbr ought
Ġdece mber
Ġfig ure
Ġtal king
] [
Ġinterest ing
Ġsumm er
Ġsl ow
Ġda ily
Ġsa fe
Ġst ra
Ġbot t
is c
ib ly
Ġanal ys
Ġg as
Ġal le
Ġpur p
Ġass ist
Ġhe ar
Ġi l
th at
s a
Ġ ...
) ;
ar ily
Ġwr itten
Ġcon ference
cher s
Ġn ar
ide red
und red
Ġte x
Ġw at
Ġstru gg
Ġcop y
Ġdocu ment
Ġsex ual
Ġis land
b ed
Ġstand ard
Ġach ie
Ġpa rents
Ġremem ber
g ers
b an
Ġex cept
9 9
ond on
Ġi ra
uc le
Ġadvertise ment
im ent
Ġsur v
Ġr ange
Ġmajor ity
Ġse lect
en ed
Ġind ia
Ġsk ill
e ch
Ġdo ll
Ġviol ence
Ġcrit ic
Ġlevel s
Ġst ore
ro wn
Ġcons idered
Ġh ol
Ġe ight
Ġm ount
Ġs ort
Ġinst all
Ġstart ing
Ġst ories
Ġb ra
Ġoffic er
c ome
Ġl ay
Ġbey ond
il le
Ġoffic ers
x im
Ġar my
Ġext reme
led ge
Ġreg ul
Ġo k
Ġmov ie
Ġbud get
Ġqu arter
Ġp ath
Ġfre ed
Ġm art
Ġh undred
u f
Ġrese ar
ic les
u k
Ġw ild
Ġincre asing
Ġread ing
Ġir an
Ġext ra
Ġdis p
Ġcon duct
Ġspok es
Ġbl ue
Ġf ile
Ġmess age
Ġd an
Ġdet ails
Ġhtt p
Ġcertain ly
pp er
Ġcontin ued
Ġpr ison
Ġbo y
j ust
ar ies
Ġ200 8
Ġcom ments
Ġprev ent
Ġcred it
Ġser ious
ific ation
Ġmus lim
r it
Ġare n
Ġdo g
Ġopportun ity
Ġansw er
Ġf ill
the y
Ġh all
Ġreg ion
Ġsaf ety
w ing
Ġsp ot
id ge
Ġbro wn
Ġinc ident
b ar
Ġd ate
Ġc up
Ġh ous
Ġim ag
Ġdon ald
k en
Ġf ly
Ġira q
Ġeff ort
Ġl ondon
Ġm ent
Ġqu ality
Ġexact ly
id a
Ġep is
ru ary
Ġjo in
Ġbl og
Ġmich ael
Ġpract ice
Ġb and
Ġdam age
Ġbro ther
c ies
Ġclaim s
Ġwr iting
Ġcult ure
Ġenjo y
Ġcomplete ly
Ġcar ry
Ġsatur day
Ġtr ust
ro om
Ġdri ve
Ġparticular ly
2 00
Ġexecut ive
Ġc ra
Ġs we
Ġ200 9
Ġr ap
Ġproduct s
Ġattack s
Ġn ucle
Ġ2 8
Ġit em
Ġ2 7
Ġst uff
Ġorgan ization
m ar
Ġsoft ware
Ġpo or
Ġdist rict
Ġch oo
Ġc row
Ġcont r
Ġbig gest
Ġd anger
Ġthrough out
Ġn ature
Ġcomp l
Ġcon vers
Ġm ac
Ġsc he
Ġintellig ence
Ġrequ ired
Ġrem ain
Ġd ie
Ġaddition al
Ġmed ic
k es
Ġmult iple
Ġpa id
Ġapp le
Ġgu ard
Ġexper ien
Ġstud ent
ren ces
Ġlead ing
m en
Ġj ames
Ġwr ite
Ġj er
Ġs le
Ġcr ime
Ġfeb ruary
2 2
Ġtw e
Ġgiv ing
le br
Ġus ually
ph one
Ġpr ime
ren ch
Ġpsy ch
Ġk ids
ne w
h ib
Ġrepublic ans
ent ially
Ġter m
Ġchang ed
i ant
ens ion
z z
se c
Ġgrow ing
ĠâĢ ¦
en ces
Ġcle an
ag o
re l
Ġ id
Ġch air
Ġon es
Ġplat form
ines e
u x
an ced
Ġn amed
is ions
Ġread y
ren d
ous ly
Ġ2 6
Ġm ad
augh t
Ġbr ain
i ers
Ġlook ed
om ing
Ġ >
Ġpur ch
Ġcoun ter
Ġpart s
Ġthin king
Ġcost s
Ġover all
Ġwon der
li ed
Ġprov ided
Ġvot ers
b a
Ġdescrib ed
Ġboo ks
Ġimp lement
Ġjud ge
Ġb ab
Ġorig in
Ġeffect s
Ġcent ury
Ġreal ity
Ġsm art
ic ks
Ġcr is
Ġatt or
Ġtit le
Ġce lebr
Ġincre ased
Ġp un
Ġo h
Ġocc ur
Ġpr inc
Ġrem ains
Ġlaw s
Ġfreed om
co in
Ġrec omm
op er
for d
Ġch oice
Ġshow ed
Ġw estern
oun ts
Ġth us
Ġcomple x
Ġhosp ital
Ġmain tain
Ġbr and
Ġsp orts
b ur
Ġwould n
Ġevent ually
Ġv ill
Ġspe ech
Ġf al
re w
m ore
Ġtex as
Ġpo ll
8 0
Ġcall s
Ġsy n
Ġgu ys
ac her
f ort
Ġlet ter
Ġf an
Ġf it
Ġcomput er
Ġcon cept
h ow
Ġhapp y
om p
Ġst age
2 4
Ġtou ch
ak er
Ġeff orts
l a
i pe
Ġthous ands
Ġal one
Ġd ied
Ġn om
Ġch inese
Ġcons ist
Ġc ry
Ġsen ior
Ġimmedi ately
Ġre b
Ġe th
he t
ut ions
ab les
Ġla unch
Ġthan ks
Ġprop os
ak ers
Ġto wards
Ġop in
Ġpre c
Ġanalys is
r is
Ġsp ir
Ġg one
Ġlim ited
Ġstud ies
Ġlab or
Ġsc ene
Ġnucle ar
Ġp ow
Ġscre en
Ġwill i
Ġm ix
i i
Ġind e
.. ..
y l
Ġpe ace
wh ile
Ġsub st
Ġinclud es
Ġind ian
Ġmo ving
Ġcitiz ens
Ġw ife
Ġdirect ly
Ġdesign ed
Ġpresident ial
r ound
Ġcould n
Ġproper ty
Ġper m
Ġman ager
Ġal tern
ch an
Ġsecret ary
a rent
Ġn av
us ing
Ġdemocrat s
Ġanal y
Ġ( @
Ġaut om
Ġa head
c raft
z y
Ġd er
Ġdeb ate
Ġb ow
Ġco ol
Ġdra ft
Ġpie ce
Ġst ation
Ġl en
Ġal b
Ġar g
Ġre form
Ġto ward
Ġes c
Ġschool s
Ġgr ad
se e
Ġpress ure
Ġtr uth
ar i
ag on
Ġbegin ning
Ġrel ative
e v
Ġpolit ics
te red
d r
Ġ ic
ber g
a ur
ar ian
w ise
Ġcomp ared
Ġmean ing
Ġl ic
Ġhe ro
we ll
ap t
Ġst ren
Ġdis e
c i
Ġey es
Ġrece ive
he st
ac hes
Ġdev ice
Ġcont ribut
Ġ6 0
p ir
Ġapp arent
Ġupd ate
Ġfam il
Ġpass ed
2 3
Ġest im
Ġmo ved
Ġdis app
Ġa im
Ġsa ve
Ġsus pect
Ġap art
Ġcond itions
v ision
Ġcharac ters
Ġw ood
t ies
Ġsu p
Ġappear s
w ood
Ġent er
Ġrad io
Ġalle ged
Ġre asons
ast ic
g a
Ġresour ces
Ġth row
Ġbe aut
m o
Ġrelig ious
Ġphys ical
Ġf rench
Ġhelp ed
ol ute
Ġchamp ions
ic ient
ad em
Ġn ice
Ġchallen ge
Ġex ch
ate ver
Ġfe ed
ent y
Ġfail ed
bo x
Ġang el
Ġdiffe rence
ll er
Ġmin or
Ġassoci ated
Ġeng lish
d d
augh ter
ress ion
Ġsal es
id ers
Ġbe at
Ġconserv ative
Ġenc our
Ġmy self
Ġref er
Ġde g
Ġun like
Ġru le
Ġpos itive
ar m
Ġcandid ate
Ġcrim inal
Ġv oice
er o
Ġdig ital
Ġwind ows
Ġinc ome
Ġpower ful
Ġtr aff
ad o
Ġl if
Ġdis play
Ġtreat ment
con t
Ġfe ature
Ġco re
Ġfamil ies
an ch
? "
Ġla un
Ġclear ly
Ġphot os
Ġpost ed
r im
st e
Ġm ist
Ġm s
Ġsp ending
rie f
d om
Ġvir t
Ġ ice
Ġcris is
Ġ Ð
Ġfor ced
Ġ2 9
Ġsour ces
Ġsh own
Ġey e
Ġindepend ent
Ġco al
Ġse ction
Ġhe n
t a
in ary
Ġtri p
Ġweap ons
Ġgreat er
Ġr and
Ġfre qu
Ġprom ot
Ġnecess ary
Ġp us
Ġlar gest
Ġm ap
Ġaustral ia
Ġme xic
Ġil leg
Ġsyri a
Ġrecord s
Ġresear chers
Ġfir m
Ġn ort
Ġr are
res h
Ġprev iously
Ġsm ith
Ġfl or
Ġr ub
er ve
ro y
t w
Ġb ay
Ġav oid
in ated
Ġsh ut
Ġsus p
Ġdet ail
Ġmin im
Ġact ions
Ġdo or
Ġide as
2 7
Ġmanage ment
Ġme ant
Ġopt ion
Ġac adem
uf act
Ġs end
Ġs out
Ġwe ight
b and
Ġpro s
bo ard
Ġ19 6
Ġd ut
Ġyour self
Ġfollow ed
Ġse a
Ġinte gr
Ġeas ily
Ġcustom ers
re ed
Ġconf lic
Ġassoci ation
Ġchar ge
Ġf at
Ġgo als
ven ue
Ġwh atever
Ġattemp t
Ġsign ed
al ing
v ille
Ġallow s
r am
Ġf ine
Ġuni que
Ġg ives
il es
it ation
Ġbenef its
d a
Ġprim ary
ĠÂ £
Ġgeor ge
Ġins ur
Ġl iter
Ġpr int
Ġrem o
Ġman ufact
Ġgir l
Ġpolit ic
ain t
Ġmeas ure
Ġus es
4 5
3 5
Ġproject s
Ġbas ic
op e
Ġexp and
Ġdec ades
Ġindividual s
Ġmiss ion
ub e
Ġl ines
Ġwe l
Ġknow ledge
Ġappe ared
Ġstat us
h an
Ġk en
Ġfight ing
d on
) :
Ġcorre ct
Ġc ities
Ġgerman y
Ġattor ney
Ġce ll
Ġsh o
al y
Ġr ise
Ġwa it
Ġdevelop ed
Ġstra ight
Ġcontin ues
Ġagree ment
iv ity
k i
Ġauthor ities
Ġchrist ian
ress ed
Ġsp read
Ġthan k
Ġsh ar
w ith
c ul
Ġs am
Ġbor der
se cut
Ġdeter min
en cies
Ġnor mal
Ġfor t
Ġen em
Ġadv ant
Ġpict ure
2 6
y al
Ġbit coin
Ġfull y
Ġar ab
Ġadd ing
Ġh un
Ġpl ant
Ġa lex
Ġactiv ity
Ġprogram s
Ġem ot
et h
Ġor d
Ġj ump
Ġabs olute
Ġnot ed
in y
Ġhigh ly
Ġr ates
Ġlar ger
g y
ĠâĢ ¢
Ġsc en
Ġsuccess ful
Ġprofess or
á Ħ
á ħ
Ġfo x
Ġfem ale
Ġv an
Ġfavor ite
Ġalb um
Ġw it
Ġqu al
Ġvar i
Ġopt ions
Ġshoot ing
on ents
Ġorgan iz
Ġpl aces
ot i
r ant
ot a
Ġmar ri
Ġre ached
Ġr y
no v
se y
v in
Ġconstit ution
Ġl ou
ite ly
Ġam b
Ġp m
r s
Ġatt ract
Ġown ers
Ġsc ott
Ġbir th
Ġch ic
Ġst yle
Ġtraff ic
Ġpart ners
Ġgr ant
Ġlo ad
Ġob ser
Ġemploy ees
Ġme chan
Ġcall ing
Ġen force
p art
Ġfound ation
Ġfe et
Ġtr ou
p ri
ar a
Ġv ac
Ġje w
b on
Ġseem ed
a res
Ġse ll
Ġpred ict
Ġtradition al
Ġtrans port
Ġcreat ing
Ġh om
Ġk ick
Ġpr ices
Ġke pt
Ġsee ing
Ġoper ations
Ġp it
Ġref lect
Ġmob ile
w ide
Ġinde ed
Ġha ven
ad d
Ġfl ight
Ġr at
or ter
ou l
Ġp ush
Ġun d
Ġt ick
Ġn ames
pt ion
Ġknow s
Ġapplic ation
ock ed
all ed
Ġnot es
ic ed
Ġrev olution
Ġac qu
Ġsub sc
2 8
Ġsp end
h i
Ġfund ing
Ġcl ick
Ġt as
p o
Ġch ann
Ġdown load
Ġre fe
Ġme l
Ġpat ients
Ġdet ect
Ġli br
2 9
Ġfr anc
Ġneigh bor
Ġedit or
ter m
Ġg al
Ġbehav ior
Ġthere fore
n el
Ġbus h
Ġeng land
Ġ200 7
Ġm cc
Ġb rief
Ġtele vision
Ġstrateg y
ent ed
ot h
Ġca used
Ġhill ary
Ġclaim ed
de red
on ent
Ġbe g
Ġd rop
p m
Ġweek end
Ġf ant
Ġdou ble
Ġb ul
Ġchoo se
n n
Ġelect ric
Ġe c
us ion
Ġfr ank
Ġpolic ies
Ġchar ges
Ġend ed
Ġwill ing
Ġconcer ns
ad y
Ġh us
Ġsl ight
Ġn one
Ġleav ing
Ġwal k
Ġoppos ition
Ġra ised
m ark
le ction
ol ic
p re
Ġsupp osed
Ġspe aking
ro id
Ġlaw y
Ġthe ory
Ġri ver
Ġche m
Ġhapp ens
Ġmost ly
Ġte acher
Ġcar s
Ġflor ida
Ġlear ning
Ġf if
Ġval ues
Ġadv oc
Ġb ed
âĢĿ ,
Ġact ual
w hen
Ġheav y
Ġc as
Ġtr ain
Ġcrit ical
Ġdemon str
Ġmach ine
Ġa ward
Ġdef end
1 00
Ġresident s
ant ly
u ana
Ġmem ory
Ġepis ode
Ġscient ists
Ġk id
rib ution
Ġst ock
Ġb orn
Ġex am
Ġcrow d
o x
Ġens ure
Ġm ale
so ft
Ġad op
ve re
Ġt rib
Ġsu d
oc ks
Ġchic ago
Ġv s
Ġn ine
Ġmi ke
amp les
Ġh ack
ri an
Ġmil es
Ġestab l
7 0
Ġfr ance
Ġsk y
Ġinvest ment
Ġpart ies
. âĢĻ
Ġmass ive
Ġprote ction
Ġoff ered
Ġdev ices
2 1
ound s
Ġb ag
ij uana
Ġsp ring
Ġtemp er
Ġopen ing
Ġreve aled
c an
Ġd u
il ed
on a
Ġfeel ing
Ġfar m
Ġc ro
Ġj un
ren cy
Ġfl ag
Ġlear ned
3 3
Ġdeb t
Ġcomm erc
Ġneg oti
Ġarrest ed
Ġhundred s
b re
ww w
it ude
Ġi gn
Ġsh ip
Ġre act
Ġcond ition
a e
Ġb omb
. '
Ġco ast
Ġsle ep
Ġloc ation
Ġn ations
Ġgener ally
Ġinflu ence
Ġwor se
Ġg ay
Ġsol id
Ġpl us
it or
Ġpat tern
Ġas king
Ġl ose
Ġbelie ved
Ġprodu ced
Ġsp l
Ġres ist
Ġt end
Ġ ;
Ġun it
Ġf le
air s
Ġprov ides
Ġtyp es
Ġsol ution
Ġtri al
Ġnot ice
Ġm aster
ist ry
Ġocc up
Ġshow ing
5 00
Ġprofess ional
Ġwh om
an y
Ġrun s
Ġcamer a
Ġfa ith
Ġrepl ace
Ġass um
Ġjohn son
Ġfr ame
u it
ie l
Ġm ir
Ġact ive
Ġconfir med
Ġeffect ive
Ġspir it
Ġde fe
est ic
m ine
Ġaff ord
Ġet c
Ġmill ions
Ġf resh
Ġsc ore
Ġmarri age
Ġr ou
Ġopin ion
h ol
Ġinstit ute
Ġinit ial
Ġunderstand ing
g ar
l ant
d es
Ð ¾
Ġinit i
Ġfranc is
Ġbenef it
li ament
s en
Ġocc as
r ants
ce ll
or g
Ġmar ijuana
Ġsub m
Ġinterest ed
Ġhig hest
Ġdoll ars
Ġbott om
Ġco ld
h as
e ll
Ġdest roy
ak ed
Ġprodu ce
ript ion
Ġc ash
Ġrespons ible
Ġauthor ity
Ġvict ory
kn ow
Ġob s
Ġsand ers
Ġapp ly
Ġchr is
Ġpal est
Ġachie ve
Ġb urn
h ouse
Ġjo ined
9 0
ip l
Ġpar liament
ab or
it z
Ġoper ation
Ġenvironment al
im ately
Ġdra w
Ġkore a
kn own
Ġoff ers
Ġdise ase
Ġa st
Ġve ter
in ing
Ġprop osed
Ġleaders hip
Ġlim it
Ġback ground
z a
w r
Ġspec ies
Ġsur face
Ġag reed
Ġ8 0
ic a
Ġrest rict
com ing
Ġp u
re p
m l
Ġconv ention
Ġfour th
Ġsupp orters
Ġc ards
Ġre ject
Ġw il
Ġsn ow
ing er
Ġte ach
Ġm ig
Ġn fl
Ġannoun ce
Ġveh icle
Ġadvant age
Ġfal se
Ġrest aur
Ġass ault
z en
Ġinc red
Ġbas is
Ġcommerc ial
Ġan c
Ġexpl ained
Ġcontro vers
Ġilleg al
Ġdocu ments
ort ion
Ġcent re
Ġgener ation
Ġsur round
Ġob tain
Ġwin ning
Ġwe alth
Ġwatch ing
Ġon to
Ġwit ness
Ġ3 1
Ġvictim s
Ġcommun ities
Ġgir ls
c ol
Ġinsur ance
Ġlegisl ation
Ġc ateg
âĢ ľ
Ġexch ange
Ġbec omes
Ġbec oming
c a
w in
Ġ3 5
wor ks
Ġcompet ition
Ġput ting
Ġsh ared
Ġopen ed
Ġser ve
Ġann ual
Ġdrug s
Ġcan cer
ur ies
ign ed
ic king
Ġplan et
Ġliber al
Ġneg ative
st re
____ ____
Ġco oper
Ġcon sequ
Ġexper iment
Ġsurve y
Ġgr aph
Ġdri ver
Ġhe at
Ġfl ow
Ġban ks
Ġitem s
Ġro bert
Ġhe ll
f s
am i
ir ing
Ġl uck
Ġco verage
Ġtrans fer
ut ers
Ġview s
Ġeas ier
Ġredu ce
Ġacc used
Ġaud ience
Ġd at
Ġanim als
Ġpurp ose
Ġextreme ly
Ġhe aring
Ġp ac
s he
Ġislam ic
Ġfind ing
Ġenforce ment
Ġi i
Ġsp ort
Ġcanad ian
Ġconst ruction
Ġha ir
v ant
e k
Ġdefin itely
Ġdanger ous
Ġ200 6
g l
Ġth om
Ġtool s
i que
== ==
Ġwor st
p oint
ak s
Ġser ved
Ġcom fort
Ġtrans l
Ġexist ing
et er
r acy
Ġexpl ain
Ġj u
Ġplan ned
Ġmag az
du le
Ġhigh light
Ġflo or
mp t
Ġ9 0
Ġcontin u
Ġdom in
Ġal leg
res p
Ġplan ning
Ġsout hern
w ar
Ġdou bt
Ġcar ol
Ġsqu are
Ġr am
Ġd ed
Ġj im
4 4
Ġj ones
ri al
Ġsepar ate
Ġcomp ar
Ġsup reme
Ġp il
Ġno vel
Ġstren gth
Ġs ad
Ġreturn ed
Ġo s
Ġst or
Ġother wise
Ġcont ain
Ġargu ment
i os
Ġz e
Ġref uge
Ġg all
Ġdire ction
Ġinst ance
Ġhous ing
Ġtest ing
if ul
en n
Ġat h
u ro
gh an
wh ich
Ġdri ving
Ġsol ar
Ġnort hern
Ġstruct ure
go ing
h o
Ġlab our
Ġb on
Ġlaun ched
Ġamaz ing
Ġmur der
Ġsit es
Ġe at
ist ics
Ġg op
ust r
Ġfe llow
Ġr id
Ġcl osed
is her
k a
Ġl u
Ġje ff
Ġmay or
Ġbrit ain
Ġf uel
3 6
Ġtwe et
Ġand roid
Ġdiv ision
ad a
Ġser ver
Ġt ask
at ically
Ġspe ct
Ġex erc
Ġc ook
Ġp in
Ġc atch
t ic
Ġf bi
Ġchar ged
Ġr ough
Ġimag ine
Ġcolle ction
Ġmicro soft
Ġd aughter
Ġdo ct
Ġf igh
Ġse qu
Ġbe er
Ġtell ing
7 5
ac ity
ili ar
Ġiss ued
Ġprinc ip
m i
Ġsc ale
b ing
Ġsuggest ed
Ġapparent ly
3 2
Ġrepe ated
Ġgovern or
y a
Ġstri ke
Ġsmall er
Ġtrans form
Ġimmig ration
Ġj ose
Ġold er
Ġbusiness es
Ġconcer ned
a ud
Ġtr ail
Ġst ated
Ġpl ays
Ġdec ade
ir t
Ġab use
Ġvir gin
Ġactiv ities
Ġf er
Ġp ak
Ġsp oke
Ġcon text
Ġch o
c s
Ġc ab
i us
Ġacc ur
ar an
in ct
Ġt on
m as
Ġass ess
Ġisrael i
Ġestab lish
Ġlen gth
Ġsupport ed
ar io
Ġdre am
e qu
Ġv ice
r om
Ġult imately
Ġhold ing
Ġanim al
Ġs ac
Ġmo de
Ġunf ortun
3 8
Ġin n
Ġgu ess
Ġrequ ires
Ġdisco vered
Ġas pect
Ġd yn
Ġentire ly
Ġsupp ly
Ġcandid ates
Ġm as
Ġcopy right
Ġent ertain
Ġwar s
o h
Ġ7 0
Ġchampions hip
ot ed
Ġam end
Ġmiss ing
Ġry an
Ġra ise
Ġdis m
Ġoff ensive
Ġr out
Ġmean while
Ġuk rain
Ġatt end
Ġallow ing
Ġfil es
Ġrecomm end
Ġdiscuss ion
Ġg ree
ã Ĥ
Ġaltern ative
if ying
Ġc aught
Ġg am
it able
Ġp y
d ing
Ġex clus
k ins
Ġsc ript
Ġcapt ion
Ġm and
Ġa ware
Ġconflic t
Ġtr uly
Ġer a
Ġdec isions
! âĢĿ
com p
Ġrich ard
Ġm ut
Ġas se
g s
Ġconcer n
Ġst ars
Ġset ting
Ġlarge ly
Ġmart in
iz es
ul ated
c ks
Ġsc r
4 8
Ġkeep ing
Ġobv iously
Ġpro secut
ul f
Ġf est
Ġhtt ps
Ġto w
Ġi p
Ġwa iting
Ġnews p
ograph y
Ġn a
Ġh omes
Ġpres ence
Ġjo e
Ġaf ghan
v ent
Ġsud den
Ġdef ensive
Ġdeli ver
Ġun less
Ġbu ll
Ġr us
Ġce lls
Ġjew ish
w ord
Ġg ain
Ġch ap
r ative
Ġment al
Ġstand ing
Ð µ
Ġfig ures
Ġspokes man
Ġintrodu ced
Ġafric an
Ġlou is
Ġf ol
on ic
Ġbelie ves
Ġremo ved
Ġt un
Ġprov iding
Ġident ity
Ġafric a
Ġadv is
re al
Ġpa ir
Ġmod els
Ġsp an
Ġexp lo
m et
Ð °
os es
Ġscient ific
Ġg ender
Ġconvers ation
Ġtell s
on to
Ġinj ury
** **
ac ing
Ġreg ist
se ason
il ing
Ġangel es
un k
m at
Ġin nov
os ure
Ġv o
Ġpl aced
b our
Ġestabl ished
! !
Ġfe ll
Ġcor ner
Ġinterest s
Ġh ate
Ġmexic o
ol f
Ġappro pri
Ġhar m
Ġhas n
5 5
an cy
Ġmeas ures
Ġlist en
Ġdo ctor
Ġmention ed
os h
Ġac know
Ġun s
Ġcon clus
Ġd in
Ġskill s
Ġpak istan
Ġter rit
Ġpart ner
ul a
Ġuse ful
ic ip
Ġown er
3 4
Ġsa v
Ġt ough
Ġsu st
Ġconnect ion
oc king
pect ive
Ġdom estic
Ġfun ds
Ġ200 5
Ġsubsc rib
ter y
Ġsk in
Ġstand ards
3 7
h y
Ġgl ass
Ġopt im
ot o
Ġbab y
l ines
Ġkill ing
h l
om s
Ġpalest in
Ġstep s
Ġwe ak
Ġb od
Ġ201 8
Ġthom as
Ġ ing
i vers
Ġinter act
Ġd im
Ġj on
Ġpre fer
ony m
iss ions
l ig
h and
Ġobv ious
is ation
Ġimp oss
Ġv ul
Ġjapan ese
Ġsto pped
Ġm ary
Ġphil os
pro f
Ġes p
i pp
ig an
Ġfin ished
Ġinte l
Ġhon est
h al
# #
Ġpet er
Ġele ments
Ġman aged
Ġfail ure
Ġident ified
ro ll
Ġwind ow
Ġs her
f c
l or
Ġma xim
Ġlibr ary
w al
c ons
Ġm ort
cept ion
l ies
av es
um n
Ġintern al
Ġv ision
Ġrelig ion
Ġconc lud
Ġn as
Ġexper ts
Ġmark ets
Ġdep end
Ġcomm itted
ri f
Ġfoc used
re es
Ġ200 0
Ġw ish
b u
Ġg h
Ġslight ly
b el
Ġabsolute ly
o on
su it
as y
Ġcl in
Ġv en
Ġr ain
Ġcan n
Ġarri ved
Ġhus band
Ġsound s
Ġfeel s
Ġrelative ly
out s
Ġwr iter
Ġmot or
Ġturn s
Ġtal ks
Ġcirc um
Ġme re
3 9
Ġber n
ay er
Ġl ake
Ġmag ic
Ġn ic
Ġs ale
4 7
Ġvar iety
Ġ3 2
Ġdevelop ers
Ġorganiz ations
Ġcorpor ate
Ġs or
ul ate
Ġag gress
Ġorigin ally
er ation
Ġg ard
Ġfil ed
r un
Ð ¸
Ġoper ating
Ġspecific ally
ens es
Ġbal ance
Ġacc ident
ang ing
Ġtest s
Ġyou th
Ġhum ans
and a
ruct ure
Ġo ce
r ast
Ġtax es
Ġelect ron
t own
Ġbig ger
i ke
st ate
Ġte en
e mp
Ġbeaut iful
Ġr ail
un der
Ġregard ing
Ġstart s
Ġchang ing
Ġneighbor hood
Ġl as
Ġar ms
Ġchann el
ag n
Ġfam iliar
stre am
k in
Ġsen ator
Ġad just
Ġvide os
Ġs ides
" :
Ġmagaz ine
v an
4 9
Ġhelp ing
r ick
Ġd ar
Ġsold iers
hed ul
Ġsuggest s
is f
Ġ4 5
Ġun its
i h
Ġear n
Ġacc ounts
Ġsee k
Ġeas tern
i ance
Ġequ ip
Ġsw itch
Ġb ond
Ġvot es
Ġl ie
Ġro se
Ġhappen ing
Ġdec ide
Ġelect ions
en ess
ic ide
Ġt ack
Ġposs ibly
Ġimposs ible
Ġat lant
Ġsecond s
Ġno v
Ġele ment
Ġpriv acy
ol a
Ġb row
s l
Ġhealth y
âĢĶ âĢĶ
Ġapplic ations
Ġer ror
Ġt ourn
Ġlo b
Ġn ative
Ġb id
Ġcons ult
Ġsy mb
Ġpen al
Ġbas ically
t op
Ġha w
Ġdeg ree
gy pt
Ġag ent
Ġcar ried
Ġj ail
Ġg ro
am eric
n ame
Ġcomb at
Ġj es
Ġle e
et t
Ġrand om
qu es
Ġne ither
Ġce o
Ġtor onto
u ate
Ġfund ament
Ġbo b
Ġlos ing
in king
Ġtw ice
Ġamaz on
Ġj av
Ġincreasing ly
Ġthe r
Ġcut s
Ġapp re
st ar
oc ol
ag ues
Ġvis ual
pl ace
Ġst ad
Ġz one
and er
Ġcl im
Ġdro pped
Ġy ards
Ġsc hedul
Ġel im
Ġsp r
Ġs itting
ste in
Ġdevelop ing
Ġsyri an
Ġa ri
hen s
Ġstre ets
cl ass
Ġc ath
Ġemerg ency
Ġm it
Ġmon t
Ġn ut
Ġpict ures
4 6
Ġc ub
Ġsee king
Ġinf rast
Ġwor ry
Ġchair man
or ial
Ġcult ural
h t
Ġag encies
Ġed ge
ri end
Ġs ar
Ġcar bon
i ation
Ġp ed
Ġsh ad
Ġpay ing
Ġwe ather
m ail
] .
f ree
! "
er ous
Ġclos er
ch ar
Ġst ick
at o
Ġl ock
s hip
or ary
Ġins p
ap ers
Ġrap id
Ġcarol ina
Ġt ight
Ġrem ove
Ġfam ous
Ġrespons ibility
d y
Ġste ve
Ġbro ken
it ect
Ġmat t
Ġweap on
Ġl ived
com m
Ġret ail
m es
le ts
Ġem b
Ġwin ter
Ġpow ers
r an
in ate
Ġexper t
Ġv ast
Ġfrancis co
l ife
Ġa id
Ġveh icles
de f
d ra
Ġconsider ing
Ġexp ensive
Ġre venue
Ġco ff
Ġb reat
Ġe gypt
Ġf ish
Ġcap acity
in n
Ġfore st
Ġbo ston
est s
Ġhy p
Ġo x
Ġsch ol
Ġasse mb
Ġsh all
Ġform s
Ġrec ru
Ġsurpr ise
u ct
Ġposs ibility
Ġmethod s
Ġpan el
Ġchem ical
ict ed
Ġinfrast ructure
Ġstad ium
Ġtr ig
Ġar med
Ġloc ated
Ġeng age
Ġcre w
Ġk it
id el
ans ion
Ġl ord
Ġlink ed
Ġestim ated
ic i
il s
Ġequ al
Ġpresent ed
c ious
Ġh at
i pped
Ġgovern ments
Ġcor rupt
Ġst one
Ġgu aran
Ġ200 4
n d
Ġse ctor
Ġvot ing
Ġbr idge
Ġco vered
Ġs ant
Ġp c
Ġcr ack
Ġdyn am
Ġequip ment
Ġro t
Ġsec ure
Ġqu ant
Ġk ar
ã ĥ
Ġarch itect
Ġpl enty
olog ies
Ġpost s
Ġdep ut
Ġpar is
Ġus a
Ġgreat est
Ġser iously
c ar
Ġbring ing
Ġapp oint
Ġt act
p erson
Ġlot s
it a
ill ing
Ġtur key
Ġhe ight
Ġz ero
Ġtro ops
Ġdis cl
Ġcl ot
Ġsh ape
Ġmu se
Ġdr am
Ġro ll
Ġinf ect
Ġhelp s
Ġst ress
Ġup gr
Ġhot el
Ġ //
6 5
Ġfil ms
ad ed
l ist
Ġf ired
e per
ot y
Ġt ree
Ġse lling
Ġint ended
Ġcl ar
Ġst ret
Ġadv anced
Ġse asons
ro l
Ġpie ces
Ġfl at
Ġbroad cast
Ġd ur
Ġdeter mine
Ġco ord
on ed
Ġcomp lic
k o
Ġath let
Ġal co
Ġar r
Ġgu ide
Ġchar l
Ġf aster
Ġvul ner
ol es
ro ad
rib le
rib ute
en ced
Ġprep ared
Ġr um
Ġpros pect
Ġn y
m akers
Ġapp s
a ren
Ġvirgin ia
Ġo d
rel ated
Ġupd ated
Ġoccur red
Ġg iant
Ġ= >
Ġfact ors
Ġfin ish
Ġchallen ges
.âĢĿ <|
Ġadv ent
Ġg ri
Ġrou te
Ġtechn ical
ot ic
ud i
Ġwilli ams
= "
Ġaustral ian
Ġstr ing
Ġfix ed
le te
Ġpropos al
Ġwal king
Ġsign s
Ġb ac
Ġunfortun ately
Ġoff ering
h ar
Ġsh op
Ġpot entially
Ġsub s
Ġpro ced
Ġexpl os
Ġfac ing
Ġminim um
Ġpro ve
Ġp ra
Ġclass ic
Ġsupport ing
Ġpercent age
Ġsurpr ising
Ġcl oud
Ġsh ift
Ġboo st
ter day
Ġtyp ically
ing ly
Ġconst ruct
Ġbro ke
Ġbu ff
Ġcomb ined
Ġstud io
Ġgr ab
Ġd un
Ġinst ruct
Ġk er
Ġconsum ers
Ġtrans ition
Ġtur ning
Ġpurch ase
Ġb es
3 1
Ġuni verse
Ġelect ed
Ġb ure
Ġrul ing
Ġk o
Ġpolitic ians
Ġappear ance
Ġvot ed
Ġpro ceed
Ġfor get
ress ive
Ġadv ance
id den
Ġenem y
Ġbo ys
Ġeven ing
Ġdemoc racy
Ġre in
c r
Ġhur t
om an
Ġre ference
Ġsignificant ly
Ġref used
ce l
Ġfact or
Ġb ound
-------- --------
up s
Ġt ag
Ġmat ters
Ġded ic
Ġbr ight
Ġm ail
Ġcreat ive
Ġat m
Ġexpress ed
Ġpos itions
Ġconduct ed
Ġpack age
Ġredu ced
Ġaffect ed
Ġreg ime
Ġcal cul
( )
Ġd iet
Ġreg ional
Ġair craft
n ight
Ġb ought
Ġm un
Ġpoint ed
Ġro yal
Ġwe ren
Ġmin ute
, '
Ġwe aring
Ġs ke
Ġse at
Ġdetermin ed
Ġevery body
Ġcontr ast
g reg
Ġconsum er
be c
Ġl y
Ġur ban
Ġcon cent
om en
Ġrem ained
Ġp itch
Ġjack son
m ond
Ġan th
Ġamend ment
Ġrecord ed
Ġafter no
Ġnor m
Ġdep loy
Ġex cell
Ġpo ol
Ġinvol ve
Ġrem aining
Ġhand le
Ġp ages
Ġmuse um
Ġlead s
Ġins ist
Ġwilli am
Ġ5 00
Ġend s
Ġw ire
ly mp
Ġcre ation
Ġ \
Ġb bc
Ġbure au
Ġdiffe rences
k et
Ġn ick
Ġyou t
al es
od es
Ġmo s
d is
Ġcoll abor
Ñ Ĥ
c are
et ic
Ġappe al
Ġsu it
Ġj ul
Ġpass ing
Ġinit ially
ro s
Ġappre ci
in i
Ġmot iv
ol ved
Ġmo on
Ġgre w
Ġmy ster
Ġart ist
ash ion
Ġident ify
Ġ199 0
Ġex amples
ad ing
Ġl es
Ġher self
Ġm ine
Ġstrugg le
Ġwas te
Ġmet al
Ġdr ag
Ġcoal ition
Ġre li
Ġtrou ble
Ġt rend
Ġcomple ted
Ġpl ants
om a
Ġyes terday
Ġdist ance
Ġbow l
Ġc art
Ġoce an
Ġbe ach
Ġexperien ced
Ġre action
Ġexc ited
ol it
ur a
Ġopportun ities
Ġf ro
Ġbre aking
o res
Ġbel ong
Ġnews let
i as
ld er
Ġir on
Ġis is
as hed
Ġafterno on
h ab
Ġrep orters
Ġg on
Ġcommunic ations
Ġenc oun
Ġr ing
Ġargu ed
Ġb att
Ġma x
Ġp ure
g ment
Ġattemp ts
Ġ19 5
Ġshe l
Ġnum erous
Ġobs erv
ly ing
w ater
9 5
o y
Ġpull ed
Ġd ial
Ġmin istry
ap ed
Ġgun s
z il
Ġbre w
Ġsqu ad
Ġreport ing
Ġ3 6
v i
Ġsc ot
Ġre new
Ġdis s
Ġcap tain
Ġk ur
Ġqu iet
Ġr on
Ġag ents
Ġsil ver
Ġjo int
Ġo lymp
Ġk im
or al
Ġthough ts
se x
Ġcom ed
Ġl it
Ġj our
Ġb ol
Ġmov ies
Ġev al
Ġval id
Ġhop es
Ġset s
Ġs ession
Ġwe ar
Ġem ails
v iet
Ġb oss
Ġtre ated
Ġwr it
Ġr ising
Ġter min
Ġas h
Ġphilos oph
Ġupd ates
Ġcr imes
Ġess entially
Ġaut h
w est
Ġaff airs
Ġp s
Ġwide ly
ri er
Ġg ather
, [
ill a
Ġyout ube
ess ions
he red
Ġtal ked
im p
Ġindust rial
Ġoh io
Ġdism iss
Ġper man
Ġres olution
Ġpo d
Ġ200 3
Ġbod ies
Ġviol ent
Ġp ic
Ġs in
Ġc ow
ens ions
Ġt a
Ġpr oud
Ġhistor ical
Ġread ers
Ġsat isf
Ġres c
l ong
Ġplay off
Ġinstit utions
Ġed ition
Ġun able
m ic
Ġvill age
Ġconf ident
Ġsub sequ
Ġro w
Ġval ley
Ġopp osed
Ġstr ange
Ġwr ites
6 4
Ġg ear
Ġfact s
Ġart icles
Ġse vere
Ġst an
Ġdel ay
Ġfac es
Ġcl ient
Ġconf ig
Ġmaterial s
Ġlin ks
Ġch art
Ġdri vers
Ġpers pective
ill ed
Ġlo ved
Ġconf idence
Ġappro ved
Ġdat ab
ive red
er ved
d p
Ġalco hol
Ġanaly st
Ġdisapp oint
Ġr ide
Ġden ied
Ġdef ault
Ġdeb ut
an o
ab ilities
Ġmess ages
Ġd ipl
resp ond
Ġev olution
Ġv ent
Ġadv ice
Ġi re
ain ts
Ġno body
Ġadm itted
Ġst orm
Ġnewsp aper
Ġquarter back
Ġstand s
Ġfor g
Ġlab el
Ġreported ly
Ġphot ograph
Ġc raft
Ġdoct ors
Ġactiv ists
Ġmarket ing
Ġvirt ual
ad or
Ġprom pt
Ġtal ent
Ġshould n
Ġrestaur ant
Ġexpl ore
Ġexerc ise
Ġ200 1
Ġmount ain
Ġse attle
u gg
Ġpa rent
Ġany way
g ame
Ġair port
Ġmot ion
aa aa
Ġdisc rim
Ġcol on
Ġstor age
Ġconnect ed
Ġfind ings
p ost
Ġcap able
Ġrespond ed
Ġw ik
Ġprof ile
Ġh ou
Ġfl ash
Ġg ang
Ġimpro ved
b n
Ġfl ood
in ent
Ġg az
Ġcon temp
Ġafghan istan
is ters
p et
Ġmar ried
r d
0 5
Ġwar ning
Ġpen n
Ġtourn ament
ll a
Ġexperien ces
Ġshar p
ribut ed
i at
Ġen h
Ġl am
Ġpat ient
Ġnet works
Ġent ry
wh o
Ġatm osp
Ġrad ical
Ġsubst ant
00 00
Ġe gg
ed s
Ġbe ar
ac he
Ġmor al
0 1
Ġc nn
Ġg i
Ġon going
Ġleav es
lic it
Ġor dered
ig er
Ġanc ient
es ters
emp loy
Ġbi ke
Ġswe et
Ġterror ist
Ġmich igan
tern al
Ġlawy er
Ġcustom er
Ġpass en
Ġb are
ab led
Ġdist ribution
Ġexp ansion
Ġsong s
Ġand rew
Ġcircum st
in ter
Ġexpl ains
] ,
Ġstre am
Ġev il
Ġdel ivered
Ġstate ments
Ġapp lied
Ġdecl ared
Ġbuild ings
Ġye ah
Ġbut ton
Ġsuff ered
Ġpract ices
." <|
Ġb a
un te
ang ers
Ġrem ind
Ġmuslim s
g ia
v a
Ġfest ival
h s
Ġas ide
Ġconfir m
Ġemp has
stand ing
le vel
Ġr ic
Ġan onym
Ġout put
Ġwar m
Ġobject s
Ġimp er
c alled
Ġchrist mas
Ġsa udi
Ġdecl ined
Ġpick ed
Ġcritic ism
g as
Ġpl ot
Ġinj ured
Ġcor respond
Ġr ally
Ġpat ri
4 2
l aw
> >
m ates
ang ed
Ġcont est
Ġw ave
Ġleg it
Ġpublic ly
Ġcamp us
e y
Ġinc or
Ġappropri ate
Ġb ru
Ġch ain
Ġmanufact ure
Ġwel come
s m
Ġcont ains
Ġab and
Ġdes ire
ans as
Ġo l
Ġentertain ment
Ġalleg ations
v is
Ġca uses
Ġinj uries
Ġc ert
Ġfac ed
Ġw ake
Ġinvest ors
il ty
ath an
Ġin put
Ġc os
Ġukrain e
Ġreal ize
Ġt an
t im
or der
Ġparticip ants
Ġassist ant
r id
Ġour selves
Ġs i
Ġste el
Ġincre ases
Ġdou b
e ff
Ġso viet
Ġfr anch
Ġ eric
Ġfill ed
Ġeffect ively
Ġmiss ed
Ġcrit ics
Ġi phone
Ġrom ney
Ġ198 0
Ġarg ue
Ġexpl an
Ġli qu
Ġbase ball
Ġw ins
Ġp hen
4 3
anc ing
Ġp ipe
Ġjer sey
Ġpro hib
et te
8 8
Ġdr ink
Ġdipl om
, âĢĻ
Ġm p
Ġoff ense
u ations
Ġchamp ion
Ġsh ots
in ating
Ġacc om
ion ally
n ic
Ġfem in
Ġfor um
Ġl uc
Ġvol ume
at ures
Ġh ide
Ġsymb ol
Ġcol umb
Ġag end
Ġbra zil
Ġrough ly
Ġvol unte
is hes
Ġfac ility
Ġsw ed
uc ks
Ġnear by
r ich
Ġess ential
Ġ3 3
Ġschedul ed
Ġking dom
Ġbl ow
7 7
Ġbeg ins
Ġappro xim
Ġsche dule
Ġre uters
Ġfin ance
Ġconsequ ences
Ġhard ware
Ġmo ves
Ġbehav i
Ġreturn s
Ġthin ks
Ġl g
fr om
Ġaccept ed
ord ers
w a
Ġadd s
Ġannounce ment
Ġdes k
Ġperform ed
tw itter
Ġcoff ee
Ġtot ally
Ġthreat s
Ġme at
Ġaccom pl
Ġhead s
t ion
Ġlist ed
r ison
Ġind ex
re en
Ġcra zy
Ġdef ence
Ġspl it
Ġdec re
be ll
Ġ3 8
Ġclass es
ne ll
Ġrom an
ag ers
Ġact s
oo king
Ġgu ilty
Ġs ight
Ġfr aud
Ġplan e
Ġl augh
Ġfl u
Ġbas ket
che ster
s ing
Ġfollow s
Ġwat ched
Ġprom ise
bur g
Ġconsist ent
Ġmom ents
Ġregul ations
Ġwar ned
Ġfav our
Ġire land
4 1
s es
Ġnecess arily
ound ed
Ġsto res
Ġje ws
Ġdeath s
Ġw id
Ġtemper ature
Ġf ashion
Ġyoun ger
Ġbar ack
Ġfun ctions
Ġent ered
Ġaud io
Ġpop ul
Ġsurpr ised
Ġin qu
Ġmult i
Ġun cle
Ġad ults
Ġe ll
in et
Ġjour ney
Ġprotest s
Ġt iny
Ġexpress ion
Ġtre as
Ġrece iving
ill ance
ir ty
Ġcur rency
Ġbu ying
Ġun known
Ġs ick
ch o
Ġad am
ar ters
i est
n ow
Ġsh if
i ver
Ġgold en
Ġknow ing
Ñ ģ
Ġmon it
e f
Ġn ba
Ġb le
Ġk il
s ome
il it
Ġbr ings
i pping
Ġrepres ents
Ġact ing
Ġt ear
Ġhouse hold
Ġlaw suit
g or
Ġsudden ly
Ġg aming
Ġf ab
Ġit al
Ġ3 7
Ġdi vers
af ter
6 6
Ġari z
Ġover w
Ġhar v
Ġlic ense
Ĥ ¬
Ġregard less
w as
l ook
Ġpus hed
Ġteacher s
Ġst ood
Ġtarget s
Ġh ung
re y
Ġcolor ado
Ġsu icide
Ġfif th
Ġrec on
ac c
Ġj am
Ġdeput y
land s
Ġcru c
og ue
Ġcy cle
f o
Ġsuc ceed
Ġ200 2
Ġl ies
Ġt ort
Ġany where
Ġfeat ured
Ġcomb ination
Ġexcell ent
i ro
os ition
Ġconclus ion
Ġunlike ly
Ġ3 00
p ret
Ġph ase
an i
ust er
Ġbat tery
Ġfant asy
t le
Ġart ists
im age
Ġfew er
ac le
Ġdiscuss ed
Ġsc ored
Ġkore an
Ġconst ant
Ġs ought
in als
Ġas ia
Ġsurve illance
Ġrem ote
Ġexist ence
Ġrec all
Ġs ister
Ġbill s
we ight
Ġcommunic ation
Ġhou ston
Ġheav ily
r ist
p ass
Ġfair ly
u a
Ġsh aring
ric ult
Ġimport ance
Ġleg end
Ġr ig
us al
x x
Ġinst ru
Ġengine ering
d f
ro it
Ġsome what
Ġho lly
f ire
Ġauth ors
Ġexe c
Ġrec o
ve y
Ġresist ance
st yle
Ġj r
Ġs ample
ic ing
Ġgal ax
Ġf asc
Ġ4 8
Ġche ap
st ood
Ġd ry
in der
Ġint r
Ġemot ional
Ġad ult
Ġchar les
Ġprem ier
c hen
Ġcolle agues
Ġbr ad
ack s
ill y
Ġis ol
as p
Ġdav is
Ġke vin
Ġpl ed
Ġbe ll
Ġv oc
Ġdef ined
Ġvers ions
Ġtr ick
Ġex hib
b orn
Ġu pper
st ers
Ġch am
Ġacknow led
Ġmedic ine
Ġpar am
Ġvict or
Ġalleged ly
Ġput in
f oot
Ġch a
n or
Ġchap ter
Ġinsp ired
p g
Ġopp onent
cer tain
Ġthe at
ort ed
' ,
ph oto
Ġjes us
Ġsh ares
Ġopp onents
Ġalong side
er a
Ġcom ic
c al
Ġrele vant
y es
Ġrepl aced
Ġbelie f
Ġag ricult
Ġth read
au g
Ġt ay
j a
Ġhop ing
Ġfundament al
Ġch ick
Ġcru z
Ġal ive
Ġl ad
Ġcompet itive
Ġ4 9
Ġdetail ed
h us
Ġhold s
Ġperson ally
Ġstep hen
Ġhard er
c ript
Ġimmedi ate
Ġoppos ite
Ġdep th
Ġnas a
Ġimmig rants
Ġse es
Ġcol umn
Ġlat ter
Ġsign ing
Ġcr ash
Ġprot esters
Ġdevelop er
Ġem br
Ġencour age
ogr ap
Ġform at
Ġagend a
Ġterrit ory
Ġassemb ly
Ġte a
Ġhon or
Ġrelationship s
Ġwin ner
Ġint ention
ver ty
Ġwhe el
Ġj ord
Ġpro of
Ġal t
ro g
Ġne ut
Ġsc and
Ġ3 4
Ġterror ism
Ġclose ly
Ġa mp
Ġfrequ ently
lic k
Ġtechn ologies
Ġra w
Ġsuff ering
Ġpre gn
Ġpo verty
Ġun us
Ġproper ties
in te
Ġcann ab
Ġw ing
r ated
ur ally
Ġshort ly
es ome
n am
d og
Ġdog s
Ġcath olic
Ġinstit ution
Ġdec line
Ġple as
Ġra pe
Ġg rown
Ġm outh
Ġpus hing
Ġd c
h tt
Ġdescrib e
Ġord ers
Ġsust ain
o le
Ġcarry ing
Ġg ap
Ġsp in
olog ist
wor ld
Ġser ving
Ġdisco ver
Ġprov ince
Ġext ent
oot h
d ri
Ġariz ona
Ġmy th
Ġpalestin ian
Ġliter ally
Ġcircumst ances
Ġi g
Ġmaxim um
Ġapproxim ately
Ġc ia
at i
m ad
Ñ Ģ
Ġform ed
Ġear ned
Ġtrans m
Ġe ating
Ġdan iel
ur ning
is ms
Ġmill er
Ġass ets
Ġse lection
ad el
Ġfly ing
Ġthem e
ien ces
Ġown ed
Ġall ies
Ġa h
Ġt all
Ġeff icient
i ques
Ġre ward
Ġup coming
Ġcongress ional
ol ve
Ġrep orter
Ġsol utions
Ġcon ver
Ġkind s
Ġrep ut
Ġman ner
Ġs ab
Ġrequire ments
Ġc oc
Ġact or
Ġcommit ment
Ġdedic ated
Ġfl av
Ġel ite
Ġext ended
Ġf u
Ġfol ks
Ġcontrovers ial
Ġcy cl
Ġb rian
Ġfield s
Ġmar g
er ves
Ġwil son
Ġun employ
Ġsome how
p ar
e very
Ġd ub
Ġr ating
ate ll
Ġpass ion
Ġc able
Ġrefuge es
Ġcomfort able
Ġsent ence
Ġint ent
ag an
Ġnot iced
p res
Ġmain stream
aw a
Ġfor th
6 8
Ġh oc
Ġmag n
7 8
her s
c king
Ġrefer red
Ġf lex
ens us
Ġrepeated ly
t c
Ġjournal ists
Ġpartners hip
Ġtarget ed
á Ĩ
Ġne uro
v ention
Ġattemp ted
Ġt ab
f all
Ġprotect ed
Ð ½
ock et
r um
Ġ7 5
d ro
Ġdec k
Ġs ending
Ġtrad ing
Ġret ire
Ġben ch
u ated
Ġdatab ase
Ġal i
Ġdeal ing
Ġstru ck
Ġw age
Ġappro val
Ġdet roit
0 8
ne ws
Ġselect ed
Ġb om
Ġi v
Ġoverw hel
Ġsubs id
Ġpo ly
Ġesc ape
Ġcateg ory
Ġd ress
ï ¿
Ġprec ise
Ġad apt
Ġab ortion
w oman
Ġsche me
Ġnar row
Ġslow ly
Ġus ual
Ġaw esome
l ar
d em
Ġcy ber
ph y
Ġemp ire
Ġwal ked
Ġdefe at
Ġemp ty
Ġreal ized
p ool
an es
Ġtyp ical
Ġdown town
st one
Ġconserv atives
Ġg m
americ an
Ġlet ters
Ġca using
Ġdi agn
% )
p ay
iv eness
Ġdep ending
Ġsc ar
Ġtick et
Ġbl ame
Ġdut y
Ġvac c
Ġsurround ing
Ġexc iting
Ġsubscrib e
Ġobser ved
Ġso le
Ġemploy ment
Ġris ks
Ġde als
Ġtransport ation
c d
Ġde leg
in ations
Ġloc ations
Ġbl o
Ġ Î
Ġs om
Ġdeep ly
Ġfor d
Ġadvert ising
Ġze al
Ġacadem y
f ig
Ġmist ake
os en
Ġpo lls
Ġphen omen
Ġest ate
c ers
Ġch at
Ġworld wide
Ġelse where
Ġprom ised
Ġmat ches
s pe
Ġro d
he m
Ġsome where
man n
Ġnav y
Ġrequest s
Ġt ap
Ġst im
Ġstret ch
Ġh its
Ġdis ag
Ġintel lect
ke l
s ch
Ġtest ed
Ġr ay
Ġit aly
az i
Ġ197 0
x ual
Ġd all
Ġfound er
Ġstat istics
Ġjord an
Ġsupport s
Ġfranch ise
Ġcontro lled
Ġemploy ee
Ġem bar
Ġdestroy ed
Ġt ank
Ġcar l
u able
re ct
Ġgeor gia
Ġs ir
Ġbrother s
r ors
ar ks
Ġfigh ters
r ate
Ġcompar ison
Ġle w
Ġimp ressive
Ġargu ments
Ġreg ions
ar ation
y e
Ġtr uck
Ġrem ark
Ġprom ote
Ġfac ilities
Ġsal t
Ġro ot
Ġtop ic
Ġass ume
ens ity
Ġbl ind
Ġfall ing
Ġren t
Ġwith dra
ic ul
Ġlim its
Ġdefin ition
w art
Ġinvol ving
Ġpun ish
Ġsome body
Ġtre es
Ġsur ger
Ġt ed
d it
Ġdirect ed
Ġfe es
ir st
Ġholly wood
Ġprof it
p u
ici ency
am m
Ġa x
Ġth or
st it
f ast
oo ks
Ġnom ine
i ber
Ġmere ly
Ġwor ried
Ġmi ami
Ġcut ting
Ġput s
Ġall iance
Ġ3 9
Ġproper ly
Ġattack ed
Ġcour ts
ic ious
Ġsign al
5 9
ly n
Ġwe ird
Ġob lig
Ġb unch
Ġpar king
Ġdec ent
g ender
o king
Ġmo ore
ap se
Ġke lly
Ġp ir
Ġelectric ity
g b
Ġjo y
ï¿ ½
Ġreco very
Ġwrit ers
Ġtur k
Ġr ab
Ġequ ival
Ġli kes
Ġgood s
Ġli ver
Ġrepresent ative
Ġrecogn ize
Ġan x
Ġe b
Ġprogram ming
Ġminor ity
Ġiniti ative
Ġch ose
p an
Ġang ry
Ġmed ium
b ling
âĢĻ .
Ġdoll ar
ing u
Ġmix ed
am in
Ġpil ot
ins on
Ġstrong ly
Ġdes per
Ġindepend ence
Ġassist ance
Ġgrant ed
Ġoffic ially
os is
6 7
0 9
Ġj ur
Ġide al
Ġspan ish
Ġexp osed
Ġhous es
wor th
Ġend ing
Ġpay ment
or ation
Ġs atell
el ine
Ġshad ow
e z
Ġhar ass
Ġunivers al
Ġg y
Ġh idden
Ġobtain ed
c us
Ġo m
Ġcoun sel
ter ing
t es
Ġspeak er
ur ation
Ġar ts
Ġmeet ings
Ġelectron ic
Ġcond em
Ġcomp onents
Ġunder stood
Ġem issions
Ġansw ers
te en
Ġd ad
Ġque en
Ġenem ies
Ġpay ments
Ġr ush
Ġdis rupt
Ġres erve
Ġpain t
our s
Ġch osen
Ġestim ates
Ġtas te
Ġdis ney
Ġinc l
Ġdesc ription
Ġh ay
al le
se a
Ġcons pir
Ġjose ph
d ed
Ġtrans pa
Ġas ian
Ġult imate
Ġs essions
Ġdef ic
Ġaut o
Ġcomp rom
im ents
Ġincred ible
r ad
Ġcho ices
Ġstrong er
Ġhoc key
Ġt ies
Ġr ival
Ġr h
Ġo ak
Ġn hl
Ġcontinu ing
Ġdri ven
Ġret urning
Ġir ish
Ġenter pr
0 6
Ġreg ister
Ġlawy ers
Ġt ony
Ġlo an
0 7
h um
ow a
pe ople
Ġext ensive
Ġsh ield
Ġpl astic
Ġveter an
un ction
Ġc d
Ġreve al
Ġacadem ic
Ġmach ines
Ġdo z
l ock
Ġcontrol s
Ġext ract
Ġdre w
nes ota
Ġgr ass
Ġrepresent atives
Ġs oul
Ġfind s
Ġtow er
Ġrob ot
w an
Ġclaim ing
t v
Ġfeed back
Ġscot land
ic ial
Ġprogress ive
Ġse ats
Ġf ake
Ġk h
Ġra ising
iz z
Ġo ri
Ġ4 2
Ġye llow
Ġw ine
Ġbasket ball
Ġnar rative
Ġpurp oses
Ġlight s
Ġman ip
Ġre tain
Ġa le
Ġo dd
Ġperman ent
Ġcapt ured
st al
en g
ire ct
5 8
Ġl yn
Ġa z
Ġad s
Ġreason able
int end
ap y
Ġcannab is
it arian
Ġimp lic
Ġdra wn
Ġr ick
lud ing
Ġgot ten
Ġlaw makers
Ġj osh
e ven
Ġprim arily
Ġlin ux
Ġam ounts
p es
Ġdall as
e lect
Ġital ian
Ġcons cious
Ġaspect s
b ro
Ġc ree
Ġthreat ened
Ġt el
or a
Ġtick ets
0 4
ra id
Ġcapt ure
Ġa venue
Ġt ip
Ġgalax y
Ġcon ven
Ġh ang
Ġconst antly
Ġsoc cer
Ġp ace
ast s
Ġdist inct
Ġb ath
Ġperfect ly
Ġregist ered
Ġch ances
Ġdr inking
Ġa u
Ġhistor ic
f riend
Ġbr anch
Ġcontribut ed
Ġcomp ens
Ġreject ed
ul s
Ġsp ain
Ġapart ment
Ī Ĵ
Ġmin nesota
Ġacc omp
Ġrul ed
on om
Ġha bit
ce ler
0 2
Ġcon ce
Ġnew ly
Ġout come
Ġter rible
Ġteach ing
Ġsor ry
Ġcl ients
al f
Ġincred ibly
Ġtay lor
Ġins ight
Ġmar sh
Ġex cess
Ġsu gar
Ġany more
Ġorgan ized
Ġpl ug
Ġs oph
ess ed
Ġfun ny
Ġprincip les
Ġg a
is er
Ġrec ording
Ġst uck
Ġ5 5
ain e
Ġregular ly
Ġgener ate
Ġconsum ption
Ġwork er
Ġh ind
Ġill ustr
Ġsh r
Ġresult ing
Ġun p
Ġatmosp here
Ġent hus
n i
Ġal ien
l og
Ġro ster
Ġt ied
Ġpur s
9 8
Ġcitiz en
Ġb ang
Ġaccur ate
Ġdisco very
Ġcruc ial
Ġkeep s
ill s
Ġpenal ty
Ġa k
adel ph
Ġinform ed
0 3
se ll
Ġcomp re
Ġinter pret
Ġext ension
Ġran king
in ity
Ġdis aster
Ġrout ine
Ġprodu cer
Ġn bc
Ġd na
Ġsy mpt
Ġperson nel
Ġscen es
Ġp ent
g un
Ġve get
ed ia
Ġmo sc
Ġbr on
Ġbr ut
Ġsit uations
Ġpri ze
Ġex ists
Ġg ate
Ġdoz ens
Ġrefe rences
Ġexplan ation
ty pe
Ġhor se
Ġdem ands
p age
Ġaggress ive
Ġrel ief
Ġ %
re r
m od
Ġen able
Ġwar ming
or row
Ġext rem
is an
adelph ia
Ġcompl aint
Ġbl ocks
Ġover se
Ġw rest
Ġconclud ed
Ġp ump
5 7
Ġwar ri
r age
Ġok ay
Ġpriv ile
n is
Ġexp osure
Ġrac ial
Ġdo zen
Ġtechn iques
f a
Ġd ust
." [
Ġins pir
re f
Ġg ift
Ġcorrupt ion
Ġph r
f i
Ġsp ons
Ġpro ved
Ġevery where
Ġstrateg ic
Ġinter face
Ġbu ck
Ġst em
ow ed
ag ram
Ġho le
l u
Ġst ab
Ġj ason
Ġsher iff
Ġrec ip
Ġtit les
Ġtw enty
Ġconstitution al
Ġdep ression
Ġpac ific
Ġinn oc
Ġfall s
Ġk ir
Ġsurger y
Ġfound ed
Ġrepresent ed
Ġdi am
ch ain
Ġphilosoph y
Ġdeg rees
Ġ199 9
a id
Ġmosc ow
Ġweek ly
it ar
ren e
Ġbrow ser
in er
Ġph ones
Ġd ict
Ġsuccess fully
Ġpl ate
Ġant icip
Ġsurv ive
3 00
Ġk ent
Ġg at
Ġpass es
Ġcomplic ated
pr int
Ġun if
ian a
Ġpattern s
Ġm aps
Ġmanufact uring
Ġval uable
Ġun certain
Ġ6 5
Ġdeli very
Ġafford able
Ġreput ation
Ġprop ag
isc ons
reg on
âĢ ĺ
Ġac celer
Ġo w
Ġ( $
Ġnegoti ations
h is
Ġ6 4
iscons in
ex p
Ġestablish ment
Ġinvestig ators
et ime
pect ed
f ound
Ġj ac
end ers
Ġl ady
Ġsimilar ly
ograph ic
Ġf red
Ġab st
gor ith
p al
Ġnav ig
Ġo regon
Ġleg acy
Ġautom atically
Ġcollect ed
Ġfore ver
Ġpubl isher
Ġtrack s
Ġfarm ers
so le
< /
Ġa wards
Ġv iet
Ġposs ession
Ġf inger
Ġthous and
Ġnorm ally
Ġfr ustr
Ġth ick
Ġprom inent
Ġa er
Ġar ray
Ġinstall ed
u gh
Ġcom ics
Ġsol ve
h op
Ġele v
Ġmain ly
Ġaim ed
Ġeng aged
mon th
Ġoper ate
os ing
Ġmar ked
.... ....
j s
Ġaf raid
Ġneut ral
Ġimplement ation
l ers
Ġal ab
Ġsim pl
Ġvulner able
Ġe cho
Ġprior ity
Ġhen ry
Ġpr ince
ll o
the n
Ġaff ili
Ġphil adelphia
Ġi owa
Ġfe e
Ġstr ict
Ġbus y
Ġequival ent
Ġst ations
c les
Ġsett ings
Ġt aught
Ġatt ended
Ġreview s
Ġcomp onent
Ġk at
id ency
Ġsan ctions
Ġstri kes
Ġexclus ive
Ġform al
Ġsh ock
Ġint ense
Ġal gorith
h r
Ġprinc iple
Ġcontract s
5 6
Ġmar vel
Ġob st
Ġdra wing
Ġgener ated
Ġfact ory
it als
Ġap olog
! <|
Ġor ange
Ġrare ly
Ġf isc
Ġscen ario
al a
Ð¾ Ð
Ġmil k
Ġp ounds
Ġfr ag
Ġenjoy ed
Ġmar ine
ib ilities
Ġsuff icient
Ġav o
Ġdin ner
Ġst ack
Ġprem ium
Ġpe ak
Ġhy per
Ġgard en
Ġdo ors
Ġlg bt
Ġent it
Ġvis ited
Ġexpect ations
Ġunus ual
Ġprocess es
Ġveter ans
m it
Ġin ev
Ġst un
Ġon t
Ġcomput ers
Ġw isconsin
n c
Ġclub s
Ġexp licit
Ġcamer as
Ġgree k
Ġsy mp
n on
Ġwonder ful
ã Ģ
Ġg ig
Ġlo yal
Ġr if
Ġhar ry
Ġ âĢĻ
Ġg ut
Ġtom orrow
Ġb ry
Ġhope fully
Ġport ion
ific ations
Ġmar s
Ġfeel ings
Ġfir ms
% .
ot es
Ġh ub
Ġhol iday
Ġcomed y
==== ====
p ower
r ics
Ġjournal ist
qu arters
te ch
Ġcreat es
Ġand re
Ġste am
Ġp as
Ġper ce
re te
) )
aren ess
Ġ4 4
u ine
Ġbu g
Ġv ital
Ġcompet e
Ġto ler
Ġdescrib es
Ġho ly
Ġ4 7
Ġwall s
Ġadop ted
Ġf ought
Ġsc oring
Ġprocess ing
Ġast ron
Ġdr agon
Ġ4 00
Ġan ton
Ġmon itor
en a
Ġrac ing
Ġy ield
Ġro ok
Ġwar rant
Ġalab ama
Ġpr ay
Ġdest ruction
Ġsh ips
Ġgo v
Ġt s
l an
Ġperm ission
tr ans
Ġc ited
ph ones
Ġhad n
ed a
Ġvis ible
Ġd ance
Ġliqu id
j i
li x
Ġfoot age
m ade
m ay
Ġar sen
Ġzeal and
Ġemerg ed
Ġland sc
Ġresult ed
Ġintellect ual
Ġtrans it
Ġg if
Ġl oud
Ġloss es
Ġepis odes
ath y
ol is
Ġro of
act ions
8 6
Ġframe work
Ġnewslet ter
Ġwe lf
m aking
Ġf iction
Ġla id
Ġl ane
Ġlangu ages
av ing
up id
b b
Ġschol ars
Ġv r
Ġen orm
Ġredu ction
ri a
Ġbor row
idel ines
Ġse pt
Ġman chester
Ġj ay
Ġsa ved
get ty
r ough
c ore
Ġguard ian
Ġwelf are
âĢĻ ,
Ġgre g
Ġex ternal
Ġcirc uit
Ġmind s
van ia
Ġtrig ger
Ġare na
Ġresour ce
Ġkn ight
Ġinnov ation
Ġexcept ion
Ġr ice
Ġparticip ate
Ġr ank
Ġe ag
u ous
Ġphys ic
Ġsm oke
Ġinterview s
m ate
Ġst y
Ġst able
Ġprot ocol
Ġent ering
Ġt ail
Ġinv ent
Ġread er
Ġmat the
Ġatlant a
as ion
Ġprofess ion
Ġb in
ur b
Ġl ind
Ġp ad
Ġre ven
Ġsn ap
Ġliber ty
Ġgen uine
Ġg ained
Ġban ned
Ġintrodu ction
Ġing red
Ġam id
Ġsh it
Ġc u
Ġig no
ant ic
Ġlob by
Ġa ver
wh y
iz on
Ġp apers
ask a
Ġ15 0
Ġret ired
Ġro ber
Ġturk ish
Ġgh ost
Ġ4 1
re c
prof it
il ton
Ġmen u
Ġdiscrim ination
p y
hen tic
Ġar c
Ġscre ens
Ġfigh ter
Ġcollect ive
Ġwat ers
6 9
s pec
er n
Ġm ath
Ġp ul
Ġcommand er
Ġwhen ever
Ġwal ker
Ġprep are
Ġmove ments
Ġbeh alf
Ġdynam ic
Ġarr ange
fr ont
Ġtrans gender
het ic
Ġhead ed
Ġgon na
Ġw ww
Ġt um
Ġre ar
Ġlist ening
Ġp ig
Ġcent ers
Ġgu est
Ġstrugg ling
ig en
Ġcirc le
ber ry
don ald
Ġli by
Ġsm ooth
Ġre ly
ed ing
Ġan ger
Ġro les
Ġnat urally
Ġc el
Ġ- >
Ġco gn
ic y
Ġfisc al
Ġdeli ber
Ġch ip
Ġdie go
the se
Ġfeat uring
Ġp el
ri fic
if ies
Ġback ed
Ġfl aw
Ġt am
o e
Ġachie ved
Ġb ird
Ġrecogn ized
Ġfriend ly
Ġb ail
Ġequ ally
ann y
Ġw ard
Ġh ook
Ġf c
Ġbare ly
Ġ4 3
Ġli ked
Ġcont aining
Ġadvent ure
Ġ19 60
Ġ199 8
Ġtack le
or ic
ose xual
Ġbelie fs
Ġindic ate
Ġgra v
Ġrock et
Ġhor ror
r ical
Ġreg ulation
rat ors
Ġpres um
5 4
5 2
Ġg ross
Ġr ural
Ġcorpor ations
Ġinc ent
Ġout s
Ġrecogn ition
Ġsw im
il er
c or
Ġlog ic
bur gh
Ġh ired
c ond
sy l
Ġstruct ures
5 1
Ġab c
Ġpat rick
Ġw ides
+ +
p read
Ġb und
Ġanth ony
Ġred dit
Ġut il
ang es
Ġpres c
y er
Ġmcc ain
Ġnomine e
Ġ 00
Ġgr id
am ac
Ġ4 6
Ġex it
Ġsc ores
est ed
r ass
Ġbern ie
Ġbon us
is a
Ġnat o
Ġbo at
Ġu fc
Ġk ansas
g i
Ġrecomm ended
Ġh itting
es y
as hes
p ress
ang el
Ġpract ical
Ġcompre hens
Ġrestrict ions
Ġtechn ique
Ġjoin ing
Ġvisit ors
ir a
Ġhard ly
Ġcon sole
Ġr s
9 7
Ġprov en
Ġluck y
Ġeth nic
Ġview ers
ili pp
f in
Ġh unt
l ate
Ġill ness
b les
Ġunemploy ment
ou red
________ ________
Ġm m
Ġun com
Ġno ise
Ġover s
Ġroad s
: <|
Ġg ent
Ġredu cing
Ġmar ks
Ġwebs ites
us er
Ġconv in
p at
og en
Ġanonym ous
Ġshe ll
Ġaw areness
Ġi os
Ġc rown
Ġcorpor ation
w ill
h d
Ġreach ing
vel and
Ġblock ed
Ġchallen ging
Ġper pet
Ġsett lement
Ġb ub
less ly
et ts
Ġinqu ir
ag ger
Ġlic ens
Ġcont ained
Ġup set
Ġre vel
Ġchrist ians
: :
Ġmin i
it ors
Ġinter ior
Ġconv icted
Ġany body
Ġin ject
et ary
Ġbeaut y
Ġfr uit
Ġj ury
Ġprodu cing
rat or
Ġcas ual
op her
Ġmin ing
Ġcampaign s
Ġbe ars
Ġbr ill
asc ript
Ġimprove ments
Ġl ux
Ġfant astic
Ġall en
amac are
Ġcoll apse
Ġaust in
ou ver
Ġesp n
Ġupgr ade
as hing
Ġscand al
ou ch
Ġin ner
Ġcom pe
Ġcamer on
h igh
Ġl ists
Ġsant a
Ġcl ock
su pp
Ġlat in
Ġresc ue
% ,
u ce
Ġcommission er
ri ers
Ġinf o
Ġrep rodu
Ġdivers ity
Ġrac ist
Ġx box
Ġm l
Ġs ams
Ġconnect ions
Ġsubject s
Ġterror ists
Ġro y
Ġadvoc ates
Ġm erc
Ġv a
Ġconspir acy
Ġwides pread
Ġton ight
on ly
Ġcont ribute
Ġsh a
Ġsp aces
sel s
Ġi ii
Ġhuman ity
Ġpenn syl
Ġcompl aints
4 00
Ġel ig
us ive
5 3
Ġmiss ile
Ġdr um
Ġrefer ring
Ġi b
Ġpat ch
Ġh an
Ġsett le
Ġbehavi our
Ġk m
Ġcare fully
Ġget ty
he rent
Ġas ks
Ġrapid ly
ment ed
al i
oun ced
pl us
Ġr av
Ġimprove ment
Ġsens itive
Ġgen etic
Ġindic ated
Ġbeg un
Ġqu ote
Ġhead ing
Ġf oss
igh ter
ap es
el ess
t urn
Ġst upid
Ġap i
Ġdef ine
y ard
Ġnot ion
Ġchick en
Ġs ony
a ire
Ġp orn
Ġdev ast
Ġowners hip
on ing
Ġsc an
Ġins pect
Ġun ex
Ġfail ing
Ġrec over
â ĸ
Ġsuggest ing
es c
Ġl t
Ġtemp orary
Ġincor por
c ase
Ġt ren
Ġc av
Ġun w
Ġex ceed
anc ouver
Ġan s
Ġt one
Ġwhere as
Ġneigh bour
9 6
az z
Ġvers us
Ġhyp ot
Ġt ill
Ġcab inet
Ġv ary
tim ore
Ġro ss
Ġcontrovers y
uck y
Ġeconom ics
Ġlay er
p ack
Ġmon ster
Ġforg ot
Ġsu m
u ch
ion e
Ġn c
Ġpennsyl vania
ach us
Ġtemp le
Ġs amples
Ġv es
Ġne ck
Ġtest im
Ġequ ality
Ġsp ar
Ġpl ain
8 7
ak a
Ġpublic ation
Ġperson ality
Ġtas ks
Ġuncle ar
Ġw ol
ment al
Ġoverwhel ming
Ġdisag ree
Ġsumm it
Ġinvolve ment
Ġal ph
Ġact ors
st ep
th on
Ġran ked
Ġisland s
Ġconvin ced
Ġfort un
Ġbar s
Ġman if
it o
Ġst ol
ud es
Ġph ilipp
Ġde eper
h our
Ġgen e
Ġsal ary
Ġf allen
Ġc her
Ġign ore
Ġco aches
a way
Ġprosecut ors
Ġgen es
Ġsympt oms
Ġphot ograp
Ġdo d
act ive
ist ent
Ġt es
Ġw ages
Ġass ass
Ġth rown
Ġal bert
Ġs ed
Ġc bs
Ġsure ly
Ġc ine
olog ists
on so
Ġaccomp an
Ġarab ia
Ġclos ing
Ġguaran te
Ġhero es
Ġmus ical
Ġinter vention
Ġser ves
Ġassess ment
Ġrespect ively
Ġr ational
he ast
ul ating
u ing
Ġcol ors
Ġinvestig ate
Ġc ul
Ġdr ama
Ġt ie
Ġsur f
Ġand erson
Ġinv ited
r c
il a
Ġcr us
Ġd ump
Ġfire f
Ġt u
im m
Ġactiv ist
Ġlo ans
Ġest imate
Ġo tt
ino is
j e
Ġbud d
Ġsuper ior
be red
Ġr aces
Ġf ault
Ġexpand ed
l ast
achus etts
Ġpar alle
ned y
s ub
ar ity
Ġsams ung
Ġgr ade
Ġlet s
Ġrid icul
Ġattack ing
an ing
Ġdiscuss ions
Ġplatform s
m ont
Ġspirit ual
Ġgl ad
Ġve gas
Ġtr ained
Ġaut hentic
m us
Ġd ave
Ġleg s
Ġgr ay
Ġfood s
Ġtop ics
Ġimplement ed
Ġcre am
Ġdis pl
re le
o en
Ġbro ok
Ġcivil ians
Ġmet ro
Ġd ol
Ġbo ot
Ġjud ges
Ġn sa
o ked
Ġground s
Ġbl ast
Ġro lling
Ġt ut
Ġattemp ting
Ġdemon st
Ġopin ions
ih ad
Ġ199 7
Ġrem arks
Ġ199 6
Ġliter ature
Ġhar ris
Ġann ivers
Ġag es
Ġatt ached
v y
Ġcolumb ia
Ġe ve
Ġhow ard
n at
Ġvot er
Ġtouch down
Ġpr ide
Ġp or
Ġn u
Ġext end
Ġlew is
Ġglo be
Ġsw ing
Ġsen ators
b ig
Ġgree ce
Ġprov iders
Ġamb ass
Ġt ips
Ġst ake
Ġdom ain
Ġob amacare
Ġu ber
con nect
g ood
Ġdram atic
Ġstren g
g al
Ġgat hered
Ġdisc ip
ar on
8 5
Ġvirt ually
Ġv ancouver
Ġn in
Ġhead quarters
Ġgu itar
Ġke ys
Ġp ier
Ġpet ition
Ġmass achusetts
Ġhealth care
im a
Ġtweet ed
Ġprote in
c os
Ġr amp
um es
Ġhighlight s
st ation
Ġsubsequ ent
Ġhy dro
Ġview ed
c ia
Ġa i
Ġpurch ased
Ġdisapp ear
Ġnot ing
gr aph
ik es
Ġken nedy
Ġcham ber
Ġhigh way
Ġcomp are
Ġarsen al
Ġcle veland
Ġlegisl ative
f irst
Ġhome less
Ġgi ants
Ġsuspect ed
Ġmonth ly
Ġbal timore
Ġtre m
Ġche st
Ġf ate
Ġhand ful
Ġv ib
r ac
Ġprogram me
Ġsurv ival
inc luding
Ġ ~
Ġbu zz
Ġseem ingly
Ã Ĺ
Ġab b
Ġchr on
g ent
Ġsuff er
Ġe lder
Ġto y
Ġco vers
Ġoffic es
Ġpres idency
Ġannivers ary
Ġiran ian
Ġill inois
Ġinvestig ating
wh ite
Ġ5 2
Ġdist ributed
our ce
Ġh ip
Ġ201 9
Ġp icks
7 6
l ah
Ġstri p
Ġadm it
b ow
Ġindust ries
Ġenorm ous
Ġclot hes
Ġres ign
Ġsurv iv
are t
Ġread s
Ġthrow ing
Ġf ulf
Ġcare ful
Ġt ent
Ġatt itude
Ġop ens
Ġcontribut ions
Ġus age
Ġunivers ities
Ġlegit imate
rend um
Ġinfl ation
Ġb ind
Ġguaran tee
Ġsubstant ial
Ġ _
Ġabs ence
Ġsusp ended
Ġpre ced
Ġrub y
Ġreb u
te l
Ġspeak s
Ġembar rass
Ġhand ling
or se
ar ms
Ġeff iciency
r ont
Ġm es
re ts
Ġsho pping
Ġsw ord
ast y
f und
Ġfear s
b in
l if
oc ation
Ġform ula
Ġjun ior
' .
Ġc ig
ust ed
Ġbac ter
Ġmo le
w ind
Ġtrack ing
Ġart ific
Ġmonit oring
Ġske pt
p c
Ġiraq i
Ġph arm
Ġlow est
Ġ ?
Ġche ese
intend o
et ch
8 9
Ġbur ning
is p
Ġpass word
Ġsh out
Ġâ Ĥ¬
own ed
Ġb read
x it
Ġgaz a
bo y
Ġmembers hip
Ġscient ist
Ġdep ends
Ġinvol ves
Ġh ug
Ġun ions
th rough
Ġjav ascript
Ġg ains
Ġcourt esy
Ġarchitect ure
Ġfo ol
um a
Ġpipe line
Ġconvers ations
tw o
Ġprof its
Ġsatell ite
Ġt ens
Ġpassen gers
bu ild
n g
" )
Ġbut t
Ġimper ial
Ġg or
oty pe
Ġban king
Ġbes ides
Ġrook ie
Ġstay ed
Ġcor p
Ġimpro ving
Ġmr s
j ud
Ġp ant
## ##
Ġinstruct ions
Ġconsist ently
l ad
Ġw olf
ro lled
Ġt ape
Ġent r
Ġhand ed
Ġp ix
Ġrefe rendum
Ġc au
. -
r as
sec ution
Ġcooper ation
Ġhur ric
Ġmid field
b its
ic on
ĠâĢ Ŀ
Ġcor n
Ġprotect ing
b led
Ġcover ing
Ġdiv ided
Ġbir ds
Ġreplace ment
Ġsar ah
Ġl ying
ij ing
d ep
Ġmexic an
Ġextra ord
Ġball ot
omm od
Ġtemper atures
Ġac id
Ġren der
ll ar
we red
d ate
Ġrespons es
Ġdep os
Ġaddress ed
Ġde lic
rep rene
Ġshould er
Ġjust in
sc ale
ret t
Ġtri es
Ġ áĦ
Ġkit chen
Ġle af
Ġs ie
ust ration
b us
Ġ5 1
Ġto xic
Ġprom ises
pp ers
Ġacc ommod
Ġincident s
Ġfor b
Ġu g
Ġtr ave
Ġappreci ate
Ġgall ery
Ġbel t
Ġinvestig ations
Ġalex ander
ne ys
Ġr het
Ġbo om
Ġb ible
Ġp ocket
y stem
Ġk ong
Ġar k
Ġenterpr ise
Ġspe ll
Ġsil ence
Ġpers ons
bec ause
Ġso il
Ġp ill
ov al
Ġspokes person
Ġrac ism
Ġsc ope
Ġche cks
q l
Ġjo ke
Ġord inary
Ġran ks
Ġliber als
ack ing
Ġclin ical
f lix
le e
Ġspok en
Ġtrans actions
Ġencour aged
Ġvir us
Ġmist akes
Ġin equ
Ġperform ing
! )
Ġrat io
Ġblock chain
br idge
Ġacc us
m ans
Ġcan ce
Ġobject ive
Ġpo ke
Ġf isher
Ġsur ge
d i
m ind
app ing
Ġrat ings
Ġl ocked
Ġengine ers
Ġw is
Ġ199 5
Ġd ates
Ġbreak s
Ġcop ies
ict ions
Ġwar n
Ġche l
it age
Ġsecond ary
tr ump
Ġj ar
Ġsa ving
Ġbul let
v p
Ġm all
Ġmar gin
Ġstol en
Ġpubl ishing
Ġmore over
Ġmem orial
Ġaband oned
uc king
Ġse ar
Ġconvention al
Ġabst ract
Ġb orders
Ġp ink
Ġstri king
j an
Ġw ra
Ġl un
q a
Ġ vel
Ġden ver
Ġsm ile
Ġman aging
Ġindian a
Ġacqu ired
Ġinv al
" .[
d ie
c ur
Ġdocument ary
Ġm ile
Ġport land
Ġent reprene
p ie
z er
Ġk u
Ġchild hood
Ġv ig
Ġfo ld
Ġport ray
Ġland ing
Ġcommon ly
l en
Ġst ages
c ap
Ġliver pool
iv als
Ġse ed
Ġtown s
Ġcoun ts
Ġep ic
Ġjon athan
Ġgrad uate
Ġpod cast
Ġdisc our
Ġj et
Ġtact ics
âĢĶâĢĶ âĢĶâĢĶ
Ġtw ist
Ġvis iting
um in
Ġsm oking
w atch
Ġrece iver
Ġha z
Ġhelp ful
Ġconc rete
Ġenc ry
Ġfund ed
f are
Ġrober ts
Ġretire ment
Ġass ert
Ġn intendo
t ar
Ġmechan ism
it i
**** ****
7 9
Ġd ick
Ġlandsc ape
b ase
Ġbl ank
b en
Ġrec ipe
Ġbut ter
Ġswed en
7 4
Ġth rew
Ġappear ances
Ġmir ror
Ġdis order
Ġnom ination
Ġmeas ured
Ġmat he
Ġdi verse
ap ing
Ġrepe at
Ġg ulf
i ot
ep ing
7 2
Ġh u
f ol
Ġcor ps
he im
Ġsh ame
pe l
Ġass ign
Ġg ord
Ġdist ract
l c
Ġlet ting
Ġsupp lies
Ġprodu cers
Ġmun icip
Ġwar ren
Ġatlant ic
Ġunder ground
Ġco in
Ġfle et
Ġst al
Ġinst ant
Ġut ah
Ġfore cast
Ġsequ ence
Ġpropos als
b ac
Ġk iss
al o
m art
Ġacknowled ged
Ġ199 4
er ted
Ġdis h
Ġgra ham
ab eth
Ġarri ve
Ġdead ly
Ġrestaur ants
Ġaut onom
ing ton
Ġst ro
Â Ĵ
Ġont ario
Ġreli able
Ġro s
Ġse ct
Ġmort g
Ġcap abilities
ag a
az e
Ġelect oral
Ġstud ied
Ġse vent
Ġv it
Ġrec re
Ġl unch
Ġpo ison
Ġse mi
ik a
em en
Ġblo om
Ġassoci ate
Ġrepresent ing
Ġgraph ics
Ġ( âĢľ
Ġle on
Ġre verse
ig ue
Ġprison ers
ht ml
Ġigno red
Ġg ab
Ġbe ijing
Ġcap it
Ġdemonstr ated
ut ed
Ġprov ision
Ġmer ch
Ġbrill iant
Ġed ward
Ġf uck
Ġdre ams
Ġdefic it
ke e
lah oma
Ġimportant ly
Ġsav ings
Ġse an
iet ies
Ġexper iments
Ġclass ified
Ġplayoff s
do or
Ġcoord in
Ġbreat h
Ġabs or
Ġmem o
Ġcomprehens ive
Ġod ds
te x
back s
Ġtarget ing
o ch
Ġinc omp
d ney
Ġbo ld
Ġstre aming
Ġfrequ ency
Ġmo dule
Ġab road
Ġdesign s
Ġsix th
Ġchann els
Ġtestim ony
Ġoverse as
s d
Ġtort ure
Ġpu zz
v o
Ġel iz
Ġpolit ically
Ġviol ation
fe rences
aut hor
cl aim
Ġappoint ed
Ġlo op
Ġal ter
8 00
Ġvo ices
Ġcry pt
Ġser vers
est y
Ġst ability
in ction
st ring
Ġste ven
Ġc ock
Ġcar ter
ian o
in ch
Ġpop e
Ġanx iety
Ġgu idelines
Ġfocus ing
Ġd ies
Ġbru ce
com es
Ġorgan ic
Ġstat ist
Ġhop ed
Ġprincip al
Ġbur den
le ft
Ġfir ing
ro ck
Ġk ings
Ġbet a
Ġab ilities
Ġpredict ed
ct ic
ach ing
Ġthe ater
Ġexec ution
in st
ow ing
Ġgener ations
Ġengine er
d iv
en cing
Ġw aves
wor king
Ġsh ipping
Ġh d
Ġunex pected
Ġsw ift
Ġher itage
Ġrevolution ary
Ġaccompl ish
Ġch ocol
Ġrep lied
Ġo sc
Ġ20 20
Ġspect rum
Ġolymp ic
Ġk y
Ġcritic ized
Ġaddition ally
Ġsold ier
Ġstrateg ies
Ġeduc ational
Ġinnoc ent
Ġmary land
Ġw ond
bre ak
Ġdut ch
Ġsmart phone
Ġy an
Ġloo se
ab out
we ek
b ors
Ġnet flix
Ġinsist ed
Ġmag net
Ġj en
Ġentit led
z ed
Ġb ish
h ard
Ġambass ador
Ġencoun ter
Ġchar ity
Ġspokes woman
m id
Ġrele ases
Ġland s
Ġdist ingu
Ġtri als
Ġdro ve
Ø §
Ġdismiss ed
in ks
Ġbatt les
Ġpar ks
the less
Ġdr one
Ġam y
Ġn ur
Ġw ider
arch y
Ġconf ront
Ġun de
Ġpropag anda
Ġrequest ed
Ġu l
Ġhe y
Ġprep aring
Ġd ying
Ġcivil ian
Ġv in
Ð »
Ġmyster y
Ġcelebr ate
Ġpopul ations
Ġcontr ad
Ġtit led
vere ign
Ġtren ds
Ġproced ure
mark et
Ġc m
Ġintrodu ce
Ġat he
Ġrel ax
z ing
Ġ5 3
Ġwe igh
Ġdifficult y
Ġdial ogue
Ġbel g
usal em
Ġok lahoma
pp y
Ġg ary
htt p
part y
6 3
Ġharv ard
t ra
Ġbr us
Ġd ual
ab et
ad s
Ġde em
Ġcapital ism
u le
Ġsubm itted
m em
e xt
Ġur ged
ult ane
itz er
Ġj ihad
Ġkur d
s is
Ġform ation
Ġroom s
Ġ vert
Ġanalyst s
Ġemerg ing
Ġagricult ure
go vern
Ġcal m
Ġgather ing
ir ts
Ġcat al
oen ix
Ġr iding
Ġpurs ue
Ġthor ough
Ġther apy
is ons
Ġphr ase
ie v
co ver
Ġpopular ity
Ġst ats
Ġrep lic
Ġpr on
Ġround s
Ġt ables
Ġfor cing
Ġphys ics
Ġer rors
Ġchel sea
Ġco inc
Ġf ame
Ġemploy ed
st op
room s
Ġpsych ological
Ġregul atory
Ġorgan isation
Ġa qu
Ġw ings
ag r
Ġkn ee
or gan
v d
Ġar bit
rem ony
Ġout rage
Ġse m
Ġreb els
Ġ9 5
20 14
Ġ **
Ġmem ories
Ġad ap
Ġfo ster
Ġbi as
Ġmem or
Ġjud gment
Ġingred ients
n ie
Ġun ity
Ġden y
6 2
Ġce remony
Ġcha os
Ġreve als
Ġinvest ments
h ill
Ġex ha
" >
Ġinst agram
Ġargu ing
Ġdon ations
ors hip
Ġsol o
Ġto dd
Ġbo e
Ġle ct
er ts
v ia
Ġcommun ist
Ġharass ment
Ġstay ing
et ers
Ġwealth y
Ġnot able
Ġnever theless
Ġsim ultane
sh ire
Ġdemand ing
min ute
Ġcons ent
d el
Ġste re
Ġappro ached
om ed
Ġham ilton
6 1
Ġhun ting
Ġsil ent
Ġint im
Ġsy dney
Ġbat man
Ġj ets
Ġphenomen on
Ġsp o
Ġcateg ories
ad er
Ġh ong
oun ce
h ot
Ġthe ore
um ber
Ġwh is
Ġc iting
Ġexp ort
ll ah
z o
Ġs ne
Ġact ively
ou ri
Ġcomp at
st ri
p d
ur d
Ġme g
Ġhun ter
Ġimplic ations
Ġviet nam
Ġdead line
Ġposs ess
Ġreform s
Ġqu oted
Ġdesign er
Ġpoint ing
Ġhe lic
Ġscott ish
Ġal ert
Ġexecut ives
omp son
Ġquestion ed
Ġst amp
rat ic
Ġpass age
Ġrev ol
Ġh t
Ġpers u
Ġsp ots
Ġg il
6 00
r ition
Ġset up
Ġsett led
Ġun pre
Ġenh ance
ap olis
at ar
ene z
qu est
Ġd j
Ġsim on
Ġh orn
sh ot
Ġinquir y
net t
Ġarg ues
Ġbroad er
Ġber lin
Ġfr an
Ġbott le
Ġthreat ening
Ġsto red
Ġparticip ation
Ġ199 2
Ġp ear
Ġso vereign
Ġcont ribution
Ġclot hing
Ġathlet ic
Ġdri ves
Ġori ent
Ġwitness es
Ġ5 4
Ġ9 9
Ġfurther more
Ġt ai
er ies
att an
Ġv end
Ġdef ending
Ġp icking
Ġl apt
Ġjer usalem
Ġg t
Ġd ating
Ġmaintain ed
he ld
Ġcons ensus
Ġten nes
Ġg olf
se ct
Ġmiss ions
an im
Ġmor gan
Ġprecise ly
Ġfoss il
Ġsubst ance
Ġsign ature
Ġrecru it
Ġf ing
Ġman agers
Ġt iss
Ġre vers
Ġje an
Ġcharl ie
Ġsing er
c as
Ġdifferent ly
Ġfollow ers
Ġs orts
Ġfab ric
Ġjournal ism
Ġdise ases
Ġpresent ation
Ġw ounded
Ġwant ing
d ers
Ġdel hi
Ġstud ios
Ġdes erve
Ġmus cle
Ġdes ert
w all
Ġcontemp orary
l ink
Ġthe ories
er ia
Ġtr illion
Ġprom ising
not e
bl ack
Ġag ed
Ġpr in
7 1
Ġtrans action
comm un
Ġn urs
aw are
re ll
Ġconsider ation
if er
Ġathlet es
ch ild
9 2
Ġmur ray
Ġkil omet
ten ance
ial s
Ġbirth day
Ġe ase
Ġphys ically
Ġshe et
Ġcompet ing
Ġadvis er
m atic
Ġn ap
ab s
Ġsocial ist
m ath
se ction
7 3
pres ident
Ġjav a
9 3
Ġsumm ary
Ġcred its
Ġl av
Ġdemonstr ate
Ġaward ed
Ġinv asion
Ġhosp itals
Ġp unch
s omet
om y
if i
f it
Ġkill er
Ġass et
Ġut ility
Ġover l
9 4
Ġhen ce
Ġpalestin ians
Ġtrem end
Ġdesk top
h ist
Ġstrugg led
Ġdiam ond
Ġunif orm
Ġth ompson
Ġregist ration
iz er
Ġgreat ly
Ġrus sell
Ġro ots
Ġup load
Ġassum ed
Ġcreat ures
Ġde an
Ġbi ological
Ġal an
Ġhaw ai
Ġcome y
Ġn ich
Ġgre y
ah u
Ġhost ed
Ġw et
Ġoccas ionally
Ġegg s
gg ed
Ġbre xit
Ġremark able
Ġm ice
Ġste pped
b ury
Ġh art
Ġres erved
Ġcent uries
Ġv oid
Ġchocol ate
Ġhelic op
Ġph oenix
Ġno de
Ġexpand ing
Ġne v
Ġy emen
Ġg est
Ġdefe ated
p ed
Ġinc hes
l ined
Ġmar x
Ġ1 20
m ap
Ġpoll ution
Ġt ired
Ġass igned
Ġdef ender
Ġaccess ible
Ġproced ures
Ġpromot ing
Ġ5 8
Ġeliz abeth
Ġgu ards
d ata
a wn
Ġcontact ed
Ġult ra
Ġtwe ets
ul es
20 16
Ġstud ying
stit ution
b et
Ġunder t
a us
Ġmin isters
Ġlegisl ature
Ġanim ation
che ck
Ġdisp ute
Ġtim ing
p orts
Ġann a
Ġgr ace
u an
Ġartific ial
â Ķ
f ile
Ġcogn itive
Ġf t
l ow
s k
Ġfund ra
re my
Ġadvertise ments
ar th
Ġg ib
Ġleg ally
Ġb art
Ġelig ible
Ġh ire
Ġoak land
Ġindic ates
hold ers
Ġke en
Ġcontr ary
Ġsho es
Ġenthus i
ound ing
Ġdam aged
c ard
ak i
Ġwed ding
Ġvari able
Ġneigh bors
Ġadvoc ate
e u
ag ic
Ġmeaning ful
Ġevery day
Ġch ase
Ġ199 3
er ate
ĠÂ ©
st art
Ġend orse
land o
Ġwal es
Ġtheat re
Ġ5 6
Ġpy thon
Ġdiscuss ing
Ġsuspect s
Ġparalle l
Ġback ing
Ġcorre l
Ġlo ves
Ġpunish ment
Ġfac ilit
Ġdiv or
Ġsearch ing
Ġtre k
f ers
Ġarri val
Ġkn ock
? ?
hum an
c ount
Ġaddress es
Ġexpl aining
Ġw ise
Ġintegr ity
g ra
Ġcl ark
Ġmatthe w
Ġcoach ing
Ġgord on
Ġmanif est
Ġd up
Ġesc al
Ġpol ar
Ġmain tenance
Ġwire less
Ġcol our
ic ts
Ġlif etime
Ġâ ĪĴ
rib utes
w he
Ġcust ody
th an
v ol
Ġstop s
Ġcontin ent
Ġn erv
Ġbur st
Ġob sc
aaaa aaaa
Â °
Ġh ud
d am
Ġt ons
Ġp ub
Ġtreas ury
Ġs li
Ġ19 50
Ġmathe mat
r ations
Ġho ll
Ġpent agon
Ġmont real
Ġfunction al
Ġopen ly
Ġimp ression
Ġperm it
Ġacknow ledge
Ġk han
Ġcompens ation
ric ts
Ġ2 50
Ġschol ar
Ġconcept s
Ġpart ly
ced ented
Ġliby a
Ġunder lying
Ġtennes see
est yle
he y
Ġdomin ant
Ġe ager
Ġacc ord
Ġpull ing
v ens
Ġweak ness
Ġco le
Ġrem oval
ol n
Ġappe als
Ġch uck
Ġmount ains
Ġmanufacture rs
Ġo t
Ġm ouse
Ġinter action
Ġvolunte ers
Ġk a
ar n
Ġre ds
Ġn an
Ġscr ut
Ġsubst it
c our
Ġdist ur
Ġg em
Ġbe ings
Ġgen re
Ġox y
Ġse ctions
Ġconserv ation
Ġinter cept
Ġrequire ment
Ġs ou
Ġperce ived
Ġhom osexual
Ġass ad
Ġless ons
Ġse gment
Ġph ill
Ġbe ating
Ġintegr ation
Ġan ne
ol i
Ġper ception
Ġmo od
Ġless on
Ġhar per
t ics
yl um
Ġcounter part
Ġunf air
Ġemb ass
re uters
i ac
op en
Ġinf ant
Ġlog o
Ġgu ests
bre aking
c re
Ġg ates
t or
al ia
ick et
Ġsac rif
Ġsign als
Ġfat al
8 4
Ġsubm it
Ġkent ucky
Ġemploy ers
Ġand y
go v
Ġc ave
ang le
be ing
Ġbill ions
Ġprefer red
Ġst ance
Ġb ass
Ġmig rants
- >
or ous
ge red
Ġcollabor ation
r ine
Ġj a
Ġinequ ality
onso red
Ġpit ts
Ġrhet oric
Ġor th
st ra
Ġa aron
Ġun con
Ġrefuge e
Ġh i
Ġc ous
Ġsupp lement
ol s
Ġma h
he ro
Ġline up
it udes
Ġrep air
od ed
Ġcomp os
os ystem
20 15
Ġlabor atory
Ġmoder ate
Ġinval id
Ġanton io
ro ph
Ġprospect s
pt ed
Ġkey board
Ġa y
Ġfrequ ent
Ġman h
Ġeth ics
Ġextraord inary
igen ous
og y
Ġpat ent
Ġem bed
Ġfl ed
Ġtreat y
Ġf ier
br id
c ity
Ġ !
Ġconfig uration
Ġover come
b ra
ile aks
Ġans wered
Ġun ve
ut en
m ble
c ode
} }
it ure
Ġconstit u
Ġc ord
Ġsl a
8 3
Ġtr aged
Ġcapit ol
ob ile
Ġmic hel
rop ri
Ġque ens
Ġno se
od ox
f unction
ater al
ack ed
Ġsustain able
Ġworld s
Ġrequ iring
ugh t
Ġl ift
Ġbl u
Ġ( "
Ġcreat ure
Ġprosecut or
Ġsc iences
s an
Ġ199 1
b ul
Ġman ual
m aker
Ġelim inate
Ġconscious ness
bl ock
Ġpost ing
Ġperiod s
e en
Ġr ome
Ġd ot
Ġnow here
Ġcert ific
Ġmod ified
Ġz omb
Ġbene fic
Ġres erv
Ġic on
Ġmon u
Ġrecommend ations
Ġsyn the
Ġgu id
Ġwild life
Ġconv ince
anc he
Ġr ud
Ġbad ly
Ġdel ight
Ġout lets
sc reen
Ġsubsequ ently
m or
Ġridicul ous
Ġsh irt
Ġas ylum
Ġp ist
Ġsent enced
Ġ5 7
l oc
Ġrep ly
Ġdiplom atic
Ġin du
er ce
Ġsurprising ly
ir m
Ġpromot ion
Ġm ls
Ġcamp s
Ġvoc al
t al
Ġappro aches
Ġchoo sing
Ġwarri ors
Ġinst ances
Ġb un
x y
Ġcl ip
Ġb iz
Ġchr ome
Ġgame play
Ġhypot hes
Ġcal end
f ar
Ġth under
Ġarg ent
Ġec osystem
Ġcontro ller
Ġexplos ion
d b
g ue
Ġt ale
pay ers
Ġne l
ile y
m c
Ġconcer t
Ġcon vert
Ġcra ig
Ġfr ied
Ġpoke mon
Ġsc out
Ġd il
Ġconcer ning
Ġtal ented
a ust
Ġcoll aps
Ġme al
Ġmill enn
Ġje remy
Ġpre view
Ġfight s
old s
m aster
Ġrepresent ation
em an
Ġattract ive
Ġmoment um
lf riend
Ġbr ands
Ġres olve
9 1
Ġk r
Ġan ch
Ġth ri
Ġj enn
Ġinter pre
Ġsal v
Ġintegr ated
Ġmaintain ing
Ġr ug
Ġvent ure
Ġda wn
Ġdu ke
Ġviol ations
Ġb j
Ġu b
sec urity
Ġbe ast
Ġacqu is
Ġencour aging
Ġre agan
Ġbom bs
li est
Ġstat ic
ig ation
Ġp ap
Ġsp y
ap ore
Ġep a
Ġh anging
t ax
Ġ ).
e c
Ġche aper
Ġdescrib ing
Ġkn ife
Ġw iz
Ġl ap
Ġfin als
Ġcar ries
Ġprofession als
Ġocc urs
Ġcreat or
Ġbrook lyn
Ġar row
Ġat om
Ġre cept
Ġang le
Ġanc est
Ġunpre cedented
Ġremo ving
t est
Ġinterview ed
Ġmunicip al
Ġsub ur
Ġb one
gr ad
ot ing
Ġmo ck
b ian
Ġtravel ing
Ġ8 5
Ġwr ight
Ġbec k
ne cess
Ġs its
Ġemot ions
p ol
le ans
li ance
Ġpregn ant
Ġres ort
Ġal to
Ġinspir ation
Ġhill s
Ġb its
ar re
Ġaim s
Ñ ĥ
n and
Ġminim al
f ather
Ġpsych iat
in stein
Ġchr onic
Ġcur ious
ows ki
Ġexc lud
Ġtes la
Ġm ol
Ġdram atically
h ire
Ġcomb ine
Ġstim ul
Ġbox es
Ġind igenous
eff ect
Ġn ull
Ġsw it
Ġdesper ate
de v
Ġv enez
Ġcomm ons
med ia
Ġprem ie
Ġpro be
Ġf ert
8 2
Ġse ized
Ġearth qu
Ġadop t
Ġdeploy ed
Ġcoup les
el a
Ġtrip le
et he
Ġr angers
n an
c at
Ġrel ation
Ġl one
Ġpur su
âĶ Ģ
âĢ Ĳ
ham mad
Ġth ro
Ġad equ
Ġe igh
Ġconf used
Ġmiss ouri
Ġout standing
Ġl ions
Ġdisplay ed
Ġd al
Ġdisappoint ed
Ġev ident
Ġcorrect ly
Ġgy m
Ġreb el
om in
ac o
pt on
Ġs ons
Ġcomm od
Ġacc um
Ġbar bar
str ong
Ġg ill
Ġsh ocked
Ġb ands
Ġoppos ing
Ġcommunic ate
Ġn ik
Ġqu it
h aw
ib an
Ġor lando
y our
Ġrob inson
Ġprompt ed
Ġs lo
xt ure
k ers
Ġd ash
Ġte eth
Ġaccur acy
Ġperform ances
Ġind ones
iz za
Ġl ens
Ġper ry
iff s
Ġrec ession
Ġheart s
Ġbrut al
Ġopp ose
bour ne
Ġr it
bac co
Ġri vers
Ġpassen ger
p olit
Ġport ug
Ġm ck
Ġbur ied
ove red
Ġspeak ers
Ġfed eration
Ġown s
Ġwh it
Ġbank rupt
Ġembr ace
Ġpo et
e ared
Ġple ased
Ġvenez uel
Ġchrist opher
Ġmilit ants
Ġst ir
Ġtrail er
Ġide ology
p le
Ġad ams
Ġtw in
Ġland ed
Ġbre ast
Ġpitts burgh
w ich
Ġs aint
g ate
Ġdemand ed
Ġisol ated
su ch
Ġh oney
Ġor leans
Ġpeace ful
ay a
ky o
Ġkick ed
8 1
Ġengage ment
Ġin herent
ter ror
Ġle an
Ġpres ents
inc oln
Ġnev ada
Ġhonest ly
Ġcharacter istics
Ġwh ist
Ġplay station
Ġload ing
Ġd irty
Ġsurround ed
Ġfl our
Ġh amp
Ġcra w
king s
t ical
p ow
m el
Ġcast le
Ġj ane
val ue
ent er
Ġhar sh
h u
Ġhol es
Ġwind s
Ġht ml
g t
s ize
Ġwik ileaks
Ġtranspa rency
Ġhome land
Ġfac ult
Ġste wart
Ġflav or
Ġimp osed
Ġrad iation
Ġinterpret ation
Ġd or
Ġchar ging
Ġt ang
Ġcour age
Ġb c
e lection
Ġdist ricts
Ġgri ff
an th
Ġfle e
Ġnation wide
Ġg dp
Ġsusp ic
st arter
h ome
Ġsl ot
Ġref ers
Ġjer ry
Ġload ed
Ġwis dom
ac re
ant ed
Ġle ban
Ġbrief ly
Ġhit ler
or ious
Ġche cking
Ġspec ulation
Ġt orn
Ġball s
av ed
v s
p i
) <|
Ġclin ic
p ing
Ġheav en
Ġrout es
Ġtax payers
Ġ198 9
": "
b urn
Ġh ood
Ġo z
Ð º
Ġconf usion
Ġjump ed
Ġy ard
he art
Ġ6 00
Ġnet her
Ġimm un
Ġr hy
Ġus b
Ġfil ter
Ġmult ip
Ġdecl aration
Ġin aug
Ġb icy
Ġ7 2
Ġw y
Ġeng ines
Ġdon ors
b ound
Ġpat rol
ac les
Ġre ign
Ġwell s
Ġcar rier
Ġcomp r
Ġresear cher
in form
Ġprint ed
Ġdist ribut
Ġforgot ten
Ġut ter
ak h
Ġto bacco
Ġc ats
Ġexp enses
Ġc s
Ġcomm erce
Ġteam mates
Ġcomprom ise
ov a
Ġde ar
Ġrec alled
Ġsing apore
Ġp our
Ġwonder ing
Ġaccept able
Ġexist ed
Ġpri est
Ġprop ortion
Ġm ate
st ory
Ġrest ore
Ġsp ider
os a
Ġexp ense
Ġhurric ane
Ġk l
Ġt ier
Ġd ent
ag en
Ġstrugg les
b at
man y
2 50
g el
Ġpack ages
le ted
n bc
Ġref use
Ġlu ke
Ġbomb ing
Ġb ib
Ġcont ents
ĭ áħ
Ġn azi
Ġexperiment al
Ġdet ention
Ġeng aging
Ġoccas ional
ix on
Ġrif le
Ġcomp ass
Ġh iring
Ġcrim inals
Ġm ps
che ll
Ġaw a
Ġpleas ure
Ġbat ter
gr oup
Ġsusp ension
Ġtele phone
Ġgraph ic
ul ations
Ġjur is
Ġall y
Ġtan ks
Ġas c
tr ack
Ġnerv ous
Ġv lad
Ġout comes
Ġnot ably
Ġk al
m ers
on ia
Ġbab ies
s ource
Ġs ig
r us
Ġsl am
Ġste ady
Ġc ens
Ġbr ig
Ġclos est
Ġtransl ation
u its
Ġeditor ial
Ġra id
Ġcross ing
Ġprev ention
Ġlight ning
Ġatt ending
l ib
ð Ł
Ġjud icial
Ġembass y
Ġguarante ed
Ġst ating
Ġp i
Ġdevelop ments
Ġwh ites
lar ge
Ġs que
ing e
Ġsimultane ously
Ġst er
Ġfing ers
Ġh int
Ġoper ator
Ġlob b
Ġdro pping
k ind
Ġbl ocking
( "
ill er
Ġle aked
Ġprof ound
1 50
Ġadminist rative
Ġch ips
th ood
Ġor bit
Ġrob ust
Ġl incoln
Ġre wards
Ġ5 9
Ġr iders
Ġc ooking
Ġpo lling
Ġhost s
Ġh ans
Ġbr id
Ġautom atic
Ġexclus ively
b ie
Ġsp ark
Ġs r
Ġconsider able
Ġvari ables
Ġsex ually
Ġsurv ived
Ġsoph istic
Ġhe s
Ġmig ration
Ġshel ter
Ġw re
Ġab u
Ġip ad
Ġsh ops
Ġpack ed
ne g
f act
Ġmon etary
Ġhead lines
c all
Ġtremend ous
Ġthe ft
Ġg n
ip edia
Ġrepe al
Ġwar ner
v as
Ġpol and
Ġfire arms
lim ited
Ġign or
Ġz im
inc ome
Ġjust ify
Ġact ress
Ġrenew able
Ġpost er
Ġexecut ed
Ġ6 6
Ġf ucking
Ġdom inated
a o
Ġtear s
Ġm ud
Ġdem o
Ġdest ination
Ġpain ting
Ġbacter ia
Ġprov ider
ag s
t i
Ġ6 2
Ġd ak
Ġev olved
Ġp ip
b est
f ts
Ġott awa
Ġback up
Ġcop s
Ġmanh attan
Ġfl ip
Ġorgan is
Ġrec k
r ous
Ġ8 00
ir ds
ail ed
Ġev ac
Ġphotograph s
Ġant ib
Ġmod est
Ġan arch
Ġflight s
Ġalgorith m
Ġem er
Ġpr ayer
Ġfail s
Ġy og
Ġend ors
Ġ `
h app
âĢ¦ .
Ġrebu ild
Ġbo ards
Ġin her
Ġen act
Ġpubl ish
Ġukrain ian
Ġentr ance
Ġmar c
Ġb ip
er to
Ġovers ight
Ġb our
Ġnight s
Ġassum ing
Ġoccup ied
rib ed
od ing
Ġhistor ically
spe ed
Ġwood s
Ġmiss iss
Ġf et
Ġp ione
Ġent ity
ri x
Ġdef ect
Ġprivile ge
w estern
Ġne ur
m ons
Ġinf in
Ġar th
e le
Ġnewslet ters
Ġagree ments
Ġwin ners
Ġsh ocking
Ġtal iban
pro du
gu ard
s ur
Ġpol ish
Ġbureau c
Ġpatri ots
Ġimpact s
li hood
Ġpro secution
Ġdec or
Ġc ass
Ġcrit eria
Ġf i
Ġdirect ors
Ġ< /
Ġp oo
Ġattor neys
Ġlegend ary
Ġbene ath
hip s
Ġquant um
Ġchallen ged
be at
Ġp izza
Ġintim id
he alth
Ġpled ge
Ġqual ified
Ġth irty
Ġpar ad
Ġexam ine
Ġb ah
Ġbre wing
k h
Ġmal es
Ġmortg age
ag u
Ġb aker
ia h
Ġconcent ration
Ġvictor ia
on ce
Ġc b
Ġrec overed
f il
Ġconflic ts
Ġfro zen
f ish
p to
Ġdeem ed
Ġaddress ing
Ġcry stal
Ġnel son
l as
Ġrob ots
res hold
Ġco ins
Ġpo se
Ġgo ds
. ]
Ġn iger
Ġlif estyle
Ġdocument ation
Ġdis abled
Ġre de
ĠÂ ±
for ward
am ous
Ġpros per
Ġen abled
Ġprodu ces
Ġra ises
Ġexe mpt
t it
Ġcalend ar
Ġsc ared
Ġman ning
Ġvis its
Ġruss ians
Ġdepart ure
Ġdepend ent
Ġexpect ing
Ġback s
at tered
r ange
Ġv on
Ġnut rition
Ġrele asing
b ooks
Ġburn ed
Ġmar io
Ġconstruct ed
Ġrad ar
s oc
Ġconf ron
Ġdef ended
Ġpe er
Ġuncertain ty
Ġdecre ase
Ġpsych ology
Ġfig ured
Ġguid ance
Ġrub io
7 00
Ġliber t
Ġpres erve
Ġresident ial
Ġsevent h
Ġsec ular
Ġgent le
Ġattract ed
at us
sec ond
f ix
Ġproject ed
fl ow
Ġ6 3
Ġinfect ion
oph ob
Ġun necess
Ġc ot
ol as
Ġavail ability
Ġcon secut
un es
Ġt amp
p en
Ġh iv
Ġle ak
Ġhousehold s
ah oo
Ġlouis iana
Ġdam n
Ġc ad
app ropri
Ġegypt ian
Ġtraged y
Ġmother s
d ig
Ġvol unt
Ġsleep ing
Ġlaunch ing
Ġstan ford
Ġproduct ive
Ġmod i
Ġlibr aries
Ġbas es
Ġjim my
Ġpal ace
l ooking
Ġal aska
ot te
Ġprov isions
Ġbl ues
Ġinflu enced
Ġb ou
p ot
Ġl an
Ġimp rison
t able
ic o
Ġgir lfriend
Ġgr am
Ġlux ury
Ġlar ry
Ġident ical
Ġoccup ation
Ġdisc ount
Ġmet ers
Ġle v
Ġexpl oration
Ġeag les
Ġre ass
Ġin box
Ġsl ide
Ġb ump
Ġcanad ians
Ġbreak fast
Ġcons c
Ġmotiv ated
m r
Ġstan ley
Ġfunction ality
Ġser ial
Ġtr ains
Ġtransfer red
Ġinflu ential
Ġfacult y
Ġinstall ation
Ġpromot ed
Ġarm or
Ġnav al
Ġve gan
Ġter rif
con nell
20 13
Ġs s
Ġn est
Ġt rop
Ġr ib
Ġhe d
Ġbul k
Ġh uff
Ġcontain er
Ġstart up
Ġto kyo
Ġbe ef
Ġbl amed
Ġtable t
bo ys
Ġser ge
Ġpr icing
Ġev angel
Ġp ension
Ġimm une
Ġcheck ed
Ġdest ro
Ġt ast
Ġsnow den
Ġexpect s
ith ub
Ġver d
im ir
Ġinter rupt
---------------- ----------------
Ġd ock
Ġwrest ling
g ary
m illion
Ġgr ate
Ġinnov ative
Ġr ivals
ethe less
Ġover night
Ġj ess
Ġexplicit ly
Ġoper ators
Ġbag s
Ġmal ays
Ġoccas ion
Ġsto pping
Ġdim in
Ġway ne
Ġs id
Ġnether lands
Ġf ishing
ch i
Ġapp lies
Ġexc use
Ġb h
Ġsh ore
Ġo ught
Ġaccept ing
Ġt ong
Ġmiss iles
Ġpolitic ian
Ġhapp iness
Ġen for
Ġfin ishing
Ġtun nel
Ġinev itable
Ġrit ual
Ġd ressed
Ġg os
ades h
am ine
Ġt ension
or ig
Ġbond s
Ġlyn ch
Ġn ash
Ġmur phy
Ġham as
Ġsa ke
le ading
Ġrel uct
Ġm ask
Ġmyster ious
Ġparticip ating
Ġf its
Ġm d
Ġimp ressed
Ġcycl ing
Ġbar g
Ġconv iction
et ed
Ġinstru ment
Ġsp ray
Ġf erg
Ġblack s
Ġan k
Ġcomment ary
Ġcur ve
az a
Ġmand ate
Ġlong time
Ġinvestig ated
Ġlight ing
Ġsupposed ly
p ayer
Ġass ists
Ġf urn
Ġcomput ing
ipp i
Ġneighborhood s
Ġh p
Ġp ale
Ġoper ated
u ating
Ġmet rop
Ġl ion
ard o
Ġb og
Ġreal istic
Ġolymp ics
Ġy ang
Ġsty les
ist a
Ġnon etheless
p op
Ġconsecut ive
Ġto ss
Ġc um
Ġuncom fort
Ġb os
h ave
Ġste al
Ġho b
Ġdro ps
th ink
Ġbl ake
Ġsole ly
Ġinvest ed
ï ¼
Ġdeleg ates
Ġbiz arre
Ġmedic are
Ġrespond ing
Ġbu gs
w id
Ġexp ed
Ġintellig ent
Ġprevent ing
Ġnewsp apers
l ings
Ġabs urd
Ġhand led
o bs
Ġdepart ments
Ġb ash
friend ly
Ġagricult ural
Ġphilipp ines
Ġproduct ivity
Ġjuris d
el and
Ġregard ed
Ġs d
ll or
Ġque bec
Ġtermin al
" ,"
Ġf ib
l ord
Ġsignific ance
ort ions
Ġam bit
Ġgr ants
Ġappear ing
Ġce re
Ġb ent
in v
Ġro ger
us on
ik i
Ġun l
Ġel abor
Ġth reshold
Ġbuff alo
c itation
alth ough
Ġwar fare
Ġb ust
re z
Ġoccup y
con f
Ġbub ble
Ġ1 000
ke ley
Ġro lled
unt u
Ġhost ing
Ġreview ed
Ġr t
Ġsub tle
Ġmarsh all
Ġc ake
Ġinteract ive
Ġcru el
uck er
Ġto ll
ach ment
Ġearn ings
p in
Ġt ig
co vered
Ġhamp shire
cent ury
ll i
Ġer u
Ġmed al
Ġcelebr ation
Ġeconom ist
Ġemphas is
Ġs aints
Ġaccus ations
Ġaw ful
Ġ6 8
Ġd ign
Ġmedic aid
Ġfavour ite
te rest
Ġcoordin ator
ol id
Ġ6 1
Ġin hab
Ġspot ted
Ġprep aration
ar med
Ġi an
Ġgra ve
h ost
? âĢĻ
Ġb ones
Ġal ign
Ġsust ained
Ġn az
Ġcl ay
Ġfemin ist
ac ular
Ġcompe lling
Ġadop tion
Ġaccompan ied
Ġsa uce
Ġ6 7
Ġn it
ch a
m ain
p ath
Ġc ant
Ġsee ks
Ġelect rical
Ġview ing
Ġstar ter
). [
Ġtit an
Ġlay ers
Ġa ven
Ġaffect s
Ġf ires
Ġposs ibilities
Ġsupp ose
st ruct
Ġparliament ary
? )
Ġwal ks
ut her
Ġaf p
ra h
Ġcoll ins
Ġkick starter
Ġpregn ancy
ur i
Ġb other
Ġpan els
Ġsh ake
Ġreflect s
vers ion
Ġexam ined
Ġme ets
Ġalph a
Ġamong st
Ġtri ps
Ġtrad ed
Ġreven ues
Ġinteract ions
Ġcomplex ity
it ory
Ġse eds
Ġsh am
Ġdur ation
Ġdispl ays
20 17
Ġn g
Ġad j
Ġconven ient
Ġbeat en
Ġold est
ra w
Ġchar ter
Ġexpl oring
Ġkurd ish
Ġron ald
Ġven ue
Ġto ken
ber y
Ġpin terest
Ġcompl ained
Ġconclus ions
cons cious
Ġdiscl osure
Ġic onic
Ġexplo it
Ġcons ists
ick ed
Ġcitizens hip
lo ved
Ġoccas ions
nat ural
Ġres ur
Ġrestrict ed
Ġargu ably
Ġsil icon
Ġmel bourne
ig e
Ġplan es
en cer
Ġh iding
Ġachieve ment
Ġk am
Ġu m
ik h
Ġpra ise
Ġ3 60
f our
re qu
Ġspeed s
k m
Ġro cks
Ġobserv ations
Ġrel atives
v ised
Ġed ited
Ġsec rets
Ġdol ph
Ġtiss ue
Ġdesign ated
en h
Ġenviron ments
Ġtransm ission
er b
Ġcollect ing
s ized
âĢĿ )
Ġlimit ations
Ġpow ered
Ġor b
Ġw o
b age
Ġl au
Ġdocument ed
l aim
Ġtw el
Ġep ide
Ġhy brid
Ġcalcul ated
c am
Ġover t
Ġed iting
Ġis t
v ar
Ġmand atory
Ġpain ful
Ġarrest s
ite ment
Ġprov inc
Ġr anging
Ġhor rible
Ġsent iment
ol ving
Ġadvoc acy
found er
Ġanim ated
Ġadd iction
Ġparam eters
prof ile
il st
ump h
Ġthem es
Ġfort une
Ġmit chell
Ġmed i
Ġhack ing
Ġvacc ine
Ġmechan ics
Ġpe pper
Ġgrad ually
Ġoxy gen
Ġscr atch
Ġfit ness
Ġpra ised
r uss
itt y
Ġcross ed
Ġcomp osition
Ġ198 8
Ġsuggest ions
Ġca ution
Ġh ann
Ġdiscip line
Ġt une
j ar
s ign
Ġl od
Ġdeb ates
Ġcle ared
Ġlibert arian
il ation
Ġbuild s
Ġmon sters
Ġcamp bell
Ġchemical s
id al
Ġst ark
Ġcompet itors
Ġambit ious
Ġend less
o ks
Ġb il
Ġne o
g reen
Ġp ending
jo hn
Ġd ys
Ġrum ors
a ver
Ġmur dered
Ġcomm ands
z i
Ġaw k
Ġfil ing
olit an
Ġdemonst ration
Ġtai wan
Ġconver ted
Ġmississ ippi
Ġind o
Ġben j
al t
âĶĢ âĶĢ
Ġsing h
Ġtechn ological
Ġdirect ions
ch ron
Ġvis a
pl an
p ur
Ġlapt op
Ġm ans
Ġcount less
Ġdr ones
Ġpred e
Ġfr act
Ġrepl acing
Ġapply ing
Ġm ild
ac cept
Ġdeal t
Ġtechn ically
win ning
Ġalto gether
m un
io x
Ġshoot er
c ular
Ġce ase
Ġcour ses
any ahu
Ġab und
Ġdevast ating
Ġreg ret
Ġdelay ed
Ġequ ipped
Ġens uring
Ġsafe ly
by n
Ġear ning
Ġconf ed
Ġm t
Ġscrut iny
Ġrel ie
Ġcat ast
Ġins ult
Ġre id
Ġchur ches
Ġdut ies
um er
Ġcle ver
worth y
Ġmad rid
us a
Ġtr ace
Ġh ier
n ational
Ġlas er
Ġbish op
r in
Ġm aker
Ġcart oon
Ġdraft ed
Ġz o
Ġprede cess
Ġedit ors
Ġbar rel
sel ess
Ġgrate ful
Ġdefend ers
Ġfil mm
Ġpark er
Ġwat son
Ġw ore
Ġn er
Ġswed ish
Ġtou g
Ġas pir
Ġdark ness
i y
Ġmc donald
m other
Ġtut orial
Ġmechan ical
en ger
Ġsacrif ice
Ġ= =
Ġclim b
qu er
Ġf are
Ġprint ing
sh ore
com ed
Ġdiv ide
Ġcontribut ing
Ġn aked
Ġmechan isms
is ive
Ġk as
Ġver ify
w ed
Ġcult iv
Ġdeliver ing
r ons
Ġrug by
Ġfly nn
Ġemploy er
Ġsophistic ated
Ġtranspa rent
â Ĥ¬
cel ona
áħ ¡
Ġsepar ated
Ġ198 4
Ġconvers ion
Ġvolunte er
? <|
Ġur l
n amed
Ġpan ic
Ġdr inks
Ġcub a
Ġk yle
Ġc rop
Ġpresum ably
f ive
og an
Ġh ors
ari os
ot al
Ġmas ters
20 12
Ġpot ato
âĸ Ī
Ġreact ions
Ġpa ren
Ġacquis ition
Ġsa il
Ġbrand on
Ġsu ck
Ġprot otype
Ġbit ter
Ġuncomfort able
Ġtradition ally
s ky
Ġm akers
Ġindic ation
Ġvi able
Ġquiet ly
Ġl ung
Ġmar ry
am ents
Ġc pu
Ġ198 6
gr ade
Ġs amp
ch ange
Ġorig ins
Ġadm ir
Ġreflect ed
Ġsw iss
Ġtransform ation
o ly
Ġequ ity
Ġdes erves
Ġincor rect
t z
Ġline back
Ġlaw rence
Ġr ust
Ġ7 6
Ġbath room
Ġre hab
Ġess ay
Ġste in
Ġprior ities
Ġgrav ity
Ġqu ad
Ġsing ing
Ġpal m
Ġinst antly
sp ace
Ġhawai i
Ġbuy ers
Ġri ot
Ġmor ris
Ġvlad imir
s ic
Ġferg uson
Ġwas h
Ġoff season
Ġcount ies
Ġsup rem
Ġcelebr ated
Ġout er
Ġug ly
Ġd umb
Ġinter ven
Ġ) ;
Ġpress ing
pro duct
Ġl ag
Ġall oc
Ġact ed
Ġprovinc ial
Ġele ph
Ġqu otes
Ġtr ucks
z es
Ġl on
Ġber keley
Ġlog ical
Ġh ond
x us
Ġquestion ing
Ġport ra
Ġsport ing
Ġdet ained
wr itten
hal f
Ġbre ach
k ar
i ary
per form
Ġchance llor
Ġsupp orter
Ġbar rier
j u
uc cess
Ġnet anyahu
Ġste ad
Ġu i
Ġstun ning
Ġfr ustration
Ġgro cer
Ġ' '
Ġg ur
Ġfar ms
Ġpart ially
Ġarch ae
Ġli b
Ġ0 1
re port
ic ism
Ġtrans c
Ġbenj amin
b ad
Ġann ually
Ġs izes
erv ice
Ġstatist ical
Ġcr icket
Ġmarg inal
Ġfasc inating
if ier
iv an
Ġv ic
Ġped est
are r
Ġ Ï
Ġbloom berg
Ġter ry
Ġrec y
Ġmet e
ur ance
Ġbl ess
al so
Ġlong est
Ġabb ott
Ġcon j
Ġbra ve
eral d
as er
Ġar ctic
p df
Ġmut ual
Ġt ensions
Ġchristian ity
Ġins ane
Ġorth odox
Ġcap ability
Ġmag ical
Ġinvest ing
Ġremem bered
Ġw ound
Ġpers ist
Ġpre lim
Ġpoor ly
ac on
Ġce iling
Ġwal let
g ir
Ġwitness ed
Ġconfirm ation
Ġhuman itarian
Ġsla very
Ġt ends
e conom
ren cies
Ġpl acing
Ġhighlight ed
Ġviol ated
Ġair lines
Ġsh an
Ġimp ose
Ġawk ward
u ates
Ġcl o
um ble
Ġsuggest ion
Ġfle w
ro se
g am
Ġkid na
Ġtr ap
es ter
~ ~
ll ers
ative ly
Ġpenal ties
Ġmanufacture r
Ġst om
Ġa ston
Ġprotect ions
Ġcirc les
Ġres idence
Ġb io
Ġeconom ists
Ġpe op
Ġl iv
Ġdou g
ath on
Ġd ensity
Ġappoint ment
Ġev ans
Ġperm itted
i ors
Ġcon ced
Ġarch ive
Ġdisapp eared
âĢ ³
Ġpl aint
Ġprocess or
Ġder ived
Ġfound ing
cont ent
Ġnc aa
Ġfrustr ated
or i
Ġproceed ings
Ġaud iences
Ġoper ational
r ary
w er
Ġreve aling
Ġprevent ed
Ġear s
Ġcivil ization
Ġcontro lling
Ġcal c
Ġmotiv ation
Ġbar celona
Ġaltern atives
Ġal arm
te am
Ġker ry
Ġcur t
ude au
/ .
Ġdr unk
Ġcast ing
Ġm ack
Ġinstru ments
Ġsm ell
Ġsa fer
Ġabs ent
htt ps
Ġli p
Ġenh anced
à ¸
oc ur
c m
Ġm g
Ġhold er
Ġor che
ur ities
Ġassum ption
Ġ ÃĹ
Ġal ike
Ġdep ort
Ġsp ur
an na
Ġcolle ges
Ġcrow ds
Ġsc ary
Ġw and
Ġro dr
Ġaccept ance
Ġd oc
Ġke ith
Ġadv ised
Ġwh ilst
Ġca fe
Ġtreas ure
Ġrot ation
Ġpain ted
Ġdistur bing
Ġsl ave
Ġco hen
Ġcompl ain
Ġent ities
Ġto ile
Ġpress ed
. ),
Ġm asc
Ġaff air
Ġhost ile
Ġexha ust
un a
Ġorient ation
Ġt ub
anc hes
Ġsolid arity
Ġr io
l ab
li ver
Ġphot ography
Ġprob ability
Ġexpert ise
st ock
Ġwor ship
ut s
Ġwe aken
Ġaccompl ished
Ġgr an
spec ific
Ġp p
b ab
Ġfast est
c p
Ġpartic les
Ġstrong est
wal k
Ġst ressed
m are
Ġmot ors
Ġse al
Ġfill ing
Ġexplos ive
c lick
or ient
Ġind ians
Ġrock ets
Ġbal anced
Ġmc connell
Ġinst inct
Ġr ings
Ġm itt
tt es
Ġcap s
Ġz ones
ut ch
Ġflag s
olog ically
Ġbar ry
Ġpresident s
s n
Ġc ou
Ġf les
Ġattend ance
Ġsur ren
Ġphil ip
Ġtamp a
Ġg p
b ally
av a
Ġgre ens
col or
Ġres erves
pt ions
Ġp ays
hand ed
oo s
Ġbound aries
Ġ6 9
Ġrespond ents
Ġtemp or
Ġdak ota
Ġfr ight
Ġdist ant
Ġ7 7
Ġq a
Ġau ction
Ġtrans cript
Ġse g
Ġret rie
l ie
Ġdev oted
pie ce
Ġkir k
b art
Ġflo ating
Ġtrib e
ur l
st ore
n as
Ġiniti atives
Ġtravel ed
Ġunnecess ary
Ġhis pan
Ġexch anges
Ġflow ers
Ġpeop les
Ġplan ets
Ġsw itzer
Ġâ ĸ
v id
ar ound
Ġrob in
Ġdesign ers
Ġp and
Ġcomp aring
iz ations
Ġc ensus
Ġwik ipedia
Ġcomple tion
Ġgen et
Ġne il
Ġreal m
Ġsurviv ors
Ġj azz
Ġconst rain
Ġhas h
it ivity
Ġst ocks
Ġw are
Ġimmig rant
Ġcr ude
or ate
ent h
Ġbl ade
Ġint ensity
z one
Ġdou gl
Ġg aining
Ġtreat ing
ress ing
à ¤
Ġtr udeau
Ġfocus es
Ġchief s
Ġf cc
Ġrespect ive
d isc
Ġmar ia
ip her
Ġa ve
augh ters
Ġprin cess
Ġp orts
Ġgreen house
Ġvert ical
m ir
Ġk le
Ġworth y
Ġcl uster
Ġchrist ie
agr aph
ke ep
Ġsk etch
Ġ198 7
Ġsens or
Ġ7 00
Ġsc roll
Ġs isters
Ġflex ible
char ge
Ġbattle field
Ġ ^
Ġab ol
Ġident ification
sch ool
Ġcont am
Ġeth ical
Ġl anes
Ġmed ian
e an
Ġox ford
Ġre un
su per
Ġsad ly
Ġj ake
g reat
Ġdi ver
Ġenjo ying
( '
Ġcomp osed
Ġtr ash
Ġcry pto
if act
Ġdev il
Ġk rist
Ġv ague
Ġsus an
Ġexperien cing
Ġsent ences
Ġwhist le
u i
Ġvir al
Ġdisp os
Ġsh orter
Ġ197 9
it ate
Ġcomp liance
Ġcustom s
Ġport fol
Ġafter math
bor ne
ad i
Ġfrank lin
Ġrom antic
Ġrun ner
Ġqual ify
Ġunderstand s
Ġspace craft
Ġfol k
Ġbu lls
Ġtemp late
Ġpo le
Ġam d
Ġr ated
Ġcelebr ity
th ree
bo ards
b ot
iv a
Ġro gers
greg ation
Ġident ifying
Ġscen arios
Ġy ahoo
Ġrece ives
Ġ198 5
Ñ ı
Ġdeploy ment
Ġturn er
Ġaccount ability
Ġess ence
ant i
Ġun limited
Ġcrypt ocur
Ġoper ates
Ġide ological
Ġan ime
Ġemer ge
Ġacqu ire
Ġstom ach
Ġpe ers
Ġdis orders
mind ed
Ġsk ull
op y
Ġadvant ages
Ġbr ains
Ħ ¢
Ġflu id
Ġcro ps
Ġhor izon
Ġimag ination
d ue
Ġtim eline
Ġalbert a
Ġinf ring
Ġcondem ned
Ġty ler
get s
Ġjo kes
? '
sa fe
Ġag ing
Ġbreak down
Ġdecl are
pa id
Ġsyn dr
Ù Ħ
Ġswitzer land
Ġmet ab
Ġdist inction
c ott
Ġlo ving
Ġsuper vis
Ġilleg ally
Ġinter rog
Ġstruct ural
Ġsan ct
Ġsubsid ies
Ġse min
Ġelement ary
Ġtwel ve
c ult
Ġcult ures
Ġnon profit
Ġbi ology
Ġche er
Ġa est
Ġd y
Ġhack ers
Ġe li
r idge
Ġin hib
Ġbr ady
Ġpar ade
Ġm ason
Ġtou ched
Ġafter wards
Ġdoct rine
Ġpur suit
Ġemp er
Ġspread ing
Ġab d
le v
Ġappro ve
ous es
off s
Ġinf er
Ġwid th
Ġres olved
ver ning
Ġform ally
Ġelder ly
Ġelectron ics
g od
Ġbrus sels
Ġcl icking
l ay
Ġk os
Ġgam ers
Ġdirect ory
Ġflex ibility
v ide
Ġsoc ieties
Ġrespect ed
Ġhat red
Ġannoun cing
Ġ7 3
Ġprev al
Ġinc ons
Ġcree k
Ġin sect
d c
d ist
Ġexcess ive
Ġr age
Ġsec ured
Ġdifficult ies
Ġosc ar
loy d
Ġeconom ies
m ax
h ou
d id
Ġdelic ious
Ġle ather
Ġgl ory
ke eper
Ġp on
Ġneg lect
Ġmain e
Ġpu erto
Ġdi abet
Ġtrust ed
wr iter
Ġwhe els
p ace
Ġn ag
f am
Ġpen et
Ġha bits
Ġconsequ ence
Ġdes ired
c ry
Ġsatisf ied
Ġhun ger
Ġw i
c up
Ġfree ly
Ġ7 4
cond uct
oty pes
Ġtra pped
Ġins ider
ar ia
Ġref using
Â Ķ
happ y
am o
Ġres igned
Ġtour ists
Ġbe loved
Ġsc ul
Ġle ap
Ġd w
Ġinstitution al
Ġmob il
Ġanticip ated
Ġhor iz
Ġcontact s
Ġnorth west
Ġ19 30
Ġdo se
Ġintr ig
Ġs na
Ġbutt ons
Ġspect acular
Ġfun eral
] <|
Ġcolumb us
Ġd anny
Ġobserv ation
Ġr ip
Ġretail ers
Ġcertific ate
Ġregul ators
Ġcolon ial
Ġteen ager
Ġsp awn
Ġhar vey
po ints
Ġdeliber ately
Ġin appropri
Ġjeff erson
Ġpre st
Ġembed ded
m t
Ġp ence
Ġr all
Ġhe aling
ro t
Ġprelim inary
Ġr az
Ġca pe
Ġhead line
d rop
Ġm um
Ġsout heast
Ġatt itudes
Ġret reat
ard ed
re ls
Ð ²
Ġb ak
Ġinv is
Ġden ial
Ġhum or
Ġgr asp
Ġstr ain
Ġdec iding
bl og
Ġkn ocked
Ġexp orts
ve t
Ġparticip ated
Ġaband on
Ġmon op
to day
ic ut
Ġminor ities
d ale
Ġcontinu ous
Ġcount ing
â Ħ¢
Ġra j
Ġtrig gered
Ġs ends
Ġsac red
Ġintrodu cing
cont rolled
b ull
Ġatt ributed
Ġmid night
Ġexc itement
Ġwra pped
fe ld
Ġ7 8
Ġre aches
Ġw we
Ġalbum s
Ġdis g
Ġdetect ed
Ġtro phy
t ake
Ġharm ful
b ted
Ġbe ers
Ġin ch
Ġchampionship s
m os
Ġmad ison
Ġinev it
Ġhors es
g oo
Ġco des
cy cle
Ġgif ts
Ġto k
Ġre ed
Ġsu itable
Ġm ant
Ġverd ict
Ġtour ism
Ġb ald
gen er
Ġgon z
Ġrhy th
g row
Ġd irt
Ġcor byn
Ġthrow s
inc inn
Ġres on
at ile
Ġmagnet ic
Ġarri ving
rib e
Ġlam b
Ġm ul
ast ed
Ġkill s
Ġdivor ce
Ġoff set
m ill
( );
Ġluc as
Ġcan on
ge on
Ġfeed ing
Ġadv ances
Ġinvest or
Ġlicens ed
r ane
g ree
Ġfem ales
ab ling
Ġdem ol
Ġclass ical
Ð ¼
Ġch ains
Ġub untu
ch rist
Ġpos ed
Ġbar riers
Ġwithdra w
pr om
Ġsyndr ome
Ġnor way
k u
Ġlay out
Ġpled ged
Ġinfect ed
w ear
nor mal
Ġb apt
Ġbe e
Ġc yn
m outh
Ġinst ruction
Ġcondem n
s ince
Ġpil ots
Ġunder min
Ġmo ld
Ġspecial ist
Ġdis k
Ġsepar ation
Ġcreat ors
Ġdetect ive
br and
Ġn ons
Ġdet ain
Ġve t
r ating
Ġorgan izing
Ġclean ing
Ġspr int
Ġcau cus
Ġwe iss
Ġpow der
Ġtext s
âĢ ¢
Ġranking s
is k
Ġbrew ery
w au
le ague
incinn ati
n ick
ol o
Ġfinanc ing
Ġmer kel
Ġhelicop ter
Ġ7 1
Ġapproach ing
Ġgen eric
Ġoptim istic
Ġshif ted
Ġpublisher s
Ġear liest
Ġhel m
Ġir s
Ġhope ful
Ġres ume
Ġd aughters
Ġentreprene urs
Ġremind ed
Ġsp onsored
Ġfier ce
Ġmeant ime
Ġinn ings
Ġte ens
Ġno ble
ãģ ¦
Ġke l
Ġo liver
Ġle agues
Ġark ansas
Ġconduct ing
Ġass ured
Ġpurp le
wid th
are ttes
Ġrem inder
b ri
Ġemot ion
Ġtempor arily
Ġphotograp her
ock ets
Ġwel comed
Ġund ers
Ġblood y
Ġtraffic king
Ġcolle ague
Ġexec ute
Ġavo ided
Ġa j
Ġtend ency
Ġstab il
Ġbott les
est one
ac ent
ah aw
Ġgri p
se ud
ig ious
Ġlack ing
g on
f ight
Ġpet ers
Ġrus hed
Ġs illy
n t
Ġis a
im ens
m w
Ġlike wise
Ġexp end
Ġvenezuel a
er ving
Ġl ang
Ġimm ense
Ġbor ing
Ġburn s
Ġtrad em
Ġdon ation
Ġgr ain
áĦ ĭáħ
Ġvari ation
Ġeval uation
Ġun re
d an
v als
Ġswe at
Ġdiabet es
Ġlab els
Ġscre ening
Ġchem istry
Ġpart ial
Ġcar son
Ġsequ el
Ġbatter ies
Ġindic ating
Ġastron om
r ust
Ġj aw
Ġtransl ated
20 11
Ġlicens ing
Ġdif f
Ġcharl otte
Ġpremie re
Ġsm ugg
iv en
i ar
Ġw itch
Ġpurch ases
Ġisol ation
Ġholl and
Ġdam aging
Ġfar ming
ĠÐ ¿
ab e
Ġs ib
Ġgo verning
Ġdecre ased
Ġliter ary
Ġmi xture
Ġcapital ist
Ġcomp ound
Ġadm ission
Ġincl usion
Ġadjust ed
Ġwork place
Ġ8 2
Ġdiv ine
Ġto ys
Ġh r
Ġbr un
Ġw ishes
Ġpet ro
Ġshe er
Ġor g
Ġsu ed
Ġlin ear
Ġlist ing
Ġh ij
av is
cont in
Ġterrit ories
Ġrus hing
fe ed
p ac
Ġgrow s
Ġfr action
Ġgl enn
Ġhypothes is
Ġfail ures
Ġker nel
Ġstat ue
Ġspar ked
Ġautonom ous
Ġcompass ion
ne red
op ing
Ġpursu ing
wau kee
b as
Ġbrad ley
Ġun c
Ġcam bridge
Ġpure ly
Ġher ald
Ġur ge
Ġver izon
Ġharv est
Ġt att
Ġwa ited
re k
Ġinv ite
Ġcow boys
Ġf iber
Ġgrab bed
Ġre ception
ust ers
Ġaccount ing
fr ame
g iving
Ġro sen
f ly
Ġconnect icut
Ġgr im
Ġsh y
Ġteen age
Ġrecru iting
Ġdec ides
Ġbelie ving
Ġperm its
Ġclim bing
Ġpassion ate
Ġlif ted
Ġp ants
Ġsoon er
Ġthere by
all ing
Ġint u
Î ±
Ġwhere ver
Ġ> >
Ġmass es
Ġadm its
Ġpre ference
Ġd uck
Ġsu e
Ġeigh th
Ġjump ing
Ġdestro ying
Ġr uth
su its
Ġdra ws
Ġban ner
Ġconnect ing
as se
Ġlect ure
Ġstreng the
er k
Ġbroad band
Ġju ice
Ġse am
ut o
Ġswim ming
Ġaltern ate
Ġtr agic
Ġf da
Ġcare ers
Ġwarn ings
Ġdetect ion
Ġtrib al
Ġelect ro
Ġspot light
Ġdon ated
Ġdam ages
se arch
Ġf ence
Ġord in
Ġcorre ction
Ġe ld
Ġe man
Ġvill ages
Ġsl ip
st age
Ġ: :
es h
Ġunder mine
Ġunfortun ate
be it
ir s
qu ality
Ġgener ous
z an
Ġmidfield er
Ġstre ak
Ġvac ation
Ġtreat ments
o is
Ġc incinnati
Ġpakistan i
Ġnovel s
Ġme als
Ġbr ack
Ġcor ners
Ġcl ause
th ose
Ġtax payer
n ik
ip er
ar o
Ġarth ur
Ġindones ia
Ġcorrespond ing
Ġcoc aine
own ers
it em
Ġorganis ations
Ġdoub led
Ġdec ks
Ġste ep
k k
Ġr im
Ġlobb ying
Ġcar n
Ġmarket place
ur t
in fo
gen eral
Ġauthor ized
Ġfriends hip
Ġsk ip
inte rest
Ġsucceed ed
g ian
Ġpo em
Ġm ph
wr ite
Ġlt d
Ġadvis ory
b rew
Ġanch or
Ġfif ty
back ed
Ġgar age
Ġtig ers
Ġearthqu ake
Ġavo iding
govern ment
Ġm im
r r
ch ief
Ġpro c
Ġly rics
Ġb b
te es
Ġg ren
Ġbet ray
Ġcomp ly
Ġ8 8
Ġout door
Ġpl as
Ġexp ose
Ġa ired
Ġexcept ions
pro te
Ġd nc
h on
per t
Ġfrank ly
Ġaccount able
ct ive
Ġtra its
Ġbreat hing
Ġdub bed
Ġcry ing
Ġscre aming
Ġpath s
k g
Ġd ivid
al ph
Ġn ie
Ġstreng then
Ġl isa
Ġwork force
Ġac res
Ġnight mare
um s
Ġr ams
Ġintent ions
Ġx i
Ġ ðŁ
Ġjust ified
Ġmar co
ot ion
ad vant
Ġc age
Ġwood en
co ins
id ays
ĠÂ ·
Ġa ld
Ġk ay
Ġprec ious
ate ur
Ġ198 3
Ġtel esc
Ġd vd
Ġ( )
Ġqu ery
Ġd ancing
Ġsl ower
Ġm b
Ġb ite
h z
Ġtact ical
ion ed
Ġg rie
Ġ198 2
f old
Ġlock er
Ġstr anger
ãģ ®
Ġju an
ke ys
pow ered
Ġforum s
ad ic
Ġliber ties
d ays
Ġwr ap
Ġsmart phones
Ġdougl as
Ġjohn ny
Ġreg ards
Ġshif ting
] :
Ġsusp icious
Ġfil ming
Ġheight s
Ġsuspic ion
dog an
Ġgener ating
Ġconclud e
ation ally
Ġcreat ivity
Ġtransform ed
p ublic
sy stem
is ers
ou ds
Ġimplement ing
r ained
Ġmount ed
Ġless er
Ġsens ors
Ġgold man
Ġten ure
Ġret ro
Ġmichel le
âĢ¦ âĢ¦
we b
Ġun rest
Ġjenn ifer
Ġun ch
Ġfo lder
ail ing
Ð ´
iz able
Ġparen thood
ed ed
Ġn i
Ġcomp iled
Ġinter ference
Ġkar l
Ġbelg ium
Ġmor mon
Ġle verage
ater n
Ġlast ed
Ġvulner ability
Ġchart s
Ġg ps
m obile
Ġpar agraph
Ġg b
Ġmatch ing
Ġinv ented
Ġdis pro
Ġconsult ant
Ġp ound
Ġcoast al
cl ing
Ġt ube
Ġbr anches
Ġemper or
Ġcons olid
Ġhistor ian
Ġind ie
Ġencoun tered
are st
Ġdiagn osed
Ġth umb
Ġst ones
Ġdep ri
Ġg au
Ġwhe at
Ġwond ered
Ġsl aves
Ġsoc i
Ġbro s
Ġre bell
Ġargent ina
un ting
Ñ ĭ
Ġcru ise
Ġspir its
g ie
r and
Ġver mont
g ency
ank a
Ġpredict ions
el le
Ġshe d
Ġeuro s
ut ical
Ġmet a
accept able
Ġz oo
Ġeval uate
Ġind ict
Ġloc als
Ġincent ive
Ġrem ed
Ġexhib ition
Ġimp ress
Ġp seud
Ġro lls
Ġeduc ated
Ġcred ibility
Ġl ac
Ġk or
Ġislam ist
Ġsubsc ription
Ġcor rid
Ġgen ius
Ġr ah
Ġbo oth
Ġen ables
Ġcons iders
Ġhung ry
Ġl ith
Ġsuper hero
if fe
Ġincent ives
Ġout look
n ames
Ġstra w
Ġadvent ures
Ġtrad itions
it bart
Ġfl ames
Ġmos que
Ġeb ola
st ud
Ġarrange ment
1 10
Ġref lection
Ġsp are
ok en
s pr
Ġdynam ics
Ġun le
Ġsub way
her ic
av ail
Ġestabl ishing
Ġelim inated
Ġcompat ible
Ġtrib une
Ġfortun ately
Ġgr at
dri ven
Ġsp encer
Ġunve iled
Ġaut ism
Ġrepl ay
Ġvig il
is rael
Ġfe ared
Ġspr ings
Ġn ixon
umb led
Ġnom inated
Ġdetermin ation
Ġn athan
Ġgar bage
Ġind irect
Ġur ging
Ġcompar able
Ġw ip
Ġyour s
Ġme lt
Ġrel ating
ill o
Ġdesc ript
Ġbenefic ial
Ġhind u
Ġencry ption
Ġcollaps ed
20 10
ps y
Ġsand y
Ġbro oks
Ġc er
Ġsuper man
Ġhor m
b oth
ul ative
Ġout right
Ġshif ts
it ative
Ġu c
sh ow
Ġbrazil ian
Ġexhib it
Ġnational s
ud ed
ha ul
Ġmagn itude
Ġbankrupt cy
Ġmete or
j or
Ġsec urities
Ġel sa
Ġ0 2
Ġra f
Ġwarri or
Ġoff shore
Ġf li
Ġste vens
Ġf ond
vi ol
Ġin mates
Ġmil waukee
Ġham mer
======== ========
Ġleban on
claim ed
ind ex
be an
ue ller
Ġden nis
Ġadequ ate
Ġmusic ians
Ġbj p
bo ot
Ġm our
Ġpublic ations
Ġb ast
au x
Ġgovern ance
Ġrev ised
rep res
Ġf ict
Ġobser ve
av en
Ġfundra ising
ov ic
Ġrenew ed
Ġc ents
Ġk on
Ġvol can
Ġbr ick
el ing
Ġappe aling
Ġspons or
as tern
Ġse l
sc he
Ġsh aped
Ġg ad
Ġtra uma
ĠÂ ĵ
Ġag rees
op es
Ġmort ality
ye ah
af i
Ġspec ified
Ġwal ter
Ġgr ind
Ġple aded
Ġroutine ly
Ġprohib ited
Ġadapt ation
Ġcount ed
Ġa ster
p x
le ton
c ot
Ġf lick
Ġun e
. âĢľ
Ġtrib ute
Ġmu hammad
Ġmetrop olitan
Ġh ul
Ġcot ton
Ġlaugh ing
op ard
Ġt iger
Ġlike lihood
Ġment ally
Ġle aks
Ġhar bor
Ġthreat en
. :
Ġp ine
ace utical
Ġan a
Ġp add
Ġp d
â ĪĴ
áĨ «
ah a
Ġcol omb
Ġ __
Ġstr ings
Ġconv inc
Ġorganiz ers
Ġra iders
-- -
Ġer dogan
Ġ7 9
Ġarm en
Ġportfol io
Ġfif a
dis play
r ament
co st
ru p
Ġso x
Ġbern ard
Ġmult ipl
Ġcon gr
Ġl b
Ġhar rison
ab ul
b ank
Ġbrief ing
Ġme ga
an te
Ġfresh man
Ġc ache
Ġb ikes
Ġign oring
Ġcarl os
Ġl amp
Ġst ap
Ġs ink
Ġc ure
Ġpuzz le
Ġd read
ĠâĢľ [
ah l
Ġath lete
ull y
Ġfles h
Ġaggress ion
Ġfirm ly
Ġdon ate
Ġpract ically
Ġsp ike
Ġobser vers
am b
Ġmod ules
Ġd war
Ġfu els
Ġshould ers
the m
h it
ra pe
Ġdisappoint ing
gg le
d et
Ġsu its
air y
ab il
le an
av or
Ġ19 20
Ġcomment ed
Ġwall ace
Ġnort heast
i ate
Ġr c
Ġp t
Ġpurch asing
Ġ198 1
Ġsc i
Ġtouchdown s
Ġcounterpart s
Ġali ens
Ġpolitic o
Ġd iox
Ġrep os
Ġcar go
Ġne xus
Ġassum ptions
Ġp iv
it is
arth y
wr iting
Ġrub ber
Ġfan cy
e a
Ġair line
Ġrese mb
iss a
Ġendors ed
Ġgar cia
Ġd ive
Ġback l
Ġ Ñģ
Ġinevit ably
Ġmass acre
Ġanth rop
e re
Ġ1 10
Ġinf amous
Ġaccur ately
al ys
cont rol
Ġdeal ers
Ġanalys es
Ġn pr
Ġchron icle
commun ic
u v
Ġsp urs
g lo
Ġne at
Ġbl end
Ġte h
Ġcup s
Ġmer it
Ġsect ors
ke es
Ġhe m
ch air
Ġlaw suits
Ġd ug
off icial
Ġsm ok
Ġlength y
Ġdel ays
Ġprotect ive
Ġstri ker
o ons
Ġvari ations
Ġ1 30
res a
Ġexam ination
Ġwor n
>> >>
Ġhe al
w ould
Ġc oo
Ġvi kings
umb ling
Ġconsum ed
Ġrevel ation
Ġbind ing
Ġbill y
o a
Ġsc al
Ġhe ter
Ġorgan ize
Ġnegoti ate
p it
Ġcl a
o ard
Ġbus es
Ġd ip
Ġformer ly
Ġwilling ness
Ġsevere ly
Ġdis advant
Ġaver aged
Ġcal gary
Ġskill ed
Ġp ile
Ġk in
Ġhon our
Ġveget ables
Ġbut ler
Ġse iz
ab ad
Ġsp ill
ubl in
Ġag greg
Ġatt ributes
Ġun st
ch ing
oc aly
Ġcan cel
Ġloc ally
Ġtal es
Ġhal t
Ġtom ato
Ġdr ought
Ġve to
Ġt ory
Ġinvis ible
Ġpal in
Ġent ries
Ġreven ge
se mit
Ġclos ure
h h
Ġed wards
bl ue
Ġaffect ing
f ed
Ġch ile
Ġmod es
Ġcro s
Ġdiagn osis
aff e
Ġger mans
Ġshoot ings
Ġmus h
Ġla ura
pp le
ant o
Ġpriv ately
Ġreason ing
Ġbl air
Ġesc aped
Ġ196 7
Ġb inary
Ġsk i
Ġsub mar
Ġap ology
Ġautom ated
Ġal f
Ġs f
Ġsh apes
Ġden mark
Ġmob ility
Ġqa eda
m ake
Ġlove ly
Ġrail way
Ġcl ouds
Ġrecall s
Ġbron cos
Ġproblem atic
ias m
Ġmar athon
b od
Ġab used
ĠÐ ²
Ġmeasure ments
Ġl ing
ze ch
ho le
Ġevangel ical
mar ks
Ġe cl
Ġwithdra wal
it ated
Ġout break
Ġprop het
Ġtow ers
Ġdemonstr ations
Ġform ing
Ġhol oc
Ġpred iction
Ġscul pt
Ġinter f
Ġloyal ty
Ġcongress man
ios ity
row s
Ġsepar ately
Ġam mun
Ñ Į
Ġwho ever
Ġm ong
Ġv and
Ġemp ower
Ġhero in
Ġcar riers
Ġdefend ants
Ġboy friend
Ġbehavi ors
Ġastron aut
pro of
Ġindepend ently
Ġ18 0
Ġsouth west
Ġconfident ial
Ġ10 1
Ġ8 1
Ġsc ram
Ġlineback er
Ġliber ation
Ġc c
Ġm erg
Ġfar mer
se lling
Ġun anim
Ġshut down
op t
Ġcl ash
Ġname ly
Ġ9 8
Ġde leted
Ġgu ild
ab a
Ġlim iting
Ġkill ings
Ġpix el
soc ial
Ġtrou bles
ac ious
Ġsymbol s
Ġresign ation
Ġbl ur
Ġclass room
Ġf ont
y an
Ġav iation
Ġb out
Ġsupport ive
Ġric o
Ġattack er
Ġtax i
Ġsear ches
Ġb p
Ġstre ams
Ġins ure
Ġsh ah
Ġinfin ite
Ġend e
Ġleg ends
Ġles bian
Ġbillion aire
Ġsurve ys
Ġdefin ing
Ġinappropri ate
Ġben nett
ro d
Ġunder way
Ġg it
Ġen cl
Ġdem ographic
Ġl ately
Ġtr im
Ġalgorith ms
Ġpit cher
Ġvol umes
m d
pe red
Ġdisp ens
Ġ196 8
Ġt ib
Ġtoler ance
Ġw ade
Ġc ss
Ġ19 40
Ġjam ie
Ġmart ial
ph p
Ġconsult ing
ruct ive
Ġgen oc
Ġjac ob
ol ine
Ġswit ched
re ach
Ġpharm aceutical
Ġcre ws
Ġsu ll
Ġspe lls
Ġeag le
Ġ8 4
Ġammun ition
or ia
Ġcelebr ating
Ġlegit im
dem oc
t oo
Ġgriff in
Ġeffect iveness
Ġarch ives
ahaw ks
Ġthorough ly
Ġstrict ly
Ġd aw
Ġnin th
Ġenthus iasm
om o
Ġmedic ation
Ġ8 3
ob ject
Ġs lic
Ġbob by
Ġrac hel
Ġcr ashed
resp ons
Ġed ges
Ġfather s
Ġa ce
cul es
Ġr ack
Ġdu o
in f
Ġvar iant
Ġd ated
ather ine
Ġcost ly
Ġves sel
Ġmat ched
ne ath
Ġevolution ary
h ad
Ġf art
Ġm ueller
as i
Ġint ake
Ġassoci ates
Ġim pe
pe ction
Ġfundament ally
Ġdr ill
a ults
igue z
Ġur an
Ġg ithub
Ġbre itbart
Ġoblig ation
Ġch and
Ġhaz ard
Ġro th
Ġno des
Ġw w
ic he
Ġj ed
Ġredu ces
up date
Ġpresc ription
Ġw ag
Ġcand y
Ġ197 6
Ġg and
ne ver
Ġpre jud
ail and
sc ience
Ġrecommend ation
Ġsac rament
Ġbip art
Ġris en
ul um
Ġpalest ine
Ġm amm
Ġzomb ie
Ġche f
Ġsh in
Ġjul ian
connect ed
e cd
Ġpass ive
Ġdolph ins
Ġal tered
oc ity
Ġ** *
o op
Ġins ists
es ity
Ġsound ed
may be
Ġd angers
d ated
Ġrich mond
ol er
Ġnur se
Ġf usion
Ġtransl ate
Ġe there
Ġ] <|
act ic
s um
âĸĪ âĸĪ
iss ance
we alth
Ġtest ified
Ġbo ots
Ġmy st
Ġbry an
Ġrespons ibilities
Ġmcc arthy
Ġsexual ity
Ġor al
de c
Ġ8 6
Ġcine ma
Ġinspect or
was hington
Ġmalays ia
Ġinvestig ative
Ġunf old
Ġexerc ises
Ġint end
v m
Ġco pper
Ġinsight s
Ġmilit ant
tr ue
Ġaccording ly
Ġelabor ate
Ġciv ic
run ner
Ġt out
Ġ197 5
Ġdiox ide
or th
Ġpen ins
Ġexcept ional
Ġsomet ime
Ġb end
ro ots
ac a
Ġfrustr ating
e g
Ġb atch
Ġsh ark
Ġk an
pp o
Ġbarbar a
do ing
Ġskept ical
nand ez
le ments
Ġlad en
e b
Ġc f
Ġstraight forward
sh irt
Ġsh i
Ġunder neath
Ġp uck
br is
stitution al
Ġco at
Ġsl im
Ġit unes
Ġty r
ple ase
fund ed
Ġ0 3
Ġ197 3
Ġdri ft
Ġr ider
Ġstro ke
Ġmis leading
Ġdis ability
Ġw ow
Ġcon vey
Ġple a
Ġrender ing
f un
Ġswitch ing
Ġt ide
Ġst ays
Ġbed room
Ġmat ure
Ġ9 6
1 20
Ġcl iff
.. ."
Ġr ats
Ġbo ats
Ġclar ity
Ġste pping
Ġbicy cle
Ġsu ite
Ġgu er
Ġhell o
Ġhen d
Ġrecip es
Ġinhab it
Ġv amp
h ner
ag ain
Ġdecl ining
play er
Ġne ural
Ġsche mes
Ġp up
Ġdiscl ose
Ġdr illing
Ġexpress ing
Ġdim ensions
Ġatom ic
Ġ8 7
oth y
Ġm ma
Ġsn ake
Ġsol ic
Ġde lete
Ġs oup
Ġimag ined
Ġfin es
Ġ197 2
ou st
Ġstar ring
de velop
Ġmac ro
Ġfulf ill
cl a
Ġrein for
Ġex agger
Ġqual ities
igh ters
Ġir r
Ġopt ional
Ġv p
g ence
Ġdiv isions
Ġ9 7
Ġgrocer y
Ġplay back
ham med
Ġfor ty
p os
r il
Ġfil med
ale y
Ġdefend ant
ou bted
Ġinter im
Ġaccommod ate
Ġo g
Ġfit z
Ġm vp
Ġd ublin
Ġc i
) (
Ġth ailand
Ġconsum e
Ġa ide
Ġre ct
Ġoper a
Ġcontract ors
ill ery
Ġsou ls
Ġover look
Ġconsist ency
k it
Ġsocial ism
Ġli ability
Ġn dp
ast ically
Ġnew est
Ġsh akes
Ġdif fer
Ġnavig ation
f an
Ġqu o
Ġconf using
ili ation
Ġcomp act
ä ¸
Ġw ounds
o be
yn c
9 00
Ġbre ed
Ġwre ck
Ġtong ue
Ġmis conduct
are z
Ġtri umph
Ġko ch
Ġbry ant
Ġart ifact
Ġcred ential
gen eration
Ġadap ted
n esty
Ġ197 8
Ġm int
Ġt et
le tt
Ġsubstant ially
Ġse ahawks
d in
Ġcatch ing
Ġlos es
Ġrap ed
Ġfran co
ig o
Ġfree ze
j ack
Ġn am
Ġse lls
Ġdign ity
Ġpre season
Ġden ying
Ġwin n
y on
Ġad vers
Ġal umin
pro v
Ġann o
qu al
Ġmaintain s
u ity
Ġinter medi
Ġac ute
k ill
Ġdesper ately
Ġtack les
Ġmultipl ayer
Ġgood man
Ġgu ilt
Ġinc oming
Ġanal og
u z
Ġcance lled
Ġteen agers
Ġmat rix
Ġperman ently
Ġrel ies
Ġsol ved
Ġsun ni
ocu mented
Ġregul ate
ac cess
Ġrest ored
Ġtheore tical
Ġl akes
Ġshe p
Ġmal ware
op ia
Ġobser ver
Ġrodr iguez
Ġq atar
Ġcard inals
Ġa pt
Ġphill ips
Ġoccur ring
Ġz ion
Ġc ute
Ġair pl
br on
loc al
Ġbang l
Ġbelong s
Ġche ss
Ġad verse
p ic
b es
Ġbul lets
Ġmid st
Â ®
Ġarr anged
Ġvend ors
Ġinc umb
bor ough
Ġemp lo
Ġmar cus
ust ing
d av
Â £
Ġmet res
Ġlast ing
Ġforest s
p ict
Ġsh ipped
Ġjud ici
Ġins ert
Ġlegisl ators
l on
Ġswe ep
Ġprocess ed
Ġr b
Ġassoci ations
Ġaccident ally
Ġbrown s
Ġprec ision
Ġtrave lling
Ġther ap
Ġback ers
!! !
Ġml b
ch at
s ay
Ġpu pp
Ġn ad
os c
ĠÐ ½
Ġtrib es
Ġtext ure
mo der
Ġfl ower
build ing
s qu
Ġobject ives
Ġhed ge
Ġre e
Ġnation ally
Ġhydro gen
Ġspe e
Ġadminist rator
Ġcur ry
Ġhear ings
Ġmart ine
d ou
somet hing
Ġc zech
Ġpart isan
Ġsp ite
Ġnational ist
Ġgm t
Ġab oard
Ġk ate
Ġover view
cc a
be fore
Ġsp at
es pecially
qa eda
Ġl ud
Ġob esity
Ġsovereign ty
Ġste aling
st orm
Ġhel met
Ġglo bally
ass es
Ġlabel ed
Ġpenins ula
Ġsal aries
ĠÂ »
Ġbroadcast ing
Ġt ire
Ġprop ri
Ġal ice
Ġund oubted
Ġpl ates
Ġbreak through
Ġholoc aust
Ġter rain
r t
Ġc t
Ġjudici ary
Ġh bo
Ġdel ta
y out
Ġcomple ting
w ick
Ġpun k
Ġpred omin
Ġcon cess
Ġ9 3
ac ies
Ġimm ers
Ġment ions
#### ####
Ġic eland
Ġa ids
hold er
âĢ¦ âĢĿ
na issance
Ġpack ers
Ġfix es
Ġbackl ash
Ġequ ation
Ġtun ed
Ġq b
Ġtr icks
aret te
p ired
Ġdr ain
Ġlic enses
Ġmo z
ane ous
Ġm end
Ġall ied
Ġyog a
ab l
de gree
Ġcub an
Ġdemonstr ates
Ġdetermin ing
is lam
uls ion
Ġg ly
Ġpre ferences
ut ter
Ġinvent ory
Ġanonym ity
Ġcasual ties
Ġb ans
Ġman ages
Ġexplo itation
Ġk az
Ġconfron ted
ar ations
Ġen abling
Ġtele graph
Ġmeas uring
ex ist
Ġh od
Ġart work
Ġconsider ably
Ġz en
Ġreason ably
Ġin k
Ġsuccess or
Ġspee ches
Ġun acceptable
le ep
Ġext ending
Ġhe ck
Ġfel ony
heim er
s im
Ġtravel s
a j
pe lled
Ġaffili ate
Ġh ipp
Ġext ends
Ġaud it
Ġc is
Ġnew er
Ġpers istent
Ġtour ist
Ġoblig ations
or ph
ling ton
Ġbac on
Ġrevel ations
ĠâĢ ĭ
Ġpir ates
Ġpropos ition
Ġgenuine ly
Ġk g
Ġsens itivity
Ġvict ories
l at
uk i
avail able
c amp
Ġflo at
Ġglass es
put ed
Ġpre y
ie val
of t
Ġlie uten
Ġve ctor
Ġpret end
Ġcool ing
200 9
Ġnot orious
Ġin ability
child ren
Ġfacilit ate
Ġhall ow
Ġb erg
Ġpatri ot
Ġflood ing
th ird
v ance
Ġm am
con fig
Ġch an
Ġsp ends
Ġcav al
Ġo st
Ġrel ate
head ed
Ġt ak
Ġn ancy
ir k
Ġch in
mm et
Ġib m
ul ous
Ġrein force
Ġto oth
u um
Ġsubscrib ers
Ġbe aring
ĠÂ °
Ġout let
rat s
Ġdoub ts
Ġmur ders
Ġpleas ant
Ġprosper ity
ian g
inform ation
th irds
Ġtable ts
Ġ9 2
Ġachie ving
Ġpro ving
Ġbuff er
ing ing
Ġsm ash
v ation
Ġanaly tics
Ġst u
Ġnew ton
Ġman us
ex per
Ġ196 9
Ġpat ience
Ġk ath
Ġdig it
Ġha ul
Ġqu inn
Ġsign atures
Ġdro wn
mus lim
Ġbid en
Ġout lined
ss on
v r
Ġris es
Ġl ined
Ġd m
Ġsh aw
Ġfinanc ially
Ġarri ves
Ġqu arters
Ġde bris
Ġvill ain
he ll
Ġtrou bled
Ġar n
Ġcongr at
Ġpet e
Ġamp l
n ut
Ġth orn
Ġanaly zed
Ġtag s
Ġpro xy
ret ion
Ġcy cles
n um
Ġnet working
goo gle
h at
Ġinter fe
Ġsubm ission
Ġfunction ing
Ġcous in
Ġup side
Ġshar ks
orig inal
m ile
Ġca res
ex e
th row
Ġ9 11
Ġbrid ges
Ġban non
Ġnecess ity
Ġhol mes
un ted
Ġshe ep
acc ur
Ġcommit tees
Ġrock y
supp orted
Ġu seless
Ġnegoti ating
Ġarrange ments
ro lling
Ġ0 9
Ġfr ames
........ ........
Ġstimul us
Ġbipart isan
Ġout fit
cast le
Ġlack s
Ġshad ows
Ġcontribut or
Ġneutral ity
Ġmart y
Ġsettle ments
Ġv ag
Ġ" [
Ġphysic ian
Ġves sels
Ġcost ume
Ġsubject ed
Ġl ighter
rele vant
ent ions
ming ham
Ġp ause
Ġred ist
Ġint ens
Ġp df
Ġtrop ical
Ġart istic
ap or
orient ed
Ġam ateur
ri el
Ġco x
Ġd ense
Ġbrother hood
Ġmerc ury
y ang
Ġle ver
cur rent
Ġfl ows
Ġun lock
Ġundoubted ly
rem lin
Ġillustr ated
Ġpant hers
ar ming
Ġassass ination
Ġcompan ion
Ġfin ale
ugg ing
Ġfire arm
Ġex ter
Ġprior it
Ġover haul
r ates
Ġentreprene ur
Ġc p
Ġhand y
Ġbes ide
ir i
Ġpr isons
Ġrefe ren
Ġpl um
Ġaust ria
Ġembr aced
less ness
Ġbar rels
Ġnavig ate
Ġrent al
Ġmonu ment
Ġur gent
Ġfor k
Ġch al
Ġbr ush
Ġ197 7
Ġm cl
Ġm ak
Ġfiref ox
in ces
ls en
rane an
Ġst ub
Ġcorrespond ent
Ġsl ides
ra ham
sh are
Ġmer ced
Ġgl ac
Ġhold ers
Ġconvinc ing
Ġspec ify
res pect
Ġinsp ire
Ġbl own
Ġdesc end
Ġang els
ay ed
in ery
Ġa ides
Ġreview ing
Ġblog s
form er
Ġmus cles
s i
Ġmill s
Ġtoile t
o pp
âĢĿ âĢĶ
Ġpen gu
Ġk icking
Ġpict ured
Ġf itting
cept ions
Ġl lc
Ġmed itation
Ġcub s
Ġattack ers
Ġsam uel
Ġelev ated
Ġdiss ent
Ġtourn aments
os i
Ġutter ly
Ġjurisd iction
al ism
Ġsupp lied
Ġarbit rary
Ġd ia
Ġw ii
ãĢ Ĥ
Ġcal ories
Ġre iter
Ġhol idays
vid ia
Ġman a
Ġmin er
Ġvolunt ary
Ġc bc
Ġsince re
vide o
Ġcol um
Ġbur ger
d irect
p ad
Ġen large
{ \
Ġele g
Ġup s
Ġdefin itive
Ġfro st
Ġam nesty
Ġinfl amm
Ġamb ul
Ġpir ate
atic an
Ġg w
Ġd airy
Ġbox ing
Ġm itch
ad ers
pri v
Ġre nov
Ġjess ica
Ġs add
Ġbusiness man
Ġhot els
Ġ8 9
Ġ197 4
s at
Ġarab ic
Ġs und
Ġpair s
en er
sc ript
Ġhyp oc
Ġachieve ments
Ġbe ats
Ġdiscl osed
Ġlet hal
Ġtact ic
Ġc em
Ġpack s
n ar
Ġd b
Ġphilosoph ical
Ġmathemat ical
Ġvol t
l augh
Ġcas ino
Ġlad ies
der ing
Ġteh ran
Ġ ),
Ġsa ves
Ġst ern
Ġen light
Ġref usal
Ġk icks
st ruction
= âĢĿ
on ts
Ġbe am
Ġ0 7
Ġour s
re v
Ġc ort
Ġmus k
econom ic
Ġtok ens
r ising
Ġy a
Ġswe eping
Ġb ats
Ġbas eline
effect ive
Ġcharacter ized
im ag
terror ism
Ġl aug
m iss
Ġre lying
Ġshe ets
Ġten nis
Ġ{ \
len gth
Ġp ockets
Ġmist aken
Ġa ur
Ġgo re
Ġatt ribute
m ag
Ġhard est
Ġg pu
Ġli ps
Ġinter section
Ġn r
Ġad oles
Ġmed ieval
or us
Ġca ut
pro cess
on er
Ġdim ension
Ġdesign ing
Ġbroad ly
min ation
Ġhoriz ont
Ġover time
Ġrec ur
Ġbe ver
Ġst all
Ġab du
Ġev olve
Ġsub t
sec ret
Ġfac ial
2 000
? !
Ġrel ent
Ġd ru
Ġneur ons
Ġprison er
Ġbag hd
Ġdecl aring
as ters
Ġsubstit ute
it ary
Ġadminist rators
Ġdiscour se
Ġrecre ational
Ġsw all
Ġ197 1
Ġsatisf action
Ġexpect ation
Ġportra it
Ġprov inces
Ġcol ony
Ġsud an
Ġ14 0
Ġus s
w at
Ġdeput ies
Ġcar ib
Ġrecon c
Ġe ternal
b ear
Ġjes se
Ġexpress ions
Ġpray ers
Ġst icks
cent er
Ġmartine z
Ġcred ible
at ter
st ick
Ġattract ion
Ġpas te
Ġdomin ate
Ġendorse ment
Ġinteresting ly
Ġfound ers
ut ing
Ġident ities
Ġcol in
bl r
f al
Ġs ier
lud e
Ġnash ville
Ġ3 50
Ġviol ating
Ġg ul
Ġplug in
Ġinflu ences
Ġread ily
Ġanaly ze
Ġrisk y
ost er
Ġsubscrib ing
r ace
Ġlist ened
Ġover turn
Ġrail road
Ġaim ing
Ġsie ge
Ġa us
Ġha v
m ac
Ġk i
Ġhallow een
Ġlay ing
Ġexe mp
Ġd as
Ġ0 4
Ġtest ament
Ġconc ur
omet er
ll en
Ġfer r
Ġover r
Ġqual ifying
Ġd os
Ġlaug hed
Ġsur pass
Ġmagaz ines
Ġapolog ize
Ġwe ed
Ġf og
des c
Ġinject ion
Ġk ash
Ġpast or
Ġtr act
Ġaust er
as ant
r ise
Ġwhat s
Ġpredecess or
Ġscript s
Ġt ac
ist ically
) |
at hetic
Ġoff line
Ġfemin ism
os aur
Ġcomm itting
ud a
Ġho llow
Ġparam eter
Ġpos es
Ġangel a
Ġdig est
Ġportray ed
Ġatmosp heric
Ġignor ance
Ġ9 4
Ġfavor able
Ġan at
Ġfact ories
Ġjack et
Ġal ban
Ġv ine
Ġtur b
mon ton
e uro
Ġtw ins
Ġman eu
Ġa ub
Ġy u
Ġd ough
Ġla zy
Ġshort age
Ġdeter ior
Ġworks hop
vel t
Ġsumm ar
Ġmo ss
Ġd iction
Ġs v
Ġ9 1
Ġbir mingham
Ġ Ø
Ġacc using
b one
Ġban ning
Ġro ose
Ġtrick y
Ġst icking
Ġche n
Ġjo el
Ġmemor able
ro c
Ġl um
Ġupgr ades
Ġrece ivers
Ġspons ors
Ġn ig
Ġgrad uated
Ġprohib ition
Ġconven ience
Ġexclud ed
Ġv atican
âĢ ĭ
Ġst ig
Ġl uther
Ġmod ify
Ġadvis or
Ġval ve
Ġpal mer
Ġcontract or
Ġ0 8
Ġlab s
u ced
Ġrecord ings
Ġassemb led
Ñ ĩ
Ġx en
ar cer
Ġz ach
Ġwol ves
gra v
Ġw ig
uff icient
Ġrec ount
Ġmake up
Ġse aled
Ġdun can
Ġapp et
Ġp ond
Ġpron ounced
Ġfam ously
Ġhug hes
Ġgre ed
agon ist
lo ve
Ġn asty
d ling
om atic
Ġshut tle
Ġpl un
Ġsc are
aut h
t ail
Ġc ri
Ġv owed
Ġbl oc
Ġrod gers
al ous
Ġimport s
ed e
am an
Ġsoc ially
Ġlinked in
anche z
Ġre lied
Ä ±
ian ces
Ġviol ate
Ġcur iosity
Ġpoet ry
Ġj ong
Ġethere um
Ġen roll
Ġrest oration
Ġmo hammed
ak u
Ġvary ing
ir ical
Ġt d
Ġover see
Ġepide mic
ager y
Ġsubur ban
Ġvar ied
Ġreluct ant
Ġer r
Ġgrand father
Ġn s
Ġc attle
Ġass ange
Ġquant ity
Ġwor ries
o z
he av
Ġb rend
Ġhispan ic
ade qu
Ġun bel
Ġâ Ĩ
Ġboe ing
in ho
Ġro gue
ed uc
Ġn vidia
Ġfe ver
Ġat e
Ġtheat ers
Ġmet ric
Ġdistingu ish
Ġins pection
d ic
ab y
Ġthe or
Ġh oo
Ġs ach
Ġfict ional
Ġsull ivan
Ġfif teen
Ġmerced es
Ġal beit
Ġmin es
Ġuns uccess
Ġf ury
m ich
or ms
Ġdomin ance
Ġh ilar
Ġmathemat ics
Ġbron ze
Ġso y
Ġinj ust
Ġportug al
Ġindian apolis
ale z
id en
Ġsubst ances
Ġp g
Ġd are
Ġtrad es
Ġ0 5
in os
Ġnut s
port ion
Ġno bel
Ġcontain ers
Ġneighbour hood
Ġdo om
Ġhe ated
Ġsl ice
Ġcomple ment
om i
Ġvit amin
k an
Ġh s
ul ator
ro gen
Ġvac uum
Ġe g
Ġd ude
Ġscholars hip
Ġvirt ue
Ġkilomet ers
un ique
Ġprof itable
erv ation
Ġcar p
Ġtouch ing
with out
Ġsl aughter
Ġcorrel ation
g ow
Ġyan kees
head s
Ġd ice
ar ians
f u
Ġcur ric
Ġdies el
Ġk remlin
Ġcred ited
Ġstr at
c li
Ġintention ally
Ġdon or
Ġland mark
Ġnot ification
Ġimp lies
Ġfin land
Ġy o
Ġfin n
gg er
Ġun aware
Ġst ur
ubl ished
est on
Ġcomm em
Ġrob bery
r ill
in it
Ġf oul
Ġdisappoint ment
n els
Ġpet erson
Ġinstall ing
li ers
Ġteam mate
er ting
b ish
Ġpreced ent
Ġfe ather
Ġcollect ions
Ġsat an
Ġtu ition
Ġmis under
Ġinv itation
ir able
Ġlieuten ant
en na
umb ai
Ġsurv iving
ar u
ic er
s or
Ġorgan ised
Ġqueens land
Ġstar ters
Ġwr ist
br aska
c nn
ak y
Ġsol ving
ig a
Ġno on
sh ould
Ġsw ap
Ġle mon
Ġfront ier
Ġhar mon
Ġelim inating
Ġw es
Ġpl aus
Ġmal icious
Ġap ost
t imes
Ġr idge
Ġworry ing
Ġgenoc ide
Ġbar n
p ound
Ġinc omes
Ġr ut
te lling
Ġmess aging
d les
Ġpitch ing
Ġto mm
omet own
rib ly
Ġbl unt
wa it
os ures
Ġflaw s
ah o
Ġh tc
Ġbase ment
Ġzim mer
Ġjun gle
Ġprov es
Ġr ides
Ġval ued
Ġj ab
so ever
Ġut ilities
Ġmont ana
Ġiniti ated
Ġbl izz
Ġgos pel
r int
Ġaer ial
aaaaaaaa aaaaaaaa
Ġinc arcer
Ġobst acles
Ġcens orship
Ġdef ines
Ġadvis ers
et ing
s ix
Ġm ast
Ġa in
Ġar ise
Ġwild er
Ġms nbc
Ġclar ke
Ġauster ity
Ġcon form
Ġphysic ians
do es
Ġyoung est
Ġint act
Ġpresent ing
Ġoff enders
ne apolis
Ġlu is
Ġlin king
Ġlaun ches
Ġisrael is
Ġanno ying
Ġtradem ark
Ġphys i
Ġhabit at
Ġinf lic
od ies
Ġcont ing
Ġthro at
Ġah med
Î ¿
eff icient
Ġl ur
Ġn erve
Ġopp ression
res ist
Ġswe pt
Ġg aps
Ġcher ry
Ġt i
Ġn hs
Ġd ian
Ġill um
Ġconcent rated
Ġreject ion
Ġdup lic
Ġpul se
m ess
Ġfre el
re am
Ġres id
pl ant
th a
Ġbehavior al
Ġniger ia
Ġl ending
Ġquestion able
ev a
Ġcost a
Ġroose velt
Ġevent ual
Ġjeff rey
roph ic
ul in
Ġuran ium
Ġgrand mother
Ġsear ched
Ġmanip ulation
ah an
Ġcann on
m ur
he astern
Î ¹
Ġres et
Ġsho e
Ġcab in
ig ate
Ġconfront ation
Ġsacrament o
Ġrel oc
Ġnons ense
Ġdest iny
Ġap o
Ġexam ining
Ġh ated
Ġentertain ing
200 8
Ġo ath
Ġcop e
Ġinterpre ted
Ġcateg or
Ġh ometown
Ġimp licit
Ġhack ed
Ġmin ers
m n
Ġele ven
Ġc ouch
Ġcolum ns
Ġtri o
Ġvo y
t ri
Ġsier ra
m ount
r ap
g old
ud ge
ful ness
Ġjew el
Ġgor ge
Ġany time
l iter
Ġnut ri
Ġcur rencies
Ġregul ated
Ġse as
Ġincorpor ated
col m
Ġfurn iture
ition al
id o
un ct
Ġover ly
se in
Ġgard ens
Ġc es
Ġprof iles
Ġlif ting
Ġt in
Ġs anchez
reg ard
in is
Ġcommon wealth
Ġmanufact ured
Ġs ri
Ġpl ag
Ġ Ù
Ġhomosexual ity
ol an
Ġcoup led
Ġport al
Ġby pass
m u
Ġsm e
Ġconstrain ts
Ġd ow
Ġwhat soever
Ġpot ter
Ġfl a
Ġcrowd ed
Ġint imate
Ġed monton
Ġbit coins
et a
Ġboss es
v ial
ig hed
Ġcrit ique
g ins
Ġpriv at
00 1
Ġsatell ites
t ur
Ġhead er
Ġspe ar
Ġph p
ivers ity
Ġsound track
Ġbroad way
Ġamend ments
Ġed die
Ġinfect ions
Ġble eding
Ġjo ins
Ġch ad
Ġpack aging
Ġle ase
Ġus d
ange red
Ġalex and
Ġshow er
Ġassault ed
Ġaff irm
Ġback wards
Ġdown s
Ġ196 4
f em
Ġplace ment
Ġma pping
Ġ ion
Ġcommit ments
Ġremem bers
Ġt ender
sp an
Ġar ist
Ġ196 5
ãģ ĭ
Ġflaw ed
âĢĶâĢĶâĢĶâĢĶ âĢĶâĢĶâĢĶâĢĶ
Ġstep han
Ġspecial ized
Ġdecent ral
af p
Ġtrans fers
Ġcert ified
cl ub
Ġpublic ity
Ġintern ationally
Ġdisp ar
Ġgu ided
Ġcredential s
s ervice
Ġfur ious
Ġembarrass ing
Ġball ots
tit le
Ġmer cy
p he
Ġv int
Ġencoun ters
Ġfo ren
Ġop io
Ġremind s
cent ric
Ġol ive
Ġble w
Ġli z
Ġsecret ly
c ro
Ġaccident s
im port
Ġsp here
Ġdist ribute
Ġr ift
ash i
Ġcryptocur rency
Ġextrem ist
Ġcl ashes
Ġprote ins
Ġthread s
Ġph d
Ġbe ans
Ġmet ap
Ġgot ta
Ġab uses
Ġluck ily
as ive
Ġpen ny
Ġrep et
Ġover d
f lo
Ġreact or
Ġsurviv or
sp oken
Ġpred ators
Ġw ang
Ġpow ell
Ġj ared
Ġapart ments
Ġforeign ers
f oc
Ġlegal ization
Ġp es
Ġne braska
Ġbelong ing
Ġcomprom ised
Ġal erts
Ġo re
n ia
******** ********
Ġun covered
red ict
Ġh ike
Ġt il
est a
Ġres il
Ġfall out
" ;
Ġmap le
Ġbe es
Ġsw ear
Ġi q
Ġmor ality
Ġbaghd ad
f ox
Ġp ork
Ġju ven
Ġill usion
Ġpass port
se en
ul ates
Ġrebell ion
us ions
Ġemot ionally
h ang
Ġren dered
Ġbl ond
co ll
spr ing
Ġo un
Ġoff ence
Ġbudget s
Ġbl az
Ġbar r
Ġall ah
Ġk aren
ir th
Ġcook ies
Ġs ql
Ġth a
Ġn aming
Ġprem ise
Ġcoll ision
ope z
Ġmo h
Ġgam bling
om er
Ġsl ate
Ġhob by
Ġstrength s
Ġs b
ic ular
Ġdownload ed
word s
Ġrest art
Ġth y
Ġjun k
ann on
Ġcalcul ate
tal k
Ġhack er
Ġtrack ed
Ġt x
Ġproduct ions
epend ent
Ġhand gun
be y
Ġrain bow
Ġd ining
m ass
Ġir rit
Ġextrem ists
Ġrelig ions
c aster
Ġcon ferences
Ġax is
Ġcomp ounds
min ster
ado x
Ġproceed s
Ġd h
e ment
Ġstead ily
Ġbeh ave
Ġdest ructive
Ġale ppo
Ġdism ant
Ġsc am
ic ides
Ġan them
________________ ________________
Ġunw illing
Ġmanus cript
anc ies
Ġcent res
Ġdef enses
Ġcig arettes
Ġen erg
f y
yout ube
Ġk um
Ġpar as
Ġcall er
Ġwh oles
Ġbu cks
v or
Ġsing ular
Ġmeasure ment
dav id
ment ioned
Ġgonz alez
americ ans
Ġit er
Ġy am
Ġturn out
Ġnice ly
id i
Ġjust ification
Ġatt ach
Ġunemploy ed
w ire
Ġgrad uates
Ġp orter
Ġboe hner
Ġpress ures
Ġwiz ard
Ġdisp utes
Ġcompl aining
' :
Ġsu ited
Ġvill a
Ġcrit ically
Ġdispro portion
est e
def ense
Ġvo iced
Ġcham bers
Ġclear ing
Ġant ar
Ġder iv
Ġru in
Ġrhyth m
Ġsharp ly
Ġcommission ed
Ġopt ed
ident ified
bo llah
cl ose
Ġgib son
f inal
Ġprev ents
Ġp und
Ġp iano
Ġhung ary
Ġover head
Ġrav ens
a ired
ev ent
Ġwh ale
Ġpun ished
Ġdrag ons
Ġfix ing
Ġj ama
fig ure
eng ine
Ġneighbor ing
Ġex cer
j ah
s ite
0000 0000
Ġmarg aret
Ġfe as
Ġactiv ation
Ġb ren
Ġdes cent
Ġge omet
Ġsymb olic
Ġmor ph
Ġflag ship
Ġr ash
Ġgl ance
alys is
Ġhe z
Ġreprodu ctive
Ġres ol
Ġe go
am y
m ah
l ive
f ri
Ġsw an
ug s
em ail
Ġhy pe
Ġend angered
Ġent ers
Ġaggress ively
Ġth ai
au er
str om
h art
Ġcomp lim
Ġpro xim
Ġtour s
Ġporn ography
\ \
Ġde er
Ġbangl adesh
Ġnor man
Ġtal ents
c ill
re ated
Ġun ified
Ġden ies
Ġtrou bling
Ġsav age
Ġmil an
Ġin adequ
Ġrev is
Ġuncon stitutional
d est
Ġin accur
Ġport able
Ġcomp iler
ur as
Ġsh ine
Ġeleph ant
Ġbr ist
Ġchair s
Ġconclud es
Ġin exp
Ġclass ification
ãģ Ħ
Ġintegr ate
Ġknight s
Ġpolic ing
ul ent
Ġterrif ying
Ġhe x
t ag
Ġdis ast
acc ording
Ġdeli vers
ten ham
Ġmal colm
Ġn ail
Ġload s
Ġtoy ota
l ical
app ro
Ġstri pped
er te
c reat
Ġkn ees
Ġrandom ly
Ġen velop
by e
Ġse b
Ġmin neapolis
and ed
Ġic ons
Ġch un
Ġeconom ically
Ġhe els
Ġbol t
Ġdemonst rators
Ġg el
Ġdis gr
Ġfound ations
Ġtit ans
Ġte aches
Ġcampaign ing
add y
Ġem ir
Ġc ater
Ġ0 6
Ġmix ing
Ġ19 45
f air
att ack
m und
Ġwat ches
ob i
Ġstart ups
Ġcalcul ations
Ġge ographic
Ġir relevant
f at
Ġlim b
Ġpro long
Ġma ur
yl an
Ġco y
f ind
Ġsto le
Ġesp orts
somet imes
Ġlit igation
Ġim agery
Ġe is
Ġcat ches
Ġfr uits
Ġadj acent
sh it
Ġnaz is
Ġsubur bs
Ġre be
Ġhas ht
Ġrad i
ck er
r aged
Ġv or
op ic
Ġshow case
Ġel ites
Ġprofess ors
k ia
Ġ16 0
Ġunder go
Ġprom in
v c
Ġstat ute
Ġmet er
Ġcom cast
Ġmar in
Ġsan ction
Ġuncom mon
fam ily
Ġparad ig
Ġmed iter
Ġpe rez
Ġcar ing
Ġmo ist
play ing
Ġcommod ity
Ġs ang
re ction
Ġh ull
Ġmusic ian
k ov
Ġcolumn ist
Ġinde fin
] )
Ġpost ers
Ġhistor ians
Ġscre w
Ġan om
Ġview er
Ġshare holders
le m
Ġsp am
ad vert
.âĢĻ âĢĿ
Ġv m
Ġah mad
reg ular
Ġtra um
Ġfl ame
Ġr ans
Ġcar r
pro ject
um ing
Ġcast ro
Ġtoug her
Ġto mb
Ġna ive
Ġinc on
face book
oc cup
Ġ12 5
g om
Ġap ocaly
Ġcr ap
Ġcontribut ors
Ġapp l
Ġretain ed
Ġattend ees
an ne
Ġsequ ences
op ath
Ġshe lf
Ġorder ing
Ġcom bo
rec ord
Ġra ids
Ġchr om
Ġiron ically
Ġm ons
the ir
Ġla wn
Ġprop ose
Ġk ane
Ġtelesc ope
Ġtib et
Ġoffer ings
Ġbo red
Ġch unk
Ġch ant
Ġart illery
z el
Ġpat ents
ah n
Ã ¸
Ġnew castle
Ġexplo red
Ġgl imp
sc ient
Ġgest ure
Ġd um
im eter
c f
ii i
Ġvacc ines
Ġmind set
im s
Ġcelebr ities
Ġsle e
ok es
Ġmar ines
Ġmotor cycle
Ġglimp se
Ġdisp at
Ġmole cules
Ġnor ms
Ġpear l
Ġdeliber ate
run ning
Ġacadem ics
Ġdisc retion
Ġconsc ience
th ouse
Ġflow ing
qu ery
Ġrecru ited
on i
Ġsyn tax
Ġsimpl er
Ġu bi
Ġconnect ivity
Ġproject ions
Ġang ular
Ġenact ed
ip se
Ġdict ators
Ġcome back
Ġapplic able
Ġprec ip
Ġencour ages
ifi able
Ġl ump
Ġpract icing
Ġl id
Ġbund le
Ġclar ify
Ġacc ent
Ġactiv ism
Ġwal mart
Ġvel ocity
Ġpot ent
Ġp ard
Ġcatal og
Ġstr angers
Ġfact ions
Ġk ap
Ġaccess ed
Ġboy cott
Ġmole cular
Ġpres erved
Ġplas ma
Ġsc ales
Ġdep ict
if ully
Ġdepos it
Ġg ing
cul us
Ġm umbai
m g
Ġk end
Ġu h
Ġaccord ance
Ġpur port
Ġs idel
Ġref uses
Ġsec uring
Ġn ord
Ġconsequ ently
Ġprogress ion
s un
gg ing
Ġde ut
Ġfav ored
Ġpist ol
Ġassign ment
Ġrun ners
Ġpat ron
Ġcur b
Ġcoun cill
Ġgen ome
Ġm k
Ġgod d
lin ing
Ġvin cent
Ġmin us
Ġart ic
Ġno d
Ġmilit ia
Ġu mb
Ġa kin
Ġr as
Ġhal o
w el
ost ic
ophob ia
not hing
Ġe rect
Ġliv est
Ġwhats app
Ġhor rific
Ġpar adox
Ġhum ble
Ġw ired
Ġim aging
Ġcomb ining
Ġstor ms
Ġsur plus
Ġinfant ry
Ġhom icide
re view
Ġem ily
Ġref res
Ġfavor ites
Ġhud son
cle ar
f ood
Ġl or
Ġun law
Ġrevers ed
Ġint ends
ai res
Ġfact ion
Ġgrass roots
g art
Ġst ing
Ġcarib bean
Ġtr il
Ġcontemp t
Ġcance led
Ġeth an
Ġindict ment
am ation
Ġreal ised
Ġassess ed
Ġmediter ranean
Ġpy ram
Ġsp er
Ġimport ed
ab i
Ġpl aza
Ġther mal
os hi
act iv
Ġrest rain
Ġappreci ation
Ġdo i
Ġexpl oded
Ġnot ified
how ever
Ġque ue
Ġcrack down
ri age
Ġsystem atic
Ġtum blr
Ġfiref ighters
gh ai
Ġflee ing
he llo
Ġint ensive
b ag
Ġtomm y
Ġd art
as te
Ġair stri
Ġcoc on
cy cl
Ġmir acle
Ġcompar isons
Ġmetap hor
o ct
áħ µ
h all
Ġexped ition
Ġc un
Ġdrag ged
lin ary
os ity
Ġher b
Ġblog ger
Ġimmun ity
Ġb ri
cont ro
Ġfin ances
load s
Ġapplic ants
Ġbas ics
Ġsc or
Ġcontrad ict
Ġhond a
ov o
Ġst akes
Ġsm iling
Ġamb ig
Ġactiv ated
own er
Ġfl ies
Ġdig ging
Ġz ip
Ġreal ise
Ġsc outs
Ġthr illed
Ġval ent
Ġs ag
Ġland lord
Ġbre tt
Ġhe ating
Ġeurope ans
Ġst iff
than ks
Ġbe ard
Ġdist ress
Ġpromot ions
' )
Ġdress ing
Ġvint age
ograph ical
Ġreb ounds
] ;
Ġo ven
> <
Ġbull ying
Ġv iv
Ġwas ted
Ġnurs es
Ġl opez
Ġconce aled
in tern
Ġf ist
âĢĿ :
Ġny c
Ġcontin ually
Ġautom ation
b ud
Ġdisp atch
Ġdepos its
Ġpromot ional
bus iness
Ġoverwhelming ly
Ġindic ator
st an
mm a
ip h
Ġre x
we et
os ph
Ġalumin um
Ġcontr ace
c u
Ġl ore
Ġemphas ized
mem ber
Ġdes ires
sh aped
Ġlat ino
Ġsand wich
en ergy
Ġcoord ination
Ġrall ies
Ġhez bollah
j pg
uss ion
Ġadjust ment
Ġliqu or
Ġrepos itory
s ens
Ġtr avis
|> âĢľ
Ġim min
Ġfaith ful
Ġorg ans
Ġintrig uing
Ġde rek
Ġcorrid or
Ġk ol
Ġsanct uary
Ġun int
e ks
ues e
Ġsc attered
Ġconv ictions
Ġr asp
i am
Ġcollect ively
Ġh atch
Ġref r
Ġver bal
Ġtex ans
Ġiss uing
Ġunder w
asc us
Ġph ant
Ġsec re
def ined
Ġdis gu
Ġch ord
Ġneed ing
se lect
ke ll
Ġlot tery
ogen ic
Ġcous ins
ain ted
Ġremark ably
Ġsu cc
Ġir ony
Ġli ed
Ġneg lig
every one
Ġsn y
z ie
Ġthreat ens
oul os
Ġconfir ms
Ġgas oline
Ġsent encing
ac ter
Ġab ortions
Â Ģ
mp h
bri en
Ġab raham
Ġexplore r
Ġun happy
er able
Ġst a
Ġobsc ure
pp ling
Ġun conscious
Ġk its
Ġcat aly
Ġw oo
Ġ9 00
Ġpredict able
Ġwe aker
Ġsim ulation
Ġl akers
Ġdat as
ver ted
Ġgand hi
uff y
Ġund ocumented
Ġunbel iev
Ġman ually
j ournal
Ġdis hes
Ġlad der
Ġcar roll
Ġdep icted
gh azi
Ġaccount ed
Ġnurs ing
Ġul tr
e ze
Ġbe an
rit ical
Ġleon ard
Ġbelg ian
Ġdisast rous
Ġenv ision
Ġmount ing
set t
am pton
ãģ Ł
Ġinvestig ator
g ay
ens en
l os
Ġken ya
Ġtatt oo
Ġlack ed
char ged
hel p
Ġforth coming
Ġbatt ling
Ġsurren der
Ġp ts
int rodu
Ġaut umn
Ġso d
Ġgovern ors
Ġafter ward
Ġleg o
Ġword press
Ġth ir
. ).
bl ood
Ġcritic ised
gom ery
Ġh og
Ġc ables
load ed
ear th
Ġb mw
Ġto ggle
Ġbr is
Ġch asing
im g
Ġnich olas
ir med
Ġb um
Ġs acks
Ġthank fully
Ġjosh ua
Ġ- --
g ard
Ġpe w
Ġsil k
Ġsyn c
Ġpost season
Ġaut op
Ġl il
Ġro oted
Ġlog s
Ġguarante es
th reat
Ġhand les
Ġconcent rations
laugh s
Ġsatisf y
app le
m bl
Ġqu ot
s ki
Ġassert ion
Ġ: )
h m
a is
Ġhalf way
bu y
Ġpurs ued
Ġy ale
w omen
Ġs ans
Ġaw aken
Ġappreci ated
Ġmel an
at able
x on
Ġj in
Ġcl int
Ġshout ing
Ġgate way
Ġcase y
Ġmonop oly
bro ok
Ġconstit ute
Ġbib lical
Ġhier archy
Ġdispos al
Ġbackground s
Ġs ut
Ġman ga
oc y
Ġbank ers
w age
li ber
ol ics
Ġefficient ly
Ġacc laim
Ġdisrupt ion
Ġla z
Ġport ions
Ġmos ul
th ank
Ġ196 6
list ed
Ġdock er
imens ional
Ġmarg ins
Ġno ah
Ġnov a
Ġkilomet res
Ġansw ering
Ġp ets
Ġcr unch
b ard
Ġcl ue
Ġw ield
Ġconv entions
Ġopt ical
Ġathe ist
Ġcig arette
Ġmetab ol
g ene
âĢ¢ âĢ¢
Ġsh ook
Ġab usive
Ġch i
te m
Ġdisc ipl
Ġsh aking
Ġpat ches
Ġr d
Ġeas iest
Ġ ï¿½
Ġdef er
Ġdispl aced
Ġv as
Ġtra ject
l angu
Ġthr one
Ġv icious
Ġlun ar
Ġdec ay
Ġs aga
Ġhapp ily
ipe g
Ġr anges
Ġstaff ers
amp ed
Ġment ality
Ġpe an
Ġtou ches
Ġann oy
Ġcol ored
Ġcl an
Ġware house
Ġsp ont
Ġamb ition
Ġsynthe tic
Ġad rian
Ġbom ber
Ġb ach
Ġpr one
Ġadjust ments
Ġto e
russ ian
Ġsl ated
Ġill ustration
Ġdeal er
Ġeas ter
Ġsimp son
Ġconfed erate
i ott
ik o
b ol
f its
Ġgu ides
et on
Ġrom ance
Ġd ame
Ġdish on
Ġrif les
qu it
ãĢ ģ
Ġmon key
Ġsoph om
Ġapp ar
Ġdiction ary
Ġdis puted
Ġinstruct ed
Ġun real
Ġarm strong
Ġw er
Ġext inction
Ġtransport ed
Ġro ws
Ġdam ascus
Ġremain der
ma jor
Ġindivid ually
Ġlight weight
sh aring
Ġw ool
Ġmet rics
ri ans
Ġaffili ated
Ġbl at
Ġn un
en berg
Ġcr an
Ġn inet
Ġinaug uration
d ire
Ġnor we
Ġbon uses
Ġt ense
Ġaest hetic
Ġst aring
de ep
Ġgl as
Ġhaw ks
es ville
ab lo
Ġper ipher
Ġdetect ives
Ġle x
Ġcolomb ia
ver ing
Ġn ets
Ġremote ly
Ġste alth
Ġgener ator
l av
Ġun to
Ġw als
de ath
Ġseg ments
Ġcharacter istic
Ġchap ters
ic an
Ġsny der
Ġcompet itor
Ġdan ish
Ġimm ort
Ġcurric ulum
Ġrecruit ment
Ġpull s
Ġrand y
Ġs way
Ġdistingu ished
ol ar
Ġste ering
Ġt ul
Ġcere mon
Ġje opard
m ult
Ġpar ked
dep th
al one
Ġmater n
Ġcontinu ously
pol ice
Ġintegr al
Ġsurvey ed
Ġanx ious
Ġportug uese
Ġsupervis or
Ġfor wards
do llar
Ġdeleg ation
Ġautonom y
Ġâ Ī
Ġenterpr ises
Ġoce ans
Ġpartic le
Ġup hold
Ġinv ention
xx xx
Ġunp redict
Ġsmall est
Ġbreat he
Ñģ ÑĤ
Ġrecover ing
1 30
Ġte as
Ġby tes
Ġt ant
Ġpar a
Ġo culus
Ġsac rific
b ia
Ġcook ed
Ġnew com
Ġmatthe ws
Ġincumb ent
Ġme mp
Ġsuprem ac
Ġcem et
Ġb ore
g ot
Ġv est
Ġexcer pt
Ġreal izing
Ġbrig ade
Ġ( Â£
Ġst agger
Ġid aho
sm ith
Ġdirect ing
Ġinspir ing
Ġ196 3
Ġaf l
Ġben ghazi
Ġgl en
Ġcertain ty
Ġs gt
Ġpsychiat ric
Ġabd ul
Ġp iss
Ġadv ancing
Ġrab bit
Ġcl ips
Ġcent ered
Ġeb ay
Ġconsult ation
Ġp estic
po on
ro b
euro pe
Ġl ol
Ġbe th
Ġquarterback s
Ġre yn
Ġat op
Ġreflect ing
Ġaver aging
oun cing
ac s
Ġwiz ards
Ġcemet ery
te ous
_ {
Ġoptim al
Ġd ale
Ġ( -
ach t
Ġco ding
Ġw ax
Ġshout ed
Ġhor rif
Ġrichard son
Ġordin ance
Ġcr ashes
Ġjail ed
Ġcell ular
Ġdar win
Ġbound ary
mid t
Ġbench mark
Ġson ic
ro v
Ġsing les
Ġem ma
Ġshan ghai
Ġto pped
Ġis bn
Ġstal in
Ġsupp ress
Ġster ling
o vers
.' "
op oulos
Ġlight ly
Ġst am
Ġblow ing
Ġamb itions
Ġhold ings
Ġplaint iffs
Ġeduc ate
Ġfert il
ke eping
Ġpri ests
Ġinherent ly
el ed
Ġid ol
Ġweakness es
Ġsun light
Ġpit ches
Ġflav ors
Ġwhistle bl
Ġno kia
Ġreds kins
** *
in fl
Ġto l
Ġfortun ate
Ġwond ers
at ility
Ġprov oc
Ġshot gun
Ġsi xt
Ġcor tex
f ia
ote ch
s outh
Ġri pped
Ġno stal
Ġri ots
Ġq ur
gg y
Ġexplan ations
Ġstu art
Ġt b
ne xt
Ġwild ly
Ġtrad ers
Ġthr ust
Ġcur se
Ġd ucks
Ġor acle
Ġu cla
Ġtr ails
Ġprompt ing
Ġeat en
Ġlic ence
cl oud
Ġbl essed
Ġset h
Ġgr ades
Ġminim ize
Ġhun ters
Ġw ives
Ġcol ts
Ġout law
Ġmig rant
cl ock
Ġcro re
Ġn j
Ġgab riel
Ù Ĭ
Ġpit ched
Ġdri ed
Ġab rupt
Ġcl own
Ġev an
it as
Ġexplo ited
er ie
Ġcont ender
Ġas leep
Ġt ires
Ġcocon ut
Ġl ingu
Ġpier re
red it
Ġwh ip
Ġair ports
Ġj son
Ġper l
Ġid i
Ġfil ters
Ġimmin ent
Ġm ash
Ġcr ush
Ġdistinct ive
Ġwal t
Ġ| |
g ical
Ġimpact ed
ĠÂ Ń
Ġr ails
Ġtro op
d led
Ġr pg
Ġmont gomery
ad ata
Ġfe ud
Ġreli ability
ber ger
Ġell is
Ġme ad
Ġwest minster
Ġdiam eter
Ġrem ar
Ġmad ness
if iers
Ġken ny
Ġw ished
Ġforb es
Ġopen er
Ġang les
Ġr ag
Ġch ill
Ġar rog
m eth
Ġtrib un
pe ace
Ġcard inal
Ġvari ants
Ġexplos ives
Ġcrime a
sh oot
Ġdel aware
tech n
Ġwe ighed
Ġs no
Ġcon du
ow itz
Ġtw ent
em ic
Ġflo ors
Ġmarri ages
langu age
Ġmight y
Ġlegitim acy
g ling
Ġrep s
Ġmasc ul
Ġoff enses
Ġblizz ard
ind ust
Ġhend erson
Ġarn old
Ġloc ate
Ġg ust
Ġimprison ment
Ġarc ade
Ġrev ision
Ġtreat s
Ġsk ate
Ġthanks giving
Ġlouis ville
us ers
Ġeff ic
Ġdes erved
Ġmatch up
Ġmain land
and y
Ġtot tenham
Ġresc ued
g io
Ġprob ation
Ġunde rest
Ġmar king
ong yang
|> (
Ġr alph
polit ical
americ a
Ġauthor itarian
Ġplaus ible
Ġmon te
Ġcolon el
Ġbrow s
Ġwinn ipeg
Ġan ten
Ġbill board
Ġinstru mental
et ooth
Ġkle in
Ġconsist ing
Ġancest ors
c oun
n ull
Ġtele com
Ġ( +
Ġw end
Ġpract ition
Ġsteel ers
Ġunp op
Ġgener ates
il ers
am az
a que
Ġer n
Ġsufficient ly
ean or
et ta
Ġchar gers
Ġco h
sex ual
Ġkind a
Ġtwist ed
Ġt at
Ġpros pective
âĢĿ ).
Ġbatt al
Ġconsum ing
Ġhorizont al
Ġsp ying
Ġupgr aded
Ġash ley
Ġelect orate
Ġbar nes
d at
Ġwatch dog
ot ive
Ġext ensions
Ġf f
,' '
ÑĢ Ð°
Ġbuck et
b ane
Ġbuy er
io v
Ġun ite
n p
Ġbr ag
Ġvar ies
Ġho ff
áħ ³
Ġse v
Ġincorpor ate
fo llow
u er
Ġposition ed
Ġcan al
ult z
st ars
Ġbud dy
Ġgang s
ast ing
Ġclim bed
Ġsepar at
Ġm ik
Ġclin ics
Ġbou lev
lic ity
Ġsch ne
Ġb ould
id y
Ġassist ed
Ġlow ered
asc ar
Ġind y
Ġhon ored
Ġcooper ative
Ġabsor b
Ġcomed ian
Ġqu art
12 5
m atch
Ġal igned
Ġo we
Ġhuge ly
Ġimp osing
uff ed
Ġyield s
Ġbuzz feed
Ġlog in
Ġst airs
pr ints
Ġg ag
Ġinhabit ants
Ġcrus hed
Ġprem ature
or um
b ird
Ġbre eding
Ġseek ers
Ġint ro
ris k
Ġus c
Ġcoinc idence
Ġpro lif
Ġkas ich
Ġcontinent al
Ġplant ed
Ġnic he
Ġg rief
Ġhe in
Ġres ent
Ġdec isive
Ġintu itive
Ġprotect s
w l
pect ives
Ġmar ie
Ġsal ad
Ġadd ict
Ġfl int
Ġf en
Ġcry st
Ġdyn asty
Ġwel sh
Ġ vern
Ġb t
t ically
are a
Ġcycl ists
Ġpersu ade
Ġm n
Ġpr iced
fl ight
Ġj agu
Ġca iro
ach i
Ġcontemp l
Ġfart her
Ġunder water
Ġjud ging
de al
mod el
e ast
Ġp ony
Ġwrit ings
m oney
Ġscout ing
Ġi van
Ġjen kins
Ġfrag ile
Ġk ush
Ġnational ism
Ġmanip ulate
Ġmerch and
g ro
Ġ Ø§
% ),
pe are
Ġgenet ically
Ġexp ans
ap i
Ġluc rative
ball s
con tain
Ġinsect s
Ġr w
Ġsimilar ities
Ġba iley
Ġrecip ients
Ġb aking
Ġprotest ing
Ġev olving
Ġoptim ism
Ġfal cons
h p
Ġhop kins
Ġinjust ice
Ġout reach
âĢĿ ?
Ġambul ance
ass ing
h ack
Ġtun is
Ġsatisf ying
Ġimp ul
w on
ĠÎ ¼
Ġunpop ular
Ġd ylan
Ġdep ressed
Ġrecogn ised
Ġsyn chron
Ġprotocol s
pt ic
Ġvan illa
Ġquant ities
Ġsli pped
Ġwh ales
Ġpres ervation
Ġapp end
Ġnegoti ated
Ġven ues
an other
Ġwork out
gr and
Ġinher it
ang o
Ġfin est
Ġemp athy
Ġdirect ive
Ġslow ed
Ġal arming
Ġdist urb
Ġblack berry
Ġfal con
w ave
Ġparticip ant
Ġfair ness
Ġinc ap
Ġup rising
comm it
Ġbr ass
Ġunder grad
Ġencry pted
Ġbail out
Ġsh orts
Ġ> >>
Ġmemp his
Ġf n
Ġheavy weight
Ġdelight ed
Ġwe ars
i u
Ġcath olics
1 000
Ġ ..
c ross
oo oo
Ù Ĩ
Ġmonit ors
3 50
Ġthri ve
Ġgen eva
Ġh ut
il ight
om on
Ġred irect
w ald
whe ther
Ġun ic
Ġsecre cy
Ġanne x
s al
Ġshow c
Ġe a
Ġhus sein
v iously
Ġdescript ions
ãģ Ĺ
Ġcd c
Ġactiv ate
Ġg um
Ġcirc ulation
Ġd ull
Ġrecon struction
Ġobtain ing
Ġadd itions
b ach
Ġv od
Ġno dd
Ġging rich
Ġjac obs
and o
Ġincons istent
Ġint oler
f est
is y
ad ays
Ġsil va
Ġj ays
ass ad
Ġpy ongyang
Ġred es
cl osed
Ġappe aled
Ġhur ts
app er
Ġpick up
Ġelim ination
c ould
Ġexp osing
Ġuk ip
s il
Ġb ounce
ish a
Ġillustr ate
Ġsex y
Ġsc p
Ġman n
Ġle vy
er ror
Ġwar ns
Ġank le
il itation
Ġfair y
Ġfre ak
Ġsens ible
Ġaston ishing
te ll
Ġhaw k
sh ad
Ġhuff ington
Ġ196 2
Ġincl usive
n umber
Ġo mar
ins ki
Ġproject ion
Ġbi ased
ĠÐ ¾
Ġsymp athy
Ġs ack
Ġpost p
Ġleaf s
Ġcatast rophic
Ġad ul
an as
spe aking
Ġup ward
Ġfemin ists
Ġf ren
Ġrev ival
iz ers
Ġli k
Ġdra ke
ik er
Ġmo g
Ġfore most
Ġgreg ory
Ġutil ize
Ġtrave lled
c ock
Ġvib rant
Ġconsist ed
Ġconstitu ents
Ġthr ones
Ġcontro llers
is le
Ġo val
Ġprop he
Ġr ays
Ġbrew ers
Ġj s
add afi
met ic
u ction
Ġspin ning
Ġupload ed
Ġcook ie
Ġrecogn ise
d ar
Î µ
Ġw u
Ġsw at
Ġcos mic
Ġs ul
Ġslam med
ugg ed
ator ial
Ġcool er
Ġro pe
Ġsom alia
Ġd ana
Ġapp la
Ġtra it
Ġenthusi astic
Ġsamp ling
Ġemerg ence
Ġferr ari
Ġball oon
Ġgar lic
Ġmethod ology
Ġmicro sc
Ġinput s
y et
Ġment or
Ġpaint ings
Ġt ended
Ġpar s
áħ ©
Ġvend or
Ġblu etooth
gir l
Ġdut erte
Ġver ified
Ġglo ves
Ġshel ves
Ġrepe ating
Ġp act
Ġh ref
Ġar che
Î ½
Ġun related
Ġscreens hot
Ġne arest
Ġdiplom ats
ge ois
Ġecl ipse
Ġleg ion
uff le
dri ving
Ġcole man
Ġv ault
Ġdod gers
Ġrem inis
Ġjud ged
Ġhilar ious
Ġsophom ore
d imensional
Ġb rent
Ġcomp ile
ch ant
Ġ12 8
Ġdefic its
Ġimpro per
Ġ10 5
glo bal
Ġaf ore
Ġp av
Ġarchitect s
Ġemb ry
Ġincl ined
Ġw ifi
Ġchar m
ant an
vent ions
prote ct
onym ous
ens on
Ġcamp uses
Ġdefin itions
Ġdatab ases
Ġj ourn
cour t
Ġd ile
Ġbook ed
Ġell iott
des p
Ġmun ich
Ġf uk
el ong
b ucks
Ġsh ade
Ġge ek
Ġlo ver
Ġcoord inated
Ġsubject ive
ch ina
Ġterrit orial
Ġdark er
cre ate
Ġdiet ary
Ġmillenn ials
Ġdys function
Ġmar it
op a
Ġtight ly
Ġnot ifications
Ġrecogn izing
g one
Ġso ap
Ġsa k
Ġrece ip
Ġbudd hist
Ġac lu
Ġreal ities
Ġlog ging
Ġshield s
Ġins ufficient
Ġtri angle
Ġnorwe gian
or ge
Ġcooper ate
Ġunder cover
[ /
Ġathe ists
Ġoutrage ous
Ġn sw
am ic
Ġcl ues
Ġg ently
Ġrespons ive
Ġgu ine
d uring
Ġre ne
Ġform ats
Ġslow ing
Ġbur ke
Ġc ites
que z
Ġgenes is
Ġzomb ies
Ġsch iz
Ġpredomin antly
Ġout line
ry ing
Ġlone ly
Ġshakes peare
Ġbi ography
Ġrecip ient
Ġk hal
Ġabund ance
spec ial
iot ics
Ġlit eral
Ġinterven e
Ġque er
Ġp oured
ob a
Ġlobby ists
Ġcan yon
Ġcapt uring
Ġan ecd
Ġben g
t om
Ġp ills
l it
Ġtas ked
Ġstate wide
Ġenfor ced
Ġat hens
em ber
Ġhand ing
Ġapo llo
Ġobserv atory
Ġdis abilities
Ġfut ures
ass oci
Ġsc ra
Ġj up
Ġscar ce
id ity
Ġserv ants
qu ito
nor th
Ġver ge
Ġhe mp
} ,
heart ed
ard i
p ark
um an
Ġbarg aining
age ment
Ġarm ies
Ġsl ots
Ġalle ges
ĠÂ «
asc ular
Ġpract iced
Ġscr ap
Ġdetain ees
Ġcollect or
Ġrelax ed
Ġman kind
Ġthe resa
Ġinher ited
Ġw oke
Ġfig uring
Ġforb idden
" ).
Ġal z
Ġproxim ity
er ick
Ġlo vers
Ġpositive ly
Ġbudd h
Ġer ik
Ġhelicop ters
Ġsuper intend
Ġpersonal ities
Ġbac hel
b illion
Ġb ing
Ġmonit ored
a ul
Ġdeb ts
Ġkur ds
anth rop
Ġl end
Ġcl aw
dri ve
Ġ ï
Ġextensive ly
Ġinterfe re
st ated
Ġtechn ic
Ġearn est
names e
Ġse ize
Ġtw itch
Ġk iev
Ġperform s
Ġgau ge
Ġtast es
Ġco vert
ar r
og yn
Ġselect ing
squ are
Ġecho ed
Ġvin yl
Ġf m
Ġpel osi
Ġmon arch
osp here
Ġcomb inations
Ġaccompan ying
Ġcaut ious
Ġairpl ane
Ġl anc
ĠÐ ¸
Ġsh red
Ġpar ish
Ġintern ally
Ġoverlook ed
p ers
Ġpers pectives
Ġseb ast
Ġadm ire
Ġshall ow
Ġmc g
im edia
Ġcon gest
Ġjust ices
Ġgorge ous
Ġreck less
Ġd oses
Ġpro l
Ġtri vial
Ġsun ny
Ġroberts on
Ġredu ctions
ar us
ch t
Ġwals h
Ġp am
Ġawa iting
Ġcro at
Ġqu ar
ment ation
Ġcommun ism
ãģ ¨
Ġcommand ers
st ill
Ġund is
Ġboulev ard
Ġmin eral
Ġobs essed
every thing
Ġpotato es
moder n
Ġsl ack
Ġhome owners
Ġver se
Ġpione er
Ġback ward
Ġh ints
Ġl ance
Ġpo ised
hy dr
Ġjul ia
Ġinter state
Ġpa ired
Ġhem isp
Ġun supported
w ild
ar ray
Ġde ll
Ġself ish
at isf
Ġb ount
ipp ers
Ġbe ts
Ġ196 1
Ġpremium s
Ġpen is
Ġincomp lete
g rown
Ġreward ed
Ġexha usted
Ġcorrect ed
Ġpartnership s
Ġnar c
Ġlog ged
Ġpri x
Ġind ul
Ġmu g
Ġcandid acy
f illed
Ġalf red
Ġpo ker
Ġdemonstr ating
Ġst agn
Ġretail er
Ġcert ification
Ġcraft ed
Ġsupp liers
Ġpa ve
Ġfl uct
Ġaustral ians
Ġs ask
Ġl l
Ġborrow ing
Ġbash ar
c in
Ġun a
Ġhighlight ing
Ġbless ing
Ġquick er
Ġimp lied
Ġx l
Ġtest ify
Ġexclus ion
c ig
Ġserge ant
ov ich
Ġenjo ys
200 7
Ġinadequ ate
Ġrespect s
Ġt pp
Ġinsist ing
Ġd orm
Ġal ley
Ġprob able
Ġbo asts
Ġorigin ated
che m
Ġsib lings
Ġmil estone
Ġun named
Ġmention ing
Ġpri zes
b ill
Ġafore mentioned
Ġsh irts
Ġrefe ree
Ġl enses
Ġgr ams
Ġbrack et
sh ine
Ġmur de
Ġe ther
Ġl loyd
ac erb
Ġcol ours
Ġorgan isms
Ġscre am
Ġoverwhel med
ator ies
ilit ary
Ġnow adays
el t
Ġmin ors
Ġtim ber
Ġbelong ed
Ġdeport ation
h ouses
Ġro de
Ġdist ances
be h
h ots
Ġass aults
Ġfl own
Ġest e
Ġtele communic
Ġbat ting
Ġmedic ations
Ġass erted
Ġcl oth
Ġchallen ger
xt on
Ġpet ty
ãĥ ¼
Ġam ended
Ġforen sic
Ġloc ks
Ġpopul ist
ave z
leg al
st atus
Ġx p
Ġdisapp ro
Ġsen iors
Ġtrain er
Ġhur ting
Ġobs ession
display style
le um
Ġsl ogan
Ġeval uated
Ġparadig m
act ivity
Ġpus hes
Ġt ories
.' '
desp ite
Ġher nandez
ey ed
Ġprim aries
um ed
Ġhar ness
Ġsurf aces
Ġk ra
Ġlo oph
Ġpedest rian
Ġrep ay
year s
Ġrab bi
Ġsub urb
Ġn im
Ġsun set
Ġfly ers
ro e
Ġab er
Ġmot ive
Ġpool s
we ather
Ġadminist ered
Ġtro y
Ġharm ony
Ġimprison ed
p se
Ġm und
work ers
Ġdod ge
Ġg ases
ash a
Ġinter ventions
Ġcolon ies
Ġadm itting
Ġpassword s
author ized
Ġisa ac
Ġle o
Ġco res
u ber
Ġstab bed
Ġbot hered
Ġvast ly
Ġexc av
Ġex acerb
ac ion
Ġviet namese
Ġobject ions
Ġc ared
Ġkur t
Ġlind a
Ġsch umer
Ġpromot es
Ġrele g
Ġpr ag
Ġrespond s
ur able
r ina
Ġplanet ary
Ġcl one
Ġconj unction
Ġmach inery
Ġav al
Ġchar itable
Ġvis ibility
Ġconsider ations
st airs
Ġinsure rs
Ġstrateg ist
Ġbol ster
Ġn ug
Ġfeed s
Ġen comp
Ġqu int
Ġunderstand able
ason able
Ġor ph
Ġphenomen a
Ġball istic
Ġpip es
Ġkash mir
ex cept
Ġbom bers
Ġ19 48
Ġth ie
Ġpl ural
Ġsp raw
Ġdo j
Ġhard core
Ġgar ner
Ġadv ise
Ġauthor ization
Ġprocess ors
Ġpig s
Ġfreedom s
Ġcalc ulation
grow ing
v able
Ġst aged
Ġinform al
Ġm ansion
Ġdev ils
Ġdub ai
Ġp ensions
Ġaven gers
Ġnot or
Ġin ning
Ġmerch ant
d ark
bal ance
Ġturn bull
Ġj ung
Ġconcent rate
Ġbro ck
Ġd ome
Ġste llar
Ġpar an
Ġlog an
Ġro c
Ġop s
Ġec u
Ġsens ation
Ġ* /
Ðµ Ð½
Ġmos quito
Ġen rich
Ġsm iled
Ġran ch
Ġsach s
Ġtour ing
Ġf s
Ġf id
Ġf itted
Ġg ast
Ġne pal
ys ical
Ġten ants
Ġed in
if a
Ġst yl
Ġag grav
Ġsy l
ens ed
Ġsus cept
Ġwel coming
te enth
Ġaffect ion
ÂĢ Â
Ġtim othy
Ġcontest ed
step s
Ġvisit or
ear ly
Ġco ven
Ġjul ie
Ġauthentic ation
Ġpl ots
Ġs ands
Ġpit chers
Ġneighbour s
Ġincon ven
Ġfr acking
d rew
Ġc ed
Ġun equ
f iles
Ġaccess ories
v ak
Ġwilder ness
Ġch im
Ġwho lly
Ġpen cil
Ġstruct ured
Ġdiscover ing
ific ant
Ġp cs
Ġgrand pa
Ġb ree
Ġn ak
Ġtril ogy
Ġrec laim
pr ising
Ġgt x
Ġl oun
Ġwin ston
Ġstory telling
" ),
Ġdiplom acy
Ġextrem ism
d l
Ġex ile
Ġweigh ing
r ays
Ġpay roll
Ġparad ise
Ġproceed ed
Ġweek ends
Ġen rolled
im ated
Ġthere after
Ġconf isc
Ġ ×
Ġp anc
Ġcomment ators
Ġcorner back
Ġjourn als
Ġcont ention
Ġma o
Ġbur gl
Ġunlaw ful
Ġreg istry
ophob ic
Ġim f
16 0
Ġapolog ized
Ġcomplic ations
re lla
Ġprot agonist
Ġfl an
het ical
Ġsne ak
osa urs
Ġd s
Ġcons oles
Ġtort ured
Ġtorn ado
n om
u u
Ġbarg ain
oph ren
Ġpil gr
{ "
hol m
Ġneuro log
h ash
inte llig
re rs
ph il
Ġwe instein
Ġprejud ice
Ġassum es
Ġjuven ile
r ams
m and
com put
Ġdr astically
Ġcolor ful
Ġj ill
Ġcar pet
Ġme lee
Ġqu eries
Ġvoc als
Ġk ot
comp lete
Ġro ver
Ġreli ance
Ġeth i
Ġalt itude
Ġdesp air
w p
Ġon ion
Ġmet adata
Ġeleg ant
Ġthe rape
Ġrecre ation
Ġreyn olds
Ġph osph
Ġphilos opher
Ġis il
Ġfull er
z ero
Ġgr in
Ġcirc ular
Ġom n
Ġever ton
Ġdownload s
Ġprivile ged
t les
Ġmeth ane
Ġseason al
Ġvamp ire
m ove
Ġmet als
other apy
k im
Ġpop ulated
ise xual
Ġnick name
Ġpropri etary
Ġspace x
Ġsu ms
Ġsm arter
Ġpsych ologist
Ġfre eman
Ġstagger ing
if ics
p aper
Ġso da
Ġd ess
Ġpe aks
us k
be e
Ġcl erk
Ġblank et
Ġprop onents
Ġc ows
Ġa pe
ane y
Ġle bron
Ġgl oss
Ġren owned
Ġtherape ut
m itt
Ġmor rison
Ġhost age
Ġgrad uation
Ġaub urn
Ġas p
Ġde af
i ated
Ġl ament
Ġathlet ics
Ġroman ia
Ġpreval ence
mic ro
Ġl p
Ġcons ort
Ġche v
Ġear l
Ġex otic
Ġfrank en
igh teous
Ġcr ust
Ġh ats
Ġnot re
Ġcont ests
10 1
Ġflick r
in ates
Ġsc aling
Ð ·
Ġintermedi ate
Ġperson a
Ġn t
Ġn fc
net h
Ġmor oc
Ġarab s
count ry
Ġsw amp
Ġimpro ves
Ġsystem ic
Ġstand point
Ġhasht ag
Ġo v
iet h
w y
Ġref und
c ule
Ġmodel ing
sh irts
Ġpix els
Ġincomp et
Ġens ures
Ġtyp ing
' '
Ġbl aming
Ġide als
Ġsymp athetic
Ġvar ieties
Ġstun ned
Ġreserv o
Ġmarit ime
ol ves
fal se
Ġteach ings
iv ia
pro b
re ra
am on
Ġinaug ural
se at
Ġhy dra
g mail
t ro
Ġtw ilight
Ġartifact s
Ġcompet itions
Ġemb od
Ġbrend an
Ġdelic ate
j ay
Ġemphas ize
Ġn ra
Ġg ol
bu ilt
Ġk un
Ġflood ed
Ġrecru its
oper ation
Ġcrack ed
Ġstere otypes
Ġrans om
Ġsett lers
Ġanarch ist
Ġcondition ing
Ġfool ish
or o
Ġch avez
rim inal
ï¿½ ï¿½
iet al
Ġshut ter
Ġsubmar ine
Ġthe sis
Ġdes irable
Ġjup iter
Ġsens es
Ġupd ating
g re
antan amo
Ġlin ing
ot ine
Ġmet all
Ġsoc io
Ð¾Ð ²
Ġbapt ist
de ad
Ġcatast rop
Ġs ara
Ġchar ities
Ġow ed
Ġsp art
Ġow en
Ġselect ive
Ġalz heimer
Ġexcell ence
Ġconf ined
Ġpro stit
ks on
Ġglas gow
Ġm ish
Ġz ucker
uk a
Ġhe brew
Ġbrut ality
supp ort
Ġconnect s
is se
ou x
Ġstret ched
Ġtraject ory
Ġnomine es
Ġat las
Ġdia z
it ational
but ton
Ġcorre ctions
Ġbr ink
Ġur ine
me ga
Ġspl ash
ic it
Ġalloc ated
Ġbrows ers
Ġprosecut ed
Ġv ivid
Ġmer ger
r h
Ġconce ived
Ġfat igue
Ġsuperintend ent
Ġtime ly
áĨ ¯
Ġoff ences
Ġad or
Ġc ite
Ġsch midt
Ġ} ,
Ġbour geois
mich ael
Ġc ried
Ġcon qu
Ġist an
Ġro ller
Ġvulner abilities
Â ·
Ġf is
Ġbro ker
ind uced
Ġcore y
e pt
Ġstatist ically
Ġback pack
Ġra pper
Ġeru pted
Ġru ins
aw i
Ġber ry
Ġfin ed
Ġadop ting
inv est
Ġmis dem
Ġaggreg ate
Ġst d
Ġc ull
Ġobst acle
Ġv apor
do ors
Ġpropos ing
Ġcompr ised
Ġwas hed
Ġsurf aced
v ity
Ġscient ology
Ġandre a
Ġanaly zing
Ġappet ite
Ġa ka
st ad
Ġmor ally
7 50
Ġpro stitution
Ġbl ink
Ġistan bul
Ġgl ow
Ġdest inations
Ġdun geon
we re
Ġprogram mers
Ġst unt
Ġcap ita
Ġgoal keeper
Ġtravel ers
Ġgre eted
ald on
Ġposition ing
Ġinfer ior
Ġen zy
Ġliby an
Ġconstit utes
Ġinterrupt ed
Ġass ure
u pp
Ġe in
Ġsat urn
re ally
t ier
ro ot
Ġc atherine
). <|
Ġgun man
Ġtun nels
f d
ld a
Ġperform ers
it ives
Ġn il
Ġsustain ability
Ġband width
Ġconced ed
Ġpetro leum
Ġsuccess es
Ġgl uc
Ġschiz ophren
Ġunif orms
Ġpurport ed
Ġper secution
Ġmaxim ize
Ġcr ises
ãģ «
Ġmoh amed
Ġcompe lled
Ġshep her
Ġguine a
mo on
Ġpresc ribed
Ġdown ward
Ġprivile ges
Ġdis cer
inte gr
Ġphr ases
bel ie
Ġpr inter
Ġimp l
âĢĵ âĢĵ
Ġ19 00
Ġreact ed
Ġpl ague
Ġsp icer
sm all
Ġresist ant
Ġsuff ers
Ġis o
Ġignor ant
qu et
Ġacceler ate
Ġingred ient
Ġmyth s
he res
Ġye lling
Ġdeleg ate
Ġindo or
Ġbal ancing
Ġfil ip
Ġtax ation
Ġfuel ed
Ġsw orn
Ġdisplay ing
Ġsh ane
i q
st ru
Ġdeb ated
Ġunst able
Ġse oul
ib les
Ġtransm itted
Ġhead set
Ġout field
Ġtake over
do ch
ant on
br ain
Ġdisp ers
respons ible
Ġunpredict able
c ra
Ġgu antanamo
Ġhero ic
j et
Ġer adic
Ġchoo ses
Ġunw anted
i aries
Ġsimp licity
Ġprompt ly
j un
Ġarm our
Ġw ipe
Ġder by
d t
Ġlo ot
Ġtr aces
pl at
Ġmerch ants
Ġk b
hed ral
Ġappropri ately
Ġneed le
Ġbas in
Ġdis asters
Ġmc cl
Ġdebut ed
Ġstar bucks
Ġv ince
Ġhas t
Ġre im
ian i
. (
Ġdedic ation
Ġc ube
Ġfav ors
Ġdiscuss es
Ġcompat ibility
Ġvent ures
Ġprem ises
Ġc asc
l iv
Ġmis ogyn
hill ary
et z
Ġannounce ments
Ġfilmm aker
âĢĿ ),
Ġfin ishes
Ġx ia
Ġspecific ations
Ø ±
ie ls
Ġfree zing
Ġprest igious
in um
Ġge off
Ġmir rors
Ġw anna
is ite
Ġcor al
Ġmark er
h ig
Ġbet ting
Ġinflu x
Ġpun ct
Ġmat hem
Ġpol es
Ġindic ators
r iment
Ġhum ili
Ġp ag
Ġl ent
Ġfor fe
Ġvac ant
Ġsher man
Ġrebuild ing
at lant
Ġbed s
j ab
Ġf ou
act ed
Ġrich ards
Ġunsuccess ful
Ġsell ers
Ġtill erson
Ġje ans
Ġembarrass ed
Ġrem ix
Ġsque eze
aze era
Ġc ough
Ġbar k
c ence
Ġmet s
Ġca f
Ġje alous
ch anging
Ġthe ology
Ġmult ic
Ġspecial ists
Ġric hest
Ġpier ce
Ġaccommod ation
Ġstory line
Ġedin burgh
\ /
Ġdepend ency
Ġl aps
Ġaccept s
c it
Ġspir al
Ġperce ive
Ġcon way
Ġspec ifics
d os
Ġback yard
Ġt m
Ġsuper natural
Ġexempt ion
b ind
pa ul
Ġsal mon
Ġl aughter
viol ent
Ġec ological
af ort
Ġbar red
Ġo u
Ġthought ful
v ir
ape l
Ġgra ves
yl on
g m
Ġrel ates
Ġgil bert
Ġright ly
Ġcr ist
Ġsim mons
ãģ ¯
Ġad ela
is i
ol ph
Ġam ber
Ġobject ion
Ġdefe ating
lic ation
ag h
Ġdis respect
|> "
Ġvolcan o
repres ent
at tering
e ight
Ġadvoc ating
Ġchar ism
Ġend uring
Ġlgbt q
sh ots
Ġlisten ers
Ġmc don
Ġkn ocking
Ġcan vas
m ot
Ġb isexual
Ġh ots
s ql
ut y
Ġfried man
sec ure
Ġimp ly
Ġ10 80
Ġclean er
Ġlord s
c b
ĠÐ º
Ġj ak
Ġco d
Ġtribun al
Ġprolong ed
ect ed
sec ute
ud er
Ġinnov ations
Ġmess enger
Ġday ton
Ġinterf aces
Ġs rc
Ġcomment ing
Ġleft ist
Ġparam ount
Ġha iti
Ġcur tain
ograp her
Ġce ment
Ġhall s
Ġinf ants
y en
l ane
b ott
Ġrecomm ends
Ġsky pe
Ġapp les
Ġmy ri
Ġa a
en v
Ġcap ac
Ġmic he
Ġspons orship
h in
Ġall ocation
per haps
Ġcan cell
Ġfr inge
Ġmod ification
Ġd iving
Ġenjoy able
Ġnic kel
Ġcraft ing
Ġ} );
Ġexceed ed
u ke
Ġ å
Ġcle arer
14 0
Ġgra ff
Ġpsy ched
com mon
Ġtoler ate
il ia
Ġra pp
le en
Ġdil ig
Ġvolt age
Ġta pped
Ġp om
Ġme yer
Ġmer ge
Ġantib iotics
Ġdetail ing
Ġsh iny
w ik
Ġw ick
Ġacqu iring
Ġmem e
Ġprogram mer
Ġam en
Ġr f
Ġw ary
Ġskept icism
Ġru ined
Ġcritic isms
Ġvis ually
com fort
Ġwar rants
Ġinv iting
Ġveget able
Ġatt ain
Ġv il
Ġmar ched
Ġsl ash
Ġhay es
keep ers
Ġye ast
Ġnotice able
Ġpharm ac
Ġad obe
Ġround ed
Ġfr atern
Ġdet on
Ġlab e
Ġcom r
Ġobser ving
áħ ¥
f ur
Ġbull shit
cli ent
Ġf res
Ġshe lls
Ġche ating
Ġi o
Ġun safe
Ġenthusi asts
Ġcal ib
! ).
Ġf ul
Ġwrong doing
Ġprohib it
Ġlower ing
Ġsl og
Ġcritic ize
Ġtack ling
Ġt read
al iation
Ġadela ide
!! !!
Ġrehab ilitation
whe el
Ġun just
Ġsadd am
Ġindu ced
Ġaster oid
Ġreconc iliation
Ġabdu llah
Ġcollabor ative
Ġmanifest o
Ġcul min
Ġmerchand ise
Ġ Ñ
Ġprogram mes
Ġr iley
Ġpers ian
ol ith
gu ided
st or
ov an
Ġbe acon
it an
Ġover throw
Ġmer its
Ġsn p
Ġg av
id av
am as
ch in
Ġy or
Ġdep lo
Ġla ure
Ġts un
Ġsh ining
Ġedit ions
Ġintention al
Ġalph abet
r ou
in ally
Ġinaccur ate
f re
Ġresp ir
Ġsask at
Ġtr action
Ġprinc eton
Ġtr ay
Ġins ulin
Ġe co
Ġtop s
Ġkn icks
w i
Ġsper m
Ġunbeliev able
Ġman afort
Ġp oc
Ġmot ives
ins pired
Ġcouncil s
Ġmur doch
Ġca es
Ġapp rent
Ġdial og
Ġbureauc racy
ĠÂ §
Ġe up
Ġst int
Ġinterrog ation
Ġpart ition
m is
Ġhel en
Ġbig ot
Ġ11 5
Ġpredict ing
at on
Ġide ally
âĢĿ ;
Ġgood ness
Ġconcept ion
Ġvictor ian
ys on
Ġpe cul
Ġende av
Ġentire ty
Ġrob otic
Ġcompos er
Ġche at
Ġvol atile
Ġrecogn izes
ä º
oc ratic
Ġinfring ement
Ġdwar f
Ġrad ius
Ġstretch ing
Ġwip ed
am iliar
Ġterrif ied
Ġcoord inate
Ġrec ons
Ġhous ed
Ġatt achment
Ġde gr
y o
v t
Ġvir uses
] ]
Ġh ogan
Ġe instein
Ġr anged
Ġsh aping
uff s
Ġunus ually
Ġby te
ir l
Ġbr ace
in put
Ġam anda
Ġse ller
Ġken neth
Ġrestrict ion
Ġconf ess
Ġacknowled ges
Ġastronaut s
Ġsuper b
tar get
Ġsurge on
Ġconcess ions
Ġt ah
Ġhost ility
Ġpaper work
Ġsever ity
Ġsuper star
fol k
Ġrevol t
Ġaust rian
Ġprogress ives
Ġrival ry
Ġintrodu ces
Ġmechan ic
Ġgaz e
Ġsymp ath
Ġengine ered
m ia
im en
Ġcha otic
ine ment
Ġgood bye
n one
red ited
et e
Ġdis able
Ġre naissance
Ġâ Ķ
mess age
at ism
Ġstem s
man ia
Ġpay pal
Ġk ob
Ġac oust
Ġmaj ors
Ġheav ier
ion age
Ġguard ians
Ġj al
Ġhorm one
Ġfact o
Ġmet aph
rep ublic
Ġb tc
stand ard
uck ed
m ode
Ġpost al
Ġacceler ation
in qu
Ġaff idav
f ax
Ġcomb ines
so ver
Ġtur bo
Ġrig orous
Ġcommunic ating
Ġ19 44
de b
Ġaud i
Ġunf amiliar
Ġcataly st
Ġkum ar
Ġradio active
Ġpreval ent
he tt
Ġhe ather
Ġfert ility
c n
Ġuns ur
Ġopio id
Ġgl uten
Ġwa ist
ãĤ ĭ
200 6
f b
Ġto x
Ġclass ics
Ġswit ches
mer ce
Ġdis regard
cl osure
Ġhealth ier
Ġinnoc ence
Ġvis as
Ġexter ior
Ġsp ine
Ġweb b
Ġj as
Ġpo inter
f ortun
Ġph ases
Ġclear ance
Ġbl ows
Ġep it
al most
c ation
Ġenroll ment
in el
ser ver
Ġexplos ions
Ġbren nan
u h
Ġc ir
Ġborrow ed
pro per
Ġrequest ing
Ġlength s
Ġhe ath
Ġdoub les
Ġdis se
j on
Ġi ps
Ġpan ama
Ġcraw ford
Ġpos ing
Ġret aliation
Ġbah rain
Ġsque ez
Ġrap t
Ġsalv ation
Ġrecy cling
Ġemp irical
ist ed
Ġk inder
Ġd ill
Ġpr adesh
Ġwar mer
Ġfort ress
Ġconfir ming
Ġtheir s
Ġdepend ence
Ġbrand ed
Ġhurric anes
n z
Ġma z
Ġadmir al
tr ade
Ġmes h
he ed
Ġo lig
Ġh uck
ul u
Ġstamp s
Ġimper ative
art icle
Ġje b
Ġref ined
an ity
Ġfright ening
v ic
Ġhon ors
Ġuns ure
Ġreferen ced
Ġcell phone
h ur
Ġab original
Ġre boot
ract ed
Ġf x
Ġf ade
Ġoff ended
Ġbeaut ifully
mpt ion
com merce
Ġblock b
p ublished
ot he
Ġab e
sp onsored
it ness
Ġfest ivals
s ight
Ġk et
Ġbenef ited
Ġnorth western
Ġp ou
Ġd op
Ġfer ry
Ġal umn
Ġav atar
d oc
! âĢĻ
Ġter ribly
Ġde x
Ġ17 0
Ġunl ocked
Ġtent h
Ġny pd
Ġrest ing
Ġfoot print
Ġcree py
Ġst ip
Ġsl ump
Ġident ifies
Ġassess ments
Ġnot ices
sh ort
jo y
l ain
bab we
Ġne oc
Ġrasp berry
> </
ks hire
Ġkidna pped
Ġret ros
Ġbil ateral
Ġwholes ale
Ġappar atus
k owski
Ġbrist ol
Ġn d
Ġtomato es
ar in
Ġcon n
Ġexp on
ut c
fr ank
Ġc affe
Ġgram mar
Ġaud itor
Ġdem ons
l ived
Ġn ate
Ġli u
ph ot
Ġter rific
Ġgl orious
Ġpred ator
Ġresol utions
st ack
Ġdom ains
Ġap is
Ġcontam ination
Ġv om
Ġk oh
Ġfed er
Ġstar craft
Ġzo om
ans ing
Ġmas ks
Ġcomplim ent
Ġhapp ier
clus ive
Ġg an
Ġe h
Ġf ount
Ġre he
Ġbad ge
Ġdevast ated
Ġdistract ion
) -
Ġdrum s
Ġacceler ated
y ers
op olit
Ġsyn dic
Ġden ounced
Ġt t
Ġn p
Ġexclud e
Ġdepend encies
Ġsub po
c irc
g iven
Ġrebe cca
rele ase
k ick
Ġwas hing
Ġside walk
russ ia
h ope
Ġillustr ates
fund ing
Ġman uel
cour se
Ġf oo
ograph ics
Ġn ab
Ġdo omed
ad ian
Ġunch anged
st y
Ġreg ain
Ġcom et
ren ched
Ġjo han
Ġphant om
gu ards
Ġbroad caster
Ġcruel ty
ters on
Ġcourt room
Ġbur ial
Ġton nes
~~ ~~
Ġproud ly
ell a
s ided
Ġdepth s
Ġown ing
art s
Ġrelent less
Ġp ens
pr ime
Ġperfect ion
th al
Ġstr ains
ic hes
Ġch orus
t ree
Ġdo e
Ġpath way
b lo
Ġwid ow
Ġill icit
Ġprim itive
m ails
Ġh b
Ġpengu ins
Ġgr ill
Ġlog istics
Ġab ys
health y
Ġche ney
Ġcurt is
Ġfirm ware
Ġelev ator
ge e
rest rial
Ġ20 30
Ġtre vor
Ġhand c
ĠâĨ Ĵ
âĢ ²
Ġlau ren
Ġsk ies
Ġkush ner
Ġw ires
et c
Ġtemp l
Ġcost umes
Ġsch ultz
Ġch lor
Ġdet riment
Ġcel tics
Ġagree ing
Ġmon ica
Ġsn aps
th y
Ġ19 41
Ġposs essed
cal if
Ġkill ers
Ġplay ground
ft a
Ġben ed
Ġcritic izing
eter min
Ġdict ator
Ġmyri ad
ass ed
ed u
Ġk ub
Ġban ana
land er
Ġabsor bed
Ġ24 0
Ġse af
Ġho ax
Ġsight s
ri um
rat ives
play ed
ad os
Ġbris bane
Ġend ured
Ġdial ect
i otic
Ġle ices
Ġint ric
Ġrecept or
Ġb ert
oc racy
Ġrep airs
Ġimp air
Ġinter val
Ġlaugh s
Ġun identified
Ġreact ors
Ġdom ination
Ġle aning
Ġattract ing
Ġgif ted
Ġminer als
Ġpres erving
oles ter
Ġg inger
Ġtown ship
Ġshut ting
Ġshoot s
Ġcun ning
pt ive
Ġdece ased
Ġmod ifications
Ġdetermin es
l ass
Ġbachel or
an alysis
ann el
Ġemail ed
Ġdar ren
Ġparent al
Ġalleg ation
Ġacknowled ging
Ð ¿
Ġp ont
l n
m ary
Ġg room
Ġemir ates
Ġvalid ation
Ġreview er
r b
Ġreg iment
Ġaccess ing
Ġrig id
Ġdis contin
cult ure
Ġun il
Ġat oms
Ġassass in
Ġshel ters
Ġseiz ure
Ġbe lly
Ġembr acing
Ġbald win
Ġdem ise
Ġh id
ang led
Ġ 000
Ġsumm ers
% ).
Ġunder going
Ġh ugh
Ġgall ons
Ġsl ap
Ġk w
Ġdifferent ial
Ġ19 47
Ġreg en
Ġand ers
Ġco ve
Ġpr ud
Ġpr ints
r ome
as is
Ġtor rent
Ġt rent
Ġdecentral ized
l ation
Ġn ike
Ġjudge ment
pp led
Ġsqu at
imm ig
ink le
ans on
m uch
Ġbr itt
áĦ Ģ
Ġsna pped
us hing
Ġfr amed
sp orts
ster dam
Ġbl itz
th read
Ġcos m
vas ive
Ġlivest ock
Ġn l
Ġde le
Ġsurpr ises
Ġfant as
e ach
Ġimp lant
Ġtelecommunic ations
it ches
Ġinst ability
Ġscreens hots
Ġsp ouse
Ġadvoc ated
Ġbelie vers
Ġhop eless
Ġorche str
Ġcapt ures
Ġred und
Ġt ally
qu in
pro gress
Ġgodd ess
Ġdevelop s
Ġinc ur
al ong
Ġextract ion
Ġeye b
av i
Ġbar on
Ġappoint ments
Ġanticip ate
Ġcorrespond ence
dog s
Ġfrag ments
c od
pac ific
Ġspat ial
j er
Ġbattal ion
Ġsh ades
Ġreg imes
Ġdub ious
Ġgoal t
Ġmicro phone
Ġrun time
da ily
Ġzim babwe
Ġbe aches
duct ed
te le
Ġur gency
Ġver b
Ġfer nand
Ġren amed
unt il
Ġal right
Ġ10 2
bor o
ad h
Ġper ceptions
ick en
âĶĢâĶĢ âĶĢâĶĢ
\ -
Ù ħ
Ġsuccess ion
Ġa unt
w ow
Ġwor m
Ġhun ts
um bs
Ġge ography
Ġcat hedral
Ġcoll ar
Ġhemisp here
Ġst ain
let te
Ġcontam inated
Ġregul ator
Ġjed i
10 5
r ar
un ci
Ġir onic
Ġpour ing
Ġf etch
Ġr anger
Ġsh im
Ġpyram id
Ġg in
Ġvi enna
Ġa rose
Ġfasc ist
Ġdiscover ies
Ġoff spring
Ġo le
Ġgam er
Ġexemp l
Ġv ick
Ġr ous
ins ky
Ġmagn ific
Ġsha wn
Ġsuper vision
Ġcor on
Ġy en
Ġundert aken
Ġjump s
Ġmons anto
in atory
Ġdig its
iat ric
Ġs q
Ġstar red
Ġmid west
Ġreiter ated
Ġforecast s
Ġpir acy
ro lls
l ittle
Ġstrengthe ning
p ical
Ġa e
Ġhom er
Ġi z
Ġst if
Ġzimmer man
Ġcontract ed
Ġumb rella
áĨ ¼
Ġdump ed
person al
Ġshr ink
Ġre jo
Ġcharl ott
Ġcon verse
semit ism
Ġwat ts
Ġdiplom at
Ġnight club
Ġrad ically
Ġcompens ate
Ġst air
est ine
Ġre y
Ġch ry
Ġnom inations
Ġa ws
Ġinto xic
Ġmon k
Ġend ure
Ġso ber
ed ay
Ġplace bo
Ġtap es
Ġs as
uss ions
ser ies
Ġd ir
Ġjohn s
import ant
Ġr p
d ot
Ġspec s
Ġraz or
Ġgl am
200 5
Ġs idelines
Ġcompet ent
off ice
Ġh ust
Ġnur t
Ġrum or
Ġjackson ville
w ife
Ġdisadvant age
Ġtrig gers
Ġmag ist
Ġar s
Ġcamp ing
Ġcost ing
Ġabb as
Ġth wart
Ġann ot
Ġdav ies
Ġwith drew
Ġacc use
Ġsun shine
Ġnegoti ation
Ġpred ic
Ġcelebr ations
t ab
Ġ( .
Ġpecul iar
Ġsubsid iary
Ġsh attered
Ġ10 4
Ġf loyd
Ġtemp t
Ġne on
Ġr att
Ġveget arian
ow ers
Ġnegative ly
Ġg ays
Ġco erc
Ġreg ression
Ġvolunt arily
Ġbru ins
Ġweight s
Ġeval uating
Ġc ue
rah im
" ]
iffe rent
Ġle aking
ub ar
ib a
Ġmamm als
p ose
Ġcock tail
Ġanti qu
Ġver ification
ut er
Ġdis charge
Ġconcept ual
Ġkid ney
ob viously
Ġkat ie
hen d
Ġdisappear ance
Ġsecond ly
Ġreminis cent
Ġ< <
Ġstuff ed
Ġcan s
Ġsc oop
Ġsl ope
Ġcomment ator
Ġcop ied
Ġcontent ious
c ust
Ġir regular
Ġautom otive
Ġanticip ation
t m
Ġins iders
Ġpsyched el
Ġhonest y
heav y
Ġdisg usting
Ġcris p
Ġpret ending
Ġelig ibility
Ġe ject
Ġsh ir
m arch
Ġin effective
Ġgener als
Ġinstruct or
Ġdian e
av an
Ġquarter ly
mo il
ãģ ª
Ġpsych o
elect ed
Ġlyn n
Ġbomb ings
Ã ¦
ed ge
Ġstret ches
zz y
Ġsex ism
Ġd ns
Ġforg ive
m il
Ġfire works
! '
Ġit eration
Ġlam ar
Ġt iles
Ġstim ulation
Ġbor ough
Ġre ef
Ġsuprem acy
ien cies
on gh
f m
Ġinf inity
Ġdi agram
h ops
Ġins erted
Ġnodd ed
a verage
im al
uc ci
Ġintr ins
Ġess ays
Ġschne ider
at ivity
Ġnar ratives
stri ke
christ ian
oster one
Ġturn over
ad min
Ġsuper market
j son
Ġcomp uls
Ġkind le
Ġearthqu akes
Ġmark ers
Ġal ger
z ip
Ġgalax ies
f p
Ġirr ational
Ġla und
Ġhit ch
Ġl ub
Ġtransl ates
Ġmicro bi
Ġrenew al
Ġreward ing
Ġsom eday
Ġl ig
Ġbould er
Ġpay load
Ġshort cut
Ġrecon struct
j im
anc ers
Ġir ving
pat rick
Ġstat istic
Ġbudd ha
f ill
ent ry
Ġout dated
h ma
Ġcl utch
Ġbi om
Ġplaint iff
Ġref resh
Ġvers atile
ch oice
Ġspec ially
Ġmilit ar
Ġm ing
Ġha iled
Ġtr aced
12 3
Ġbid ding
Ġfilmm akers
cap ital
Ġcomp ression
Ġun authorized
g ames
Ġw yn
Ġtrans plant
Ġrese mble
Ġd n
Ġ195 9
w o
sp ot
Ġretrie ve
Ġsixt y
Ġun armed
Ġup wards
Ġviol ates
Ġtur moil
Ġso re
Ġun available
c ong
Ġposs essions
Ġsn iper
Ġdile mma
Ġpo pped
un ity
Ġconfig ure
k al
Ġreplic ate
Ġwithdra wn
ĠÐ ´
Ġsex ist
Ġairstri kes
Ġcl aire
Ġmour inho
g ments
c led
Ġinf il
Ġcr ashing
Ġconsort ium
Ġsupp ression
Ġoccur rence
Ġpod ium
Ġbish ops
Ġd ots
Ġsusp end
Ġeu gene
Ġd well
Ġecu ador
Ġpro secute
Ġbar rett
Ġst oring
l ene
g erald
Ġrem n
can ada
fall s
Ġout spoken
right s
Ġgrant ing
Ġrap ids
le aning
Ġex xon
Ġarchitect ural
ft y
Ġn m
Ġcirc us
Ġrep rint
Ġmyth ology
Ġbeat les
Ġsm oked
Ġben gal
Ġclos et
Ġmedi oc
Ġphil anthrop
Ġw aking
elect ric
k b
Ġcont enders
Ġcra fts
Ġobs ess
Ġgro ve
Ġfeas ible
Ġen er
Ġsh ale
Ġbeng als
Ġcont end
od s
Ġtoss ed
on line
Ġground ed
// //
Ġdin osaurs
Ġsab ot
Ġext rad
Ġrele vance
Ġdiscip linary
st atic
d or
Ġorganiz er
ab c
Ġsign aling
Ġup held
mar ked
Ġvalid ity
Ġconver ting
erv ative
abul ary
Ġout raged
Ġ18 00
Ġsect arian
not es
t aking
f x
Ġmed als
Ġcam bod
Ġextract ed
Ġcatastrop he
Ġsur gical
Ġdimin ished
Ġske let
f ired
Ġfor ge
c ision
Ġjack ie
Ġcur s
Ġg oss
Ġinfil tr
p osition
on ies
st at
Ġcomp ilation
Ġhypot hetical
Ġtout ed
Ġv ita
Ġvers a
Ġcho pped
Ġ& &
Ġmel ting
Ġorche stra
Ġscand als
or ical
ret urn
Ġmilit ias
l aughter
Ġcomp ute
Ġpund its
Ġd l
Ġtr an
Ġcont ributes
^ {
Ġgovernment al
produ ction
bet ter
Ġleban ese
Ġret ention
inc re
Ġgall up
Ġramp ant
Ġun cover
ay an
Ġoff ender
Ġpar aly
,âĢĻ âĢĿ
Ġrecur ring
f aced
Ġalleg iance
Ġnutri ents
Ġbu ys
cas ters
Ġgenet ics
Ġap ache
Ġwheel er
Ġp ors
od a
Ġlo oming
Ġimp art
Ġreprodu ction
j ava
Ġalign ment
Ġenlight en
) ?
Ġalleg ing
Ġscan ning
Ġprep arations
part isan
ey e
Ġsebast ian
ar ium
Ġn iss
Ġâ ī
Ġkidna pping
Ġrefres hing
in ational
ble m
Ġgo at
Ġmedic ines
Ġclean ed
Ġconstitu ency
ate l
Ġcomp ares
Ġir re
g all
Ġp end
lar gest
Ġpred icts
rend ra
Ġ2 20
Ġfrequ encies
Ġper tain
Ġresearch ing
Ġexam iner
Ġsubm issions
Ġfalse ly
Ġhook ed
Ġv ow
Ġ19 39
Ġserv ant
ÑĤ Ð¾
Ġjo king
Ġbrew eries
Ġchrist ine
ga e
road s
Ġsle pt
en es
ig s
Ġex cel
f ter
Ġz u
Ġor n
Ġinc arn
Ġroy als
Ġfore front
Ġtheore tically
Ġhas san
rel igious
Ġsound ing
Ġmarch ing
v ine
he id
f us
Ġrh ode
Ġske leton
Ġbl aze
Ġunsur prising
b ands
Ġi x
Ġac ids
Ġiv ory
Ġnin ja
Ġf y
Ġback drop
18 0
Ġunp le
Ġcease fire
Ġneed less
Ġnic otine
Ġw inger
light s
Ġtub es
ess a
Ġexp ired
Ġplat inum
Ġsu do
Ġsmooth ly
Ġend urance
r ice
Ġfundra iser
Ġesp ionage
,âĢĻ âĢĻ
Ġbor is
Ġfr y
Ġinfect ious
ur ch
up on
Ġant it
Ġchar ming
Ġexch anged
Ġash amed
Ġel bow
Ġbow ling
Ġinquir ies
t otal
Ġb is
Ġar du
Ġbuild er
Ġqu ir
Ġleices ter
ba um
Ġbay ern
Ġubi quit
Ġh ott
ok ay
Ġnarrow ly
r p
Ġk ang
contro ller
o ids
â Ļ
Ġproc ure
Ġrh odes
Ġshr inking
Ġwag ner
d n
Ġperpet rators
Ġdefe ats
Ġprotest ant
Ġcar b
Ġlod ge
com b
Ġadequ ately
Ġmel issa
Ġtr aps
Ġbe et
Ġmy ers
Ġreb ound
Ġo c
Ġdraft ing
Ġf idel
Ġsy mmet
Ġmem br
bet ween
Ġrefr iger
Ġtro ll
Ġreject ing
Ġfr ances
he ard
Ġ4 50
s ave
mans hip
op ian
Ġnic ole
Ġoverl ap
Ġp itt
ic ia
Ġk re
cl inton
qu arter
ld own
haw ks
a ways
Ġsh ack
Ġdecl ines
Ġdistract ed
Ġtherapeut ic
Ġreal ization
Ġbrow sing
Ġpean ut
Ġeleph ants
y oun
Ġb aked
Ġcr ab
Ġvill ains
Ġmeaning less
Ġab normal
Ġell en
Ġdi ary
Ġwy oming
Ġres h
Ġr ss
Ġnic olas
we i
Ġstake holders
Ġpedest rians
Ġreinfor ced
Ġapocaly pse
ill es
ĠÎ ±
Ġlapt ops
Ġlif es
Ġtor ch
Ġstack ed
am el
Ġspecial ty
Ġevac uated
u y
Ġsalv ador
Ġt l
Ġg le
Ġh os
Ġremed y
Ġfreel ance
Ġdesign ation
Ġblast ed
Ġsafe guard
Ġgraff iti
Ġcon quer
Ġcrack s
Ġdivor ced
Ġost ens
net ic
Ġtang ible
Ġl bs
h ift
e ed
it us
ud ing
i able
Ġpl ac
Ġdep orted
Ġcl usters
Ġb ounds
Ġrobot ics
Ġphotograp hed
Ġh ir
Ġrelie ved
Ġw enger
Ġthie ves
Ġpseud o
Ġemplo ys
Ġembarrass ment
Ð ±
Ġsp oon
Ġaccum ulated
Ġgrab bing
be ck
Ġfraud ulent
def ault
Ġr ang
Ġadjust ing
Ġfasc ism
Ġank ara
Ġjud a
Ġtemp oral
Ġnar rator
Ġray mond
Ġcharlott esville
ãģ Ļ
Ġimag in
Ġmiss es
Ġdraw ings
Ġgovern ed
Ġheight ened
Ġo y
Ġdr un
on ge
all ah
Ġcan ucks
h ans
Ġhand ler
Ġanal ogy
ust omed
Ġper u
Ġ10 3
Ġfut ur
de ll
Ġpoo rest
Ġgrand e
Ġkurd istan
Ġv ou
in ian
Ġblond e
Ġs es
Ġstephan ie
Ġis ps
Ġpar ole
Ġt apping
ag ent
Ġdin osaur
and ers
Ġeuro zone
Ġlif elong
Ġlast ly
Ġall erg
Ġcertific ates
Ġcyber security
Ġindirect ly
Ġc res
ak is
th s
Ġdis place
Ġgem s
Ġam sterdam
pr ice
n ode
Ġsa ud
Ġb ik
is ure
Ġouts iders
co ol
j ew
Ġid iot
com ment
g p
Ġr ude
Ġgluc ose
Ġvi k
Ġsod ium
Ġjoy ce
Ġpro claim
Ġrede em
Ġhug o
Ġadvert isers
Ġinte ger
Ġdest abil
Ġpe as
at ible
se p
und ers
Ġcounsel ing
Ġmis erable
Ġhead phones
t f
Ġf aint
Ġd amp
ay ing
Ġd lc
Ġremember ing
Ġunique ly
f iction
Ġped ro
est abl
Ġn iet
Ġshoot ers
Ġr ant
Ġ\ (
Ġcrus hing
Ġdent al
v on
Ġnew man
Ġbeh old
. ;
ors i
Ġbur ton
rele ased
iv able
Ġmos es
Ġprec inct
Ġric her
d ocu
abs olute
Ġcommod ities
c row
l ich
m ith
in as
n m
Ġpat rons
Ġfred erick
Ġnum er
o ll
Ġs ins
Ġdis connect
Ġ19 42
Ġanim ations
Ġastronom ers
Ġheter osexual
Ġcompos ite
Ġhar b
Ġmo hammad
Ġrec ap
Ġoper atives
200 4
Ġwith hold
th inking
Ġbrand ing
Ġmot o
Ġinc ub
w c
Ġkey stone
Ġmult inational
Ġillness es
Ġblog gers
Ġpatri arch
Ġsh ia
me as
Ġdisagree ment
se ven
Ġintercept ions
Ġbur g
Ġox id
Ġhans en
Ġabund ant
Ġn es
Ġe tern
Ġdis like
Ġcine matic
Ġw icked
Ġcontinu ity
se ver
stre et
Ġarm ored
Ġded uct
Ġdownload ing
ass is
Ġaccident al
par am
Ġbel fast
Ġbra ke
is ans
the med
Ġ195 8
Ġbount y
h aving
Ġos borne
ed itor
Ġener get
Ġpol ite
Ġye lled
Ġanten na
Ġtransc end
Ġintimid ation
Ġe z
priv ate
Ġpolicy makers
board ing
Ġtruth s
ari at
Ġreserv ations
Ġunderw ent
Ġindefin itely
Ġgard ner
Ġmillenn ium
b uff
Ġnarc iss
ult ural
cr ime
Ġd uel
Ġresemb les
el f
Ġun paid
Ġrav en
Ġrem ake
Ġexc uses
ol iber
lin ux
greg or
Ġre neg
Ġther m
Ġcompan ions
ring ton
f ra
Ġrest oring
Ġar cher
æ ľ
Ġjo ked
Ġlaw maker
Ġ195 6
l ang
Ġun official
Ġdictators hip
Ġstr ongh
Ġfinger print
Ġsuscept ible
Ġsurround ings
Ġ10 6
Ġhard y
Ġmac ron
Ġunple asant
Ġcour thouse
ol ia
Ġgar rett
Ġstap le
Ġp ins
Ġd itch
f ashion
h man
Ġspo iler
Ġman it
prob ably
Ġtot als
Ġutil ized
Ġeffic acy
Ġn os
char acter
Ġf ow
Ġ/ *
Ġhy ster
t ick
Ġon set
man uel
sh a
Ġexist ential
Ġsol itary
qual ified
ang ular
Ġtrack er
s yn
Ġn olan
Ġweaken ed
n ings
Ġse gregation
un ion
Ġpoo rer
Ġdest ined
lin er
j apan
,' "
Ġsun s
Ġn ih
Ġsp it
Ġbub bles
Ġtr inity
19 90
Ġconting ent
act ory
Ġcountry side
Ġstri ve
fr ac
Ġcar tel
v ie
Ġt ucker
Ġconcer ts
ich i
Ġaur ora
Ġl is
Ġch op
en cia
Ġspecific ation
id able
Ġindepend ents
red dit
Ġcontin uation
Ġham mond
Ġsp ice
bo b
Ġsur real
Ġtweet ing
Ġse ated
Ġma id
Ġchurch ill
Ġrational e
Ġnit rogen
ant ine
Ġw att
Ġbrew er
Ġmod ular
Ġp all
Ġ} ;
Ġre op
Ġbomb ard
Ġs age
Ġd ab
Ġk es
Ġhigh s
Ġre ich
Ġalle vi
Ġhen ri
kins on
Ġfranch ises
Ġalternative ly
Ġmemo ir
Ġeuro pa
Ġdevelopment al
Ġmo ds
Ġshe ikh
ale x
Ġd uc
Ġven us
Ġreserv ation
Ġremar ked
Ġl enders
re x
Ġsuc ks
Ġbe verage
Ġper imeter
Ġbl ades
Ġb aff
Ġp f
Ġlung s
Ġloun ge
Ġoverturn ed
Ġbo il
Ġpath ways
Ġch apel
Ġdoub ling
Ġphotograp hers
Ġn ud
Ġser bia
Ġlen in
Ġgoal ie
Ġpun ched
om ic
Ġeman uel
Ġjo an
Ġundergrad uate
Ġsu ing
Ġevac uation
z h
in ters
Ġmess y
Ġsqu ir
Ġmit igate
Ġth ief
Ġmis ery
Ġcross es
Ġmortg ages
Ġj azeera
ush ima
Ġfar go
olester ol
as a
Ġcel tic
ire r
Ġfranco is
Ġi e
Ġrul er
Ġrc mp
Ġco herent
it ating
Ġha unted
Ġrep ression
Ġoptim ization
Ġte m
Ġtransform ing
ver b
Ġaffidav it
Ġ195 4
Ġschedul es
Ġsm ashed
Ġrou ter
Ġmerg ed
Ġrepl ies
ond o
Ġsett ling
.. .<|
Ġpoison ing
Ġche ers
Ġfitz gerald
Ġst umble
Ġtele vised
Ġch illing
Ġtum or
Ġmon keys
Ġaspir ations
report ed
Ġcrack ing
sm art
Ġaccomplish ments
ĺ ħ
Ġz hang
jar at
Ġadvert ised
Ġb s
Ġprohib its
Ġm h
Ġfor c
Ġen cycl
Ġinteract ing
ett i
Ġex h
ext reme
Ġorb ital
Ġinstall ment
i ens
Ġubiquit ous
Ġarrow s
Ġfore see
Ġassess ing
Ġhint ed
Ġhuman e
Ġnew found
Ġworth while
bish op
âĢ¦ ]
Ġplay able
Ġgam ble
Ġd ared
io let
Ġspec ulate
Ġma fia
Ġconce al
Ġplag ued
Ġarbit ration
foc used
og ene
Ġph ar
Ġinf ra
c ause
Ġs igh
Ġbit ch
Ġdi y
Ġlear ns
Ġdismiss al
an ed
aldon ald
Ġpa iring
ship s
Ġne c
Ġameric as
Ġaw ake
Ġg erald
Ġp ing
Ġhe li
lud ed
Ġchick ens
ĠâĢ ķ
Ġdiscl aim
re aldonald
Ġmarx ist
Ġhung arian
Ġsa u
it ures
at ics
Ġhe ap
realdonald trump
pp e
Ġcre ed
im an
bour g
Ġdr astic
bor der
ra e
Ġgrat itude
Ġhar old
Ġun den
Ġstaff er
Ġg addafi
Ġst ump
ĠâĢľ âĢ¦
Ġpad s
Ġaccus ation
b ons
Ġsens ory
Ġsword s
d ens
mus ic
id ad
Ġunt r
ish ment
Ġh il
Ġna rendra
Ġcar ved
Ġrest ruct
ic idal
g c
Ġperform er
let ion
Ġaffili ation
Ġneglect ed
Ġsc ans
Ġsad ness
Ġcu omo
Ġunanim ous
Ġw s
ot le
i ya
Ġpl ains
Ġer os
e enth
Ġspect acle
Ġsu v
Ġcol bert
Ġpors che
ris y
en ame
Ġstig ma
hol es
Ġmah m
p oss
Ġb ake
es is
Ġrecons ider
on al
Ġbr akes
Ġsit uated
Ġexpend iture
mid dle
Ġcongest ion
Ġo mega
Ġl su
Ġplug ins
Ġandre ws
d ow
Ġtest osterone
Ġkore ans
Ġa we
Ġb am
Ġle isure
Ġe lo
Ġlaun dering
Ġdem s
Ġparent ing
m ission
osp ace
Ġsem if
Ġschizophren ia
Ġmass ively
Ġav iv
s rc
Ġlim itation
Ġfor ged
Ġe k
ag ne
ib al
Ġwas ting
200 1
des ign
Ġmanip ulated
Ġghost s
Ġfo am
op ed
Ġenvelop e
Ġtsun ami
a q
Ġmort al
Ġl of
áĦ ĥ
v ote
Ġob liv
semit ic
per ing
Ġunanim ously
Ġco hes
li ant
Ġang lo
Ġa hl
Ġre lic
Ġvill agers
Ġ19 17
Ġwor s
Ġimpe achment
load ing
if ax
Ġclos es
pict ured
Ġ7 50
Ġsuccess ive
Ġaf c
c orn
Â »
Ġg aw
Ġcal vin
Ġrecept ors
Ġarmen ian
Ġsant os
Ġde ception
Ġind icted
omet ric
Ġpropos es
il ib
Ġpack ing
Ġthank ful
Ġdecor ated
un less
Ġoppos es
v est
Ġli able
cam era
st ro
Ġat roc
Ġper il
Ġsquad ron
Ġhas kell
Ġweigh s
Ġst umbled
Ġlect ures
Ġk ae
rib es
Ġiniti ate
pro gram
ĠÂ Ĺ
Ġenfor cing
tr ain
Ġk ris
Ġdec omp
Ġr ighteous
Ġpro claimed
Ġpe e
Ġamp le
Ġflood s
Ġpersu aded
Ġyork er
Ġrev ive
Ġt sa
Ġn ood
Ġsupp lier
Ġdown side
Ġcl eric
Ġconcur rent
Ġcirc ulated
Ġcross ref
r aph
ct v
Ġnote book
Ġmut ation
Ġf iat
Ġs ized
Ġswift ly
educ ated
Ġdisag reed
Ġaggrav ated
Ġ195 7
Ġm age
11 5
Ġcollect ors
h olic
Ġcyn ical
an mar
Ġcoun ters
Ġmail ing
Ġmisdem eanor
l ia
Ġgur u
p b
Ġmo cking
Ġadvance ment
Ġhome made
Ġmut ations
Ġworld view
act or
Ġspeed ing
Ġrain fall
Ġlos ers
Ġacc ustomed
Ġret iring
ir an
Ġsp ies
pl aces
Ġsl iding
Ġ195 3
ie u
Ġpop s
Ġhas s
Ġt ink
ran king
Ġv ander
he e
Ġas hes
Ġ11 1
Ġprotest ed
Ġsup ers
Ġpup ils
12 8
Ġvis ions
Ġant agon
Ġhall uc
- $
Ġmyster ies
Ġigno res
us ually
Ġk ab
Ġrul ers
ãĤ Ĵ
Ġthri ving
Ð ³
our ing
Ġpat terson
m ist
at ri
Ġpat ric
Ġauthentic ity
z illa
Ġ10 7
Ġ10 8
Ġacclaim ed
Ġco bb
Ġemerg es
Ġd v
Ġcommission ers
Ġadmitted ly
commit tee
Ġid le
Ġgri zz
= '
Ġcon quest
Ġze lda
Ġu ef
fe b
Ġn ails
4 50
Ġcoordin ates
Ġseiz ures
Ġmonu ments
ch amp
Ġmaneu ver
iv ism
Ġste ak
Ñ ħ
ur u
Ġdemol ition
Ġpiv otal
Ġl uk
Ġy uan
Ġdepart ed
Ġmush rooms
Ġdur ant
Ġh ank
Ġst alled
Ġse als
Ġm tv
Ġbu lly
Ġsent iments
Ġ( #
Ġwik i
Ġp ree
ind a
Ġvacc ination
Ġhann ity
Ġaver ages
ed ience
Ġdef lect
Ġmis con
Ġc oul
ucle ar
Ġscript ure
Ġs ulf
Ġ11 2
Ġcor nell
Ġhar bour
Ġshort ages
Ġtur tle
Ġcouncill or
Ġresist ed
Ġhigh ways
Ġcap itals
Ġbuddh ism
Ġt yson
Ġdr ills
Ġgeomet ry
Ġn ascar
Ġgrad ual
Ġpin ch
Ġles lie
f k
Ġtab s
en zie
tr ad
Ġstation ed
ĠÐ ¼
00 3
10 4
Ġmic row
coun ter
Ġcr am
( $
Ġh ates
Ġsoc ietal
Ġ19 55
m agic
Ġpod esta
Ġstri ps
associ ated
ne um
Ġlast s
Ġbod ily
Ġch olesterol
Ġma ver
v ict
Ġgl ue
Ġcharl eston
qu ette
Ġcon go
200 3
Ġlim bs
l is
europe an
op hers
Ġexplo its
Ġc en
Ġkir by
Ġthan ked
Ġsm ear
ari us
g ang
Ġsoc ks
Ġsyri ans
Ġremo ves
Ġunle ashed
Ġout doors
Ġem ission
Ġo ve
Ġsystem atically
Ġm orn
th ings
Ġgr ains
Ġdisrupt ive
Ġexagger ated
f ires
Ġform idable
r m
Ġke eper
Ġreprodu ce
Ġloc king
Ġstub born
ow ered
Ġdem ographics
Ġgl ut
ult ure
Ġprolif eration
Ġle eds
Ġjan et
Ġvib e
Ġboard ing
Ġhands ome
Ġal s
Ġdiv isive
Ġw ong
man agement
Ġmac donald
l ot
Ġautom obile
us ra
Ġbr ide
Ġgre ene
rem ember
Ġref rain
Ġchun ks
Ġhott est
Ġexecut ing
oc hem
tar ians
Ġincarcer ation
Ġyear ly
Ġ19 43
áĦ ħ
Ġpupp et
Ġsa x
Ġgest ures
pp s
Ġequ als
Ġatroc ities
Ġdepict ing
p ub
Ġd hs
ob ama
ot on
im ages
Ġge opolit
bo at
áĦ ī
c iv
Ġsh annon
x i
ev il
Ġde a
Ġgig antic
Ġy el
Ġsm iles
Ġjoe y
c ritical
Ġmig uel
product ive
Ġinv asive
me aning
h un
Ġbra ves
ract ion
Ġpuzz les
ogr am
Ġdeep est
Ġthir teen
Ã Ł
Ġl ure
wart z
Ġexc luding
Ġk lo
Ġbrad ford
Ġj ag
Ġinter ception
Ġbre asts
Ġun man
Ġloud ly
Ġs ally
Ġk au
pl aced
Ġeven ly
Ġdiet s
Ġhypoc risy
k t
d ir
Ġwhis key
Ġcommun al
its u
Ġcaffe ine
Ġimp ending
Ġplum met
Ġopp ressed
Ġalumn i
Ġne oliber
Ġlaw ful
Ġjurisd ictions
Ġc ain
Ġlaun cher
Ġqu oting
Ġrun way
st ant
exist ing
Ġnew born
ast ics
ms on
Ġv ox
10 2
Ġar d
Ġconsult ants
Ġfro g
l g
us hed
Ġjewel ry
l oo
Ġmoz illa
f ounded
Ġkn ives
Ġgar nered
Ġsand w
Ġlu cy
Ġinc idence
Ġext r
Ġinject ed
Ġtraum atic
Ġshow down
Ġpeters burg
Ġf ang
Ġ ich
Ġmal t
Ġwand ering
Ġtr unk
Ġpo pping
Ġins ign
Ġcow ard
j in
Ġs ocket
Ġl te
Ġnig el
Ġcirc ulating
Ġlith uan
Ġniss an
ÑĢ Ðµ
Ġvoc abulary
sp ir
bro ken
Ġdesc ended
Ġmatern al
Ġincap able
c bs
Ġne phe
Ġappro x
Ġtrend ing
Ġlind sey
Ġsor os
j p
Ġc w
Ġhe ir
Ġprop ortions
Å Ĥ
ate mal
fortun ately
c aps
Ġqu ake
Ġje lly
Ġpl ut
d ependent
Ġliber tarians
Ġinflamm ation
le ys
no body
Ġhist ories
she et
Ġun block
Ġir responsible
ch ool
Ġsy rup
Ġf ug
ab ee
Ġhann ah
es que
lin der
or ously
he rence
Ġp ess
Ġing en
Ġsim ulations
Ġcoll usion
dire ctor
Ġel f
ij i
Ġjack ets
s imp
fil m
Ġpenet ration
Ġcard board
Ġbul gar
Ġchap man
Ġjihad ists
Ġsim s
Ġmagnific ent
Ġp ud
Ġdefense man
Ġtransm it
Ġar ises
Ġconflic ting
Ġjuda ism
Ġpump kin
Ġmunicipal ities
en za
Ġindu ce
atlant ic
ord e
Ġtemp o
Ġsumm oned
cont inent
g ents
h om
Ġu fo
wal ker
Ġoverr ide
ne ill
Ġha il
Ġ19 49
Ġscr ub
Ġt ilt
Ġpractition ers
Ġcoc a
Ġbay lor
ig ated
Ġsol omon
Ġpredecess ors
Ġsch war
psy ch
ign ment
Ġcul pr
Ġl anka
Ġconf ession
Ġin advert
ar p
10 3
Ġib rahim
Ġgrab s
Ġcl ergy
Ġcon gregation
Ġshar ia
Ġritual s
Ġasse mble
Ġframe works
Ġschedul ing
um i
ber n
acc ount
Ġblockb uster
Ġcommerc ially
Ġwhere by
Ġimper fect
Ġsqu ares
Ġpost ure
Ġpro se
Ġcat cher
wor ked
Ġsix teen
Ġrum ours
Ġrot ating
pres ent
Ġwho pping
Ġkind ness
Ġrespect ful
Ġren ted
se ys
Ġpreced ing
Ġext ras
Ġacoust ic
so lete
Ġale c
Ġax e
Ġk od
Ġoptim ized
ind ic
Ġman ila
Ġz erg
t ry
Ġs ip
Ġc ory
Ġsur rog
Ġbr om
Ġcu is
oint ed
ut t
b is
Ġdown ing
Ġsin ister
Ġrob bed
in j
Ġd addy
Ġdecre ases
inst ead
Ġh itter
Ġout going
Ġz ika
pr us
Ġdisc rep
Ġtoug hest
dem and
Ġobst ruct
Ġcomfort ably
Ġfemin ine
Ġpass er
Ġlaund ry
Ġz a
per nick
Ġindones ian
Ġpro w
Ġmotor ola
Ġexcept ionally
Ġdescend ants
Ġcon nor
Ġplant ing
Ġgree ks
Ġsa us
Ġphilos ophers
Ġgentle man
Ġun aff
le ader
Ġfr aser
Ġsynthe sis
Ġs ult
Ġsincere ly
j une
Ġ10 9
Ġprep ares
mi ke
Ġbigot ry
Ġsub ord
Ġoil s
ic z
Ġjohn ston
Ġhal ted
Ġenlighten ment
t un
Ġimp aired
) [
Ġcommercial s
Ġcle ment
Ġdev ote
hen ko
g ithub
Ġb ie
Ġvalent ine
Ġc rest
Ġmy anmar
Ġdon t
Ġcommem or
Ġhi king
Ġcoh ort
Ġsimpl est
Ġbened ict
Ġcree p
m ach
Ġsp ie
Ġlo ren
Ġtend encies
Ġimpul se
p ine
br it
m age
zz le
Ġtur tles
f if
Ġur ges
Ġtro lls
Ġmerc en
ust ain
Ġey ew
Ġharass ed
Ġelev ation
Ġdistur bed
Ġcarp enter
Ġshepher d
Ġdis comfort
Ġ19 46
ody nam
Ġburn t
Ġgrie v
Ġren ts
Ġcommun ists
Ġread ings
b oo
enh agen
Ġste er
so ld
d uty
Ġde ment
Ġbl oss
Ġcorrel ated
l ift
pl ate
he ight
Ġcol oss
Ġel astic
Ġcit ation
Ġutil izing
Ġincorrect ly
al ie
Ġm au
Ġinter vals
han i
bel ief
st aff
Ġaut obi
Ġadm issions
b ay
st en
Ġfr iction
Ġc ush
Ġimpress ions
Ġt bs
Ġfam ed
Ġgl owing
Ġcart oons
w rit
Ġinj unction
Ġtiss ues
co y
l b
Ġj um
Ġem ig
Ġwol ver
Ġappl ause
Ġosc ill
k r
and re
Ġconc ussion
ub a
b ath
m ong
Ġphilipp ine
Ġprofound ly
e h
on na
Ġnational ists
Ġwe aver
Ġpro pe
Ġprol ific
Ġfil ib
Ġr x
Ġinexp ensive
Ġconserv atism
rac use
Ġworks hops
fore st
att a
Ġannoun ces
Ġpack et
Ġinstall ations
Ġsw arm
Ġprovoc ative
Ġgu atemal
reg ulation
sor ry
Ġsh ab
.âĢĿ )
Ġorganiz ational
Ġnot ions
Ġsk et
Ġpl ight
Ġthro tt
Ġs ark
un it
Ġge o
at ers
fri ends
Ġ2 30
d ain
Ġaccum ulation
Ġch assis
Ġsho ppers
Ġf ah
Ġm ick
Ġmar l
Ġbook er
Ġcelebr ates
Ġfred die
me g
Ġday light
Ġt and
per fect
Ġtrail ing
Ġgold berg
Ġcancell ation
Ġexpl ode
Ġven om
om as
ress es
Ġexpend itures
Ġemplo ying
is man
Ġe ats
Ġex pelled
Ġodd ly
Ġdrun ken
Ġun ra
acher s
Ġboost ing
Ġsmugg ling
Ġth c
Ġper th
Ġaer ospace
any e
Ġgear s
Ġf ps
Ġsupp lements
Ġa aa
cript ions
ut ory
threat ening
" );
ch s
Ġdeplo ying
Ġhorm ones
Ġrevers al
Ġle f
Ġbox er
w olf
ine m
r ig
Ġu ae
n av
every body
Ġj ol
Ġclint ons
os lav
Ġrat ios
Ġblue print
Ġtur f
Ġv ista
Ġ-- >
f inals
Ġconf essed
Ġsant orum
vention al
Ġspot ify
Ġde cept
cl air
Ġair ing
she ll
Ġreun ion
Ġthe od
ent e
b rown
Ġconstruct ive
Ġhes it
Ġ13 5
Ġneighbour ing
Ġ[ âĢ¦]
Ġinsur gents
20 18
Ï Ħ
Ġlith ium
Ġun for
Ġmad uro
polit ics
Ġspec ulated
Ġag u
Ġdict ate
Ġs inking
Ġc ott
Ġc ues
Ġkae pernick
Ġcar te
Ġhome work
Ġgre et
Ġspl itting
Ġun sc
che l
def ine
Ġt ile
Ġlabel ing
Ġadmin ister
Ġinv aded
Ġhul k
Ġisland ers
em a
Ġpol ished
Ġdistribut ing
or ie
10 9
Ġfill s
Ġguess ing
Ġâ Ļ
Ġrespir atory
r oup
Ġgu iding
Ġrestrict ive
Ġkey word
bur ger
Ġp ains
Ġd it
Ġd oss
Ġro chester
17 0
Ġexplo res
Ġpestic ides
Ġcampaign ed
Ġarchae ological
Ġfr onts
pa rent
Ġbar ber
Ġnot ify
Ġth ou
Ġy ug
Ġgu jarat
Ġcondemn ation
Ġw ishing
Ġh ort
Ġen qu
Ġdiscer n
Ġven ge
s am
Ġen se
Ġse mes
11 1
Ġsubsid y
hard t
Ġcoven ant
Ġrel ay
Ġbreak out
Ġethnic ity
Ġundermin ing
Ġpar se
Ġamaz ed
Ġk om
Ġcr ater
Ġstri pes
Ġsn ipp
n u
Ġvol ks
Ġre write
Ġtor res
Ġsort ed
Ġd unk
ob ic
Ġinsult ing
Ġmon et
Ġdecre asing
Ġa ura
ett es
Ġin mate
Ġcorp se
Ġpre fers
Ġext inct
Ġcop enhagen
he a
Ġpr y
li able
Ġr bi
Ġste fan
++ ++
wind ows
ubar ak
Ġn h
Ġcy prus
Ġg ian
Ġg mail
cent ral
bo hydr
Ġexperiment ing
Ġtermin ation
l oss
Ġunivers ally
Ġboy d
Ġrum ored
m ight
Ġscore r
Ġh iro
Ġl akh
ind ia
f ut
pr im
per cent
Ġa ux
Ġliberal ism
ct ors
Ġx ml
Ġobst ruction
Ġac a
Ġd ing
Ġwill ie
Ġrestrain t
Ġho bb
Ġgun fire
Ġpray ing
Ġsch wartz
Ġarch bishop
Ġd iana
n ation
Ġgener ators
Ġstat ues
Ġmuseum s
link ed
Ġm hz
Ġwend y
Ġout we
re quest
Ġescal ation
Ġexplo iting
Ġspont aneous
Ġwrest le
Ġmon roe
Ġfold ed
Ġsail ors
Ġcalc ium
Ġprov idence
r ans
Ġimag inary
st ay
Ġal erted
Ġste ele
rict ed
Ġceremon ies
b irth
Ġspe lling
Ġto re
Ġal mond
Ġper t
Ġsumm on
pro p
Ġtwent ieth
Ġnort heastern
Ġs lick
Ġzion ist
Ġfuk ushima
Ġdefin ite
Ġnostal gia
Ġse ating
Ġos ama
ome z
Ġinterpret ations
Ġvisual s
indust rial
Ġv ip
ous ed
Ġdep ot
Ġche ek
j ad
Ġad ren
200 2
Ġmoist ure
Ġcommand ing
Ġrede mption
t b
Ġeth ic
Ġ( (
Ġfortun es
g ive
rec ogn
Ġdatas et
Ġregul ating
l ower
res ult
Ġpass ages
Ġof t
Ġref lex
Ġ) :
Ġtear ing
Ġfrag ment
Ġin h
Ġtheat rical
st ates
Ġcirc uits
f ake
Ġher man
Ġmic key
Ġphenomen al
Ġgn ome
Ġas y
Ġout post
are l
comp et
Ġopen ness
Ġhop s
Ġp ly
ur ry
Ġro sa
Ġfo ll
Ġtext ures
Ġcontrad iction
Ġco ached
Ġmetab olic
Ġdan iels
Ġphotos hop
Ġdiscrim inatory
Ġhur ry
Ġunexpected ly
Ġens l
Ġse ld
Ġpump ing
ver ts
Ġdrag ging
Ġinstinct s
c bc
of ten
hist ory
dou ble
Ġexp ire
25 6
Ġco dy
Ġfount ain
l ists
Ġt ipped
Ġcont ra
Ġass im
Ġr in
Ġbi otech
Ġyouth s
um en
Ġinspect ors
ran ked
y y
ber ries
Ġf aded
Ġdisproportion ately
Ġgrandpa rents
Ġpro ps
Ġecosystem s
s f
Ġpro let
Ġ19 33
Ġsle w
Ù Ī
Ġmelt down
Ġmush room
Ġwe ld
orn s
Ġconfig ured
Ġgen res
Ġast ros
Ġs ic
Ġcl er
Ġbacter ial
Ġkid ding
t xt
Ġ195 2
r ub
bur st
Â Ĺ
Ġp neum
w d
Ġun used
Ġab dom
Ġsun g
Ġstr anded
ut z
Ġtempl ates
Ġcon ve
Ġcub ic
Ġesc ort
Ġaz ure
Ġz oning
Ġexhib ited
gh z
ĠÐ½ Ð°
p ng
Ġn ause
Ġcum ulative
Ġf and
Ġam mo
ne eded
Ġfulf illing
Ġzucker berg
Ġaest het
Ġouts ider
Ġindic ations
Ġhoff man
con nor
aked own
Ġhe ars
Ġwe ber
Ġt us
Ġrut gers
Ġostens ibly
Ġmock ed
Ġmc n
Ġaval anche
on ian
Ġstart ling
Ġfil tering
Ġproced ural
Ġb ids
s pl
Ġraf ael
Ġori ented
Ġob ese
c ats
Ġor t
Ġhomeless ness
Ġrest s
Ġsmok ers
con n
Ġreject s
Ġunre asonable
p olic
pro t
Ġproceed ing
. *
Ġinflamm atory
m ix
quest ion
Ġc ind
Ġg c
Ġblock ade
Ġjihad ist
en o
pl ug
Ġ15 00
Ġquant itative
Ġcrypto graph
Ġmo ody
dig it
Ġu ru
p ick
Ġs ina
che wan
sl ide
Ġcontrace ption
state ment
iov ascular
Ġkn ox
Ġs acked
end o
qu ote
Ġdur able
Ġsal on
t an
Ġto ast
iss ue
prof ess
Ġdefect s
Ġfl ux
Ġsh ap
Ġco b
Ġrot ate
Ġus able
Ġbar ring
un ts
Ġback bone
3 60
lo id
Ġcos mos
Ġmim ic
ov y
ce ived
Ġfirst ly
w right
r ag
st ered
and ro
Ġwr ath
erb ai
wel come
Ġne al
Ġblat ant
Ġmetabol ism
Ġrestrict ing
Ġed gar
Ġph y
Ġresist ing
Ġp unt
Ġjur ors
Ġa ided
ch y
Ġnew ark
Ġsho res
Ġd t
Ġd ort
Ġinter change
i ago
Ġriver a
Ġdecl ares
ct ica
Ġinv oked
for th
w agen
Ġrou ge
Ġoun ce
Ġlos er
Ġconsult ed
Ġe ur
Ġcentral ized
reg ulated
Ġadvis ors
Ġdispat ched
Ġstock holm
wh atever
Ġres ett
Ġsp un
Ġrac ially
w iki
dr agon
Ġmc gu
Ġt aco
ign ant
10 6
Ġr anc
Ġthr ill
Ġgrav itational
w ig
am oto
Ġ19 38
Ġmand ated
s us
Ġper kins
! ),
r ance
Ġsub set
s aving
Ġclar ified
Ġimmort al
Ġrede velop
Ġ25 6
st own
Ġott oman
Ġsouth ampton
che t
Ġcas te
s erv
Ġbattle ground
Ġpart nered
Ġun ins
Ġstat utory
as io
Ġlong standing
Ġanarch ists
Ġfernand o
Ġstick y
Ġra ided
n ine
s af
Ġhav oc
Ġenerget ic
Ġhazard ous
Ġresil ience
Ġs z
Ġbe lls
Ġmo ons
Ġcomp art
ex c
man ager
Ġob solete
Ġret ali
Ġgly ph
Ġstandard ized
Ġshar on
ĠØ§ ÙĦ
w is
Ġd ota
Ġdisc ounts
ge ons
Ġretain ing
Ġpur se
f reed
Ġsy ner
Ġhorn s
Ġnutrition al
Ġec ology
Ġdiss atisf
Ġstrengthe ned
Ġcard iovascular
Ġ19 36
at hing
Ġmathem atic
Ġk abul
Ġsculpt ure
youn g
Ġcl am
erg ate
islam ic
Ġsc aled
Ġinstit utes
Ġfin anced
ch annel
Ġrober to
Ġw p
Ġlo ops
Ġrehe ars
Ġmar i
bor g
just ice
Ġtast ing
Ġtrans itions
Ġjagu ars
Ġbl and
con text
Ġ17 5
Ġpipe lines
Ġexp o
Ġglo ve
u ously
Ġhe el
Ġcros sover
im er
Ġdiscour age
Ġamb ient
Ġsent inel
Ġswing ing
and roid
Ġz ur
ch ic
Ġsimpl ified
Ġher bert
Ġdiagn ostic
Ġana heim
cle an
Ġse ism
Ġl ust
Ġfulf illed
su le
Ġfear ful
Ġfat ally
Ġinfra red
Ġvi i
Ġill ust
ãĥ ³
Ġfinn ish
Ġch ased
iv oc
Ġmcl aren
Ġz ak
Ġwheel chair
x p
Ġi pa
Ġt sp
Ġd wind
e on
ad v
Ġsn ack
car bon
e rer
Ġdec ree
c op
Ġupgr ading
ap ril
k at
Ġh ue
.âĢĻ âĢĻ
Ġcock pit
m ob
x d
ham mer
Ġtim er
Ġ12 3
Ġs cept
Ġimplic ation
establ ished
ul ators
Ġbroadcast s
m ov
Ðµ ÑĤ
Ġsnap shot
Ġtun ing
fe e
Ġle vi
Ġbal ances
Ġin ception
Ġtrigger ing
Ġprop ort
he ne
c z
Ġoversee ing
Ġan ts
Ġmanit oba
Ġrenew ables
Ġcor ro
Ġslog ans
her ty
Ġeld ers
Ġbright ness
Ġpet rol
f uck
id as
Ġsy racuse
Ġmotiv ations
Ġsymp h
Ġge ological
read ing
Ġabrupt ly
Ġnotor iously
reat ment
ab lish
Ġper vasive
Ġcompet ed
Ġb ury
Ġassist ing
Ġfat ty
ib o
Ġd ong
Ġmat urity
b f
ad an
Ġsn akes
Ġcroat ia
Ġimperial ism
l ondon
Ġafric ans
umb les
fight ing
ond a
Ġproport ional
Ġham m
l iving
Ġrick y
Ġclean up
Ġfi xture
Ġexp ands
od us
q qa
Ġsa p
. /
Ġmom s
Ġgrand children
Ġguitar ist
inst all
Ġd ic
13 5
Ġreservo ir
h ara
cons c
. âĢĶ
sh aw
Ġf als
g d
Ġthr iller
Ġma ze
Ġ11 4
Ġiv anka
est ablish
rim ination
Ġreal izes
Ġcampaign ers
Ġall iances
Ġbot s
Ġinv oke
Ġcop ying
dam n
Ġc ay
Ġawa it
lif ting
ex pl
Ġev id
10 7
Ġattract ions
ish i
ĠáĦ ĭáħ
Ġfil ings
s uccess
Ġmar tha
Ġincons ist
bs d
Ġoblig ed
le ar
Ġsa iling
work er
Ġtwe ak
Ġmis guided
Ġfli pped
Ġsidel ine
ï ½
Ġh ua
Ġbull pen
Ġli a
Ġfun nel
Ġc inn
Ġgal actic
Ġabol ition
im o
Ġj og
c ateg
Ġn ude
Ġdeb ug
Ġbureauc ratic
Ġdash board
p od
Ġsaf ari
Ġdisgr ace
Ġout ward
Ġelect rons
Ġsaskat chewan
Ġcap sule
Ġesc aping
Ġa isle
Ġfoc al
def in
Ġm ubarak
Ġfe ast
Ġpur ity
Ġt id
Ġhack s
Ġdavid son
Ġsepar ating
Ġbar cl
r ab
Ġmin ist
... ]
ha us
is is
Ġholland e
Ġspec ulative
Ġx x
Ġfo es
c opy
Ġ à¤
pr act
ia o
Ġd aring
lo st
Ġts ar
Ġcapt ive
Ġhes itate
Ġl ays
ie re
ber man
Ġche ering
Ġvan ished
Ġh aley
Ġd ud
Ġl ime
Ġinherit ance
ĠÂ ĸ
ct ory
Ġsub aru
j am
le ad
Ġli king
Ġfo il
cl imate
br al
: [
Ġecho es
Ġmorn ings
Ġpe ek
Ġquestion na
Ġconf inement
Ġantar ctica
Ġab using
Ġcan cers
Ġstand ings
Ġyield ed
j ames
Ġrespect able
Ġpro cl
Ġca pped
Ġthe ological
Ġlive lihood
ar se
Ġcr ane
Ġse ga
Ġfright ened
Ġvigil ant
resp onse
Ġpro st
en os
inform ed
Ġwra pping
ah ah
Ġundermin ed
p ent
Ġspraw ling
Ġ19 14
Ġwith stand
Ġpa wn
cre ated
Ġoper ative
l ou
Ġentit lement
Ġrig ged
get own
Ġbund es
Ġd ion
ab ortion
Ġboo king
Ġcollabor ate
Ġpump ed
Ġpe ppers
democ ratic
Ġob ey
Ġtransfer ring
Ġve in
Ġthink ers
pict ure
Ġug anda
Ġteas poon
j uly
Ġth igh
Ġby e
Ġbit es
Ġbas il
ge vity
Ġt ones
j es
Ġ195 1
Ġmel ted
Ġw aving
ord ered
Ġl ds
Ġoverd ose
Ġcoll ateral
pe ak
Ġme gan
col lect
Ġcondem ning
Ġcon greg
Ġevident ly
Ġs ank
Ġw art
ad just
Ġenv y
tex as
p atch
Ġstr ang
Ġdisc arded
Ġpy rr
Ġle vin
Ġdon na
Ġboost ed
c hens
Ġeros ion
Ġp amp
Ġsacrif ices
Ġling ering
Ġcoo ldown
Ġchrom os
Ġi ke
Ġpun ches
Ġpatri otic
Ġjenn ings
it ic
Ġtr u
Ġf ue
Ġbrow se
Ġtyr anny
Ï ģ
uss y
Ġt ir
Ġpts d
Ġy as
Ġwe iner
Ġk anye
Ġgreat ness
Ġcur ves
Ġsto ke
m ale
ri o
Ġprev ailing
Ġjud gments
repres ented
Ġimp over
ant a
och ond
Ġgrad uating
Ġlat ency
Ġt ying
Ġforb id
Ġsky rock
s kin
Ġnap ole
Ġkath leen
ol ation
Ġqu in
Ġstand alone
at in
Ġpled ges
Ġaz erbai
Ġnewcom ers
Ġsp i
Ġprogress ed
áħ ®
Ġover weight
Ġharm less
all ow
Ġchand ler
Ġdeb ating
Ġaccess ibility
Ġjo ker
Ġmc gregor
Ġid f
om orph
Ġiv y
Ġphysic ist
Ġstress ful
Ġpromin ence
are th
Ġrom a
ok a
Ġwa iver
Ġexerc ising
Ġker r
Ġpack aged
iz ens
Ġhuck abee
bur se
Ġchron icles
Ġge ographical
Ġun sett
Ġcollect s
Ġunders co
Ġtermin ated
Ġslic es
Ġp bs
Ġstere o
Ġwarm th
Ġdra fts
Ġv ive
Ġ19 18
Ġdec ry
Ġfour teen
Ġn ass
is o
Ġresent ment
Ġdon ovan
Ġner d
Ġd ag
Ġins ults
Ġaff lu
/ -
Ġth irst
Ġla ur
Ġg d
Ġstap les
e lement
Ġastron omy
Ġprest ige
te c
Ġlegal ized
Ġaug mented
" ?
Ġbl iss
Ġst are
Ġcorrect ness
Ġbe gging
Ġcel est
pos itive
Ġgra vey
Ġori oles
Ġethan ol
or ah
Ġshe ff
Ġbulgar ia
Ġpast a
Ġenc oding
fashion ed
Ġla x
Ġende avor
go ers
Ġpresum ed
Ġpossess ing
Ġawaken ing
ay ette
Ġcar bohydr
Ġpar ody
Ġp au
Ġre written
Ġexecut ions
Ġo wing
Ġtwe aks
Ġro oney
Ġfair fax
Ġinqu is
Ġpoem s
Ġal ias
Ġad here
Ġstim ulate
Ġdisrupt ed
aaaaaaaaaaaaaaaa aaaaaaaaaaaaaaaa
mem bers
he at
Ġsp iel
ogr ams
Ġhe fty
Ġdown turn
ok o
10 8
Ġapart heid
Ġpe el
ty pes
Ġt ipping
Ġdre aming
Ġpess im
Ġled ger
ren n
Ġ ÑĤ
th ought
Ġrom ans
Ġuef a
Ġout lines
11 2
Ġel usive
Ġspring field
at al
perform ance
Ġ19 37
Ġlan tern
Ġinsist ence
Ġaud ition
j c
Ġdistribut ions
Ġce ased
Ġgl or
Ġbor ne
Ġwar p
Ġbuild ers
Ġeyew itness
a pped
Ġba it
Ġrob ber
Ġdr ank
sc ore
most ly
Ġreli ably
et r
Ġex ert
Ġbur dens
Ġwhistlebl ower
Ġm w
Ġ19 0
Ġa ap
Ġcl icks
Ġcaes ar
Ġprov oked
Ġhelm ets
Ġvoy age
Ġon ions
ire z
Ġobject ed
Ġiran ians
f urt
Ġem my
Ġgun shot
Ġv augh
Ġthick ness
c ook
g age
Ġk ro
Ġdif fers
plat form
Ñ İ
Ġ" ...
Ġhate ful
Ġt uc
Ġst aging
ar ab
Ġsu z
Ġsc alia
Ġalban y
Ġpresent ations
Ġdrum mer
Ġdump ing
en gth
Ġpossess es
Ġcongrat ulations
Ġmut ually
Ġadap ter
Ġw ander
Ġunint ended
t ank
Ġtemp ted
Ġdw ight
Ġc ries
bott om
oc o
Ġher d
Ġu z
Ġar lington
Ġsu arez
Ġborrow ers
Ġscan ner
Ġuser name
Ġvari ability
cut ting
Ġst ared
Ġr na
Ġcontext s
Ġsocial ists
Ġsemes ter
Ġvers es
Ġadapt ive
Ġdem ar
Ġg omez
Ġjoint ly
Ġun healthy
Ġint ra
Ġsk ating
Ġm ates
Ġst out
ag netic
tt a
Ġalex is
Ġch ore
Ġt ate
Ġweek day
am ong
Ġmas ked
Ġgra pe
Ġres umed
Ġbr icks
Ġkey nes
Ġkaz akh
s ac
Ġsc rim
Ġmck in
Ġquest s
Ġmax well
Ġcau cas
Ġunfair ly
Ġst acks
Ġim am
ct r
m ust
form at
Ġpunch ing
Ġtunis ia
Ð¾Ð »
Ġalco holic
Ġen su
Ġhall way
Ġr ade
Ġmarket ed
Ġviol ently
Ġed en
ilib rium
in ness
Ġb ard
Ġprofess ionally
Ġlegal ize
re b
Ġb har
ed in
Ġacqu aint
Ġintellectual s
Ġmart ian
Ġtherap ist
b omb
r aining
Ġa uck
Ġoverse es
k il
Ġh q
Ġk ad
Ġmon aster
intellig ence
Ġal as
Ġâ Ĺ
Ġbever ly
Ġbo ast
Ġswall ow
Ġf lic
Ġcultiv ation
######## ########
Ġble ak
Ġip v
Ġass urance
sc enes
Ġvolcan ic
un fortunately
em s
Ġencourage ment
Ġbullet in
Ġter med
Ġn erves
Ġt art
Ġper p
Ġdomin ating
b uck
Ġteam ed
app ear
Ġmid way
Ġtam il
th or
Ġstaff ord
p n
Ġto es
Ġsav vy
ut able
Ġguess ed
Ġnie lsen
Ġfa q
ur ations
Ġmat te
Ġassign ments
Ġemp owered
Ġsk ins
Ġfear ing
Ġcryptocur rencies
Ġres idency
Ġdist orted
la us
Ġillustr ations
Ġeduc ators
Ġaccomp any
iz en
Ġlobby ist
Ġtrad er
Ġarri vals
Ġbo iling
af a
Ġrepl aces
Ġneuro science
Ġauck land
Ġwell ington
Ġmit ochond
Ġsupremac ist
Ġconst ell
Ġcand le
Ġhe w
Ġ3 000
Ġdement ia
Ġf erv
Ġpun jab
Ġdisg ust
j as
xt ures
Ġnote worthy
Ð» Ð¸
Ġundert aking
iv ities
ve ll
rev olution
Ġhonor able
po ons
Ġ__ _
Ġconverse ly
Ġparalle ls
Ġsw ings
Ġouts our
Ġso aring
Ġdeb ian
Ġsuper fic
Ġintercept ed
Ġl ite
Ġdre amed
Ġmurde rer
Ġk c
Ġcomb ust
Ġbo oming
Ġundert ake
s ound
Ġf aa
Ġh icks
Ġmine craft
Ġredes ign
Ġmoroc co
Ġprem iers
Ġmarginal ized
Ġseld om
Ġaff inity
Ġdur ham
-------- ----
Ġsupplement ary
Ġtur bul
Ġforg iveness
Ġlon gevity
be k
Ġgall on
us r
Ġ- --------------------------------
Ġcaval iers
Ġp vp
Ġk ara
Ġweight ed
Ġam use
Ġmot ions
Ġbron x
Ġfre ight
Ġislam ists
Ġri pple
Ġhoo ver
Ġp agan
Ġh utch
f acing
g it
Ġc out
Ġpsych ic
Ġhier arch
oo f
Ġbr as
Ġn ed
Ġh outh
Ġsp inal
Ġpsychiat ry
ber to
Ġdefensive ly
Ġfellow ship
Ġdisclaim er
in av
ys ics
Î ·
Ġpe aked
jo b
Ġthere of
Ġcard iff
Ġrapt ors
Ġste als
Ġspread s
h c
Ġvari ance
Ġt iff
Ġneg ro
n l
Ġbe a
Ġamazing ly
Ġcb d
en ch
Ġor ch
Ġp asc
Ġinv ites
Ð½ Ð¾
Ġmal i
commun ity
st ead
Ġtext book
2 40
Ġmaster piece
en abled
Ġcuis ine
mo ving
m om
Ġinsur gency
Ġn ano
Ġsubstant ive
Ġdep icts
Ġliter acy
Ġbat on
11 4
bi ke
Ġd ixon
áĦ Į
Ġcustom ize
17 5
Ġstick ers
Ġpe y
bl in
Ġrepresent ations
ed it
Ġcl ara
Ġchant ing
p id
Ġbe au
Ġden om
Ġcomput ational
Ġscrut in
Ġwal lets
Ġkat rina
Ġset back
Ġcle mson
Ġbureauc rats
Ġimplement ations
ne ut
b id
d rug
il ot
Ġins c
rom an
Ġfin ite
Ġpoint less
wal ks
Ġfr ies
Ġsyn ag
Ġda unting
Ġreal ism
Ġassist ants
Ġpard on
on en
Ġturb ines
Ġdeal ings
Ġc v
Ġderiv atives
Ġch oke
r anging
ustain able
Ġram sey
Ġenvision ed
v ari
Ġens ured
Ġren d
m ilitary
Ġp izz
Ġe f
Ġsu icidal
fe ll
Ġred is
Ġrot ten
Ġphill ip
comm and
Ġcomr ades
Ġal v
Ġdeb bie
Ġex ams
Ġmos ques
Ġw im
Ġthat cher
amp s
Ġmu ff
Ġqual ifications
Ġf onts
and um
Ġcrowd funding
Ġsubpo ena
Ġline man
Ġsimilar ity
Ġlisten er
Ġepide mi
Ġu d
Ġche ster
Ġles b
Ġmant le
Ġmac book
Ġdiss ident
Ġgr ac
g ic
Ġdiscrim inate
m eter
Ġle ah
o i
Ġbillion aires
Ġc ud
Ġboo ster
Ġlearn t
Ġdev otion
å ¤
Ġbetray al
Ġambig uous
Ġger ry
ing es
ag her
Ġann ie
Ġ11 3
Ġbe z
Ġexceed s
Ġtemp les
add ress
Ġsout heastern
Ġselect ions
ir us
Ġbar ric
Ġkel ley
Ġplan ners
Ġor deal
Ġdiscipl ined
Ġfoot steps
Ġbi od
Ġg und
Ġpre fix
16 8
Ġthom son
Ġhar med
Ġcult urally
Ġsh aken
Ġdun n
Ġgi ul
Ġpear son
: \
Ġresil ient
Ġcre ations
Ġon board
ru le
Ġtransl ations
Ġsc rat
Ġstock p
Ġmotor ists
Ġdepri ved
r ather
Ġprot otypes
f uel
lab el
Ġp atern
d ream
Ġaff lic
ator ium
25 5
Ġexperiment ation
Ġfinal ized
Ġground breaking
iv o
Ġhit ters
Ġcommand ed
Ġmon ks
ix el
Ġpl uto
Ġell ison
Ġsurpass ed
desc ription
f w
Ġimp erson
Ġouts k
Ġrall ied
Ġc uc
it ations
Ġout fits
Ġch ili
Ġp est
Ġcomm ence
Ġwo es
ax is
Ġdam ned
ãģ ¾
ou ched
Ġshr ine
Ġeas ing
Ġconfron ting
Ġgren ade
Ġstr ap
Ġko be
ur ai
absolute ly
Ġv id
Ġassert ions
Ġpar amed
Ġk ant
Ġpsych ologists
Ġbetray ed
Ġe greg
Ġgen ital
Ġku wait
Ġce os
Ġcare y
y m
Ġex ce
Ġyoung sters
Ġt ad
Ġdist rust
Ġcredit ors
Ġlou der
Ġsuperior ity
Ġher s
Ġerect ed
6 50
Ġstick er
t as
Ġn ou
Ġmult itude
Ġportra its
Ġn z
Ġsh rim
Ġfe in
Ġre election
part icular
Ġdop amine
Ġintegr ating
re aching
Ġinv ari
âĢ¦ "
Ġprec urs
Ġoptim ize
to ol
qu ar
we lling
Ġra qqa
ĠÐ ±
Ġjo ints
Ð¾Ð ¼
Ġanat omy
n ap
Ġensu ing
Ġoil ers
Ġtag ged
Ġre aff
Ġhar am
Ġh ooks
Ġmodel ed
Ġfl ock
Ġoccup ying
Ġspie gel
Ġbr ighter
Ġfar age
19 99
bn b
pay ing
in arily
Ġcanad iens
Ġfr aming
o ise
Ġrec ess
Ġisol ate
Ġnom inal
Ġswan sea
Ġl itter
Ġescal ating
Ġacadem ia
ĠÂ ½
Ġpreced ed
Ġf let
Ġde pt
Ġamount ed
Ġaband oning
Ġip cc
Ġhur dles
Ġvol atility
vak ia
Ġhor rors
Ġen listed
Ġapp o
app a
Ġgeor getown
an z
Ġdex ter
Ġstimul i
ge m
Ġknock out
Ġloose ly
l ater
av ier
comput er
Ġ11 6
Ġslee ve
is en
Ġmil ton
Ġunsurprising ly
Ġsim ulated
Ġstr ay
Ġz ar
Ġ: =
Ġt asty
Ġco ke
Ġmc coy
Ġstrange ly
grad ation
Ġunman ned
Ġad el
Ġdivid ing
Ġp v
c ents
Ġ à
Ġdun geons
Ġvolks wagen
Ġav id
c ip
Ġslides how
ab el
Ġup ro
Ġdet ract
Ġann ih
Ġannoy ed
micro soft
em on
Ġl umin
Ġnational ity
Ġgreen land
f asc
ld on
Ġdo yle
Ġcl ippers
ets k
Ġoutsk irts
Ġo min
er i
Ġsp a
ib and
Ġcomm ute
Ġp its
Ġta j
Ġdivid ends
Ġelect rom
Ġliquid ity
g ars
Ġu mp
Ġsm o
Ġbe asts
t ails
lo op
Ġdev ised
Ġbank er
pp el
Ġhu h
Ġpress ured
Ġperipher al
Ġsupply ing
Ġem o
Ġrev ived
Ġdort mund
Ġstand off
Ġpub med
Ġship ments
Ġstab bing
Ġi bn
Ġorgan ism
occup ied
Ġgr ap
Ġrec urs
Ġcr on
Ð½ Ð¸
Ġunder wear
Ġparan oid
Ġl ame
Ġclass mates
Ġconver ts
Ġs ik
Ï Ĥ
oc ese
Ġtoler ated
Ġtutorial s
Ġunra vel
Ġt ents
re ci
Ġpu ppy
Ġg lee
Ġcal der
Ġtur ks
Ġbever ages
Ġmel ody
Ġremind ing
Ġmedioc re
99 9
Ġram irez
Ġmut ant
Ġsheff ield
Ġhead ache
Ġlimb augh
Ġac re
Ġvern on
iche ver
Ġm ourn
Ġmar ble
Ġcondition al
Ġcl aud
Ġprop ulsion
Ġa uf
) âĢĶ
so on
Ġfeather s
Ġdishon est
Ġmini ature
Ġimplic ated
Ġpharm acy
Ġlef to
Ġbut cher
Ġprotest ors
Ġfun c
Ġmi y
x ml
ch ris
y r
Ġphysi ological
k ok
Ġsympt om
Ġent renched
Ġclos ures
Ġsubm itting
Ġg st
Ġmis use
Ġw ines
Ġcheck point
Ġfatal ities
Ġbi ases
Ġod ys
er ver
Ġbar bec
Ġdiss olved
b ly
Ġscre amed
Ġri pe
Ġplot ting
Ġlandlord s
w itz
Ġbe the
Ġfel ix
Ï ħ
Ġow es
z man
Ġli am
v irt
Ġchry s
Ġen ig
Ġair borne
Ġperpet ual
Ġtar iffs
Ġenjoy ment
Ġsh un
Ġme h
Ġnephe w
Ġruth less
ç ļ
ick ers
Ġsupp ressed
Ġfl ush
Ġwitness ing
Ġcum m
Ġsupervis ors
Ġfr idge
Ġup right
Ġcounter fe
anth a
Ġtre ason
Ġsa o
Ġimpro v
ov sky
Ġfast ball
Ġc nbc
Ġmor ale
Ġmole cule
Ġcor k
Ġskin ny
Ġscre wed
prof its
Ġwr aps
ĠÎ ´
Ġaccomplish ment
Ġden is
Ġbog us
Ġgoo se
Ġfier y
Ġretrie ved
resist ant
Ġsubmar ines
Ġallow ance
Ġ11 7
Ġcy an
Ġscar borough
h ub
Ġpin point
Ġancest ry
Ġnum bered
Ġph illy
Ġadv ising
Ġenvironmental ists
Ġow ens
ier i
ke fe
Ġinform ing
Ġreview ers
Ġtemp ting
Ġdefer red
Ġethi opia
Ġv ain
11 3
Ġ! =
Ġl est
Ġl sd
grow th
Ġcarl son
Ġb ain
Ġintimid ating
Ġmy sql
Ġsub committee
sc ar
Ġtor que
ĠâĢ ŀ
Ġadm ired
Ġd ens
Ġfact ual
Ġgot h
Ġbelie ver
w aves
Ġme ll
Ġsatur ated
Ġbree ze
t ouch
Ġab rams
Ġsw ipe
Ġprogram med
down load
Ġround up
Ġr nc
ben ch
Ġrud d
áĦ Ĵ
Ġclay ton
Ġcinn amon
vel ength
Ġdiscl osures
Ġt ighter
re a
Ġpun ishing
Ġsucc umb
Ġmarin ers
Ġd aca
Ù ĩ
en c
Ġup stairs
Ġdemol ished
Ġjen ny
s ong
Ġadd icted
Ġje ep
Ġgriff ith
Ġqur an
Ġinadvert ently
Ġplay book
Ġmalays ian
Ġinterview ing
Ġhol t
z ar
12 7
eng lish
Ġsl ugg
Ġfis cher
oc amp
cot ics
Ġapplic ant
Ġmedic inal
Ġense mble
Ġl omb
ack er
ak o
fe eding
Ġenh ancing
Ġem manuel
Ġdist ortion
Ġl al
est inal
Ġrestruct uring
Ġsher lock
Ġear ns
Ġfam ine
11 7
Ġall an
ã ħ
cult ural
Ġsaud is
Ġpsychedel ic
Ġ12 7
c ake
com ings
Ġsanction ed
mal ink
Ġn ach
Ġcalcul ating
Ġview point
ãĥ Ī
check ed
Ġprag matic
ri ber
col a
Ġ20 50
Ġcomm its
Ġlabor atories
civ il
jew ish
' ;
produ ced
ren s
Ġalt ar
Ġnew t
Ġhard en
Ġpr ism
Ġgav in
Ġo ch
Ġmen us
Ġper f
Ġmultic ultural
Ġn ah
Ġal onso
Ġroyal ty
Ġsecret ive
u itt
Ġmay a
Ġmon o
Ġsick ness
Ġsurren dered
l us
Ġprof iling
Ġsp iders
Ġemb ro
Ġlater al
Ġkn e
Ġundis closed
cond ition
Ġdiamond s
Ġsp icy
Ġo ss
Ġl cd
Ġde eds
Ġcoy otes
Ġflo ated
Ġcryst als
Ġr aging
og ne
Ġprev ail
ped o
Ġtro ph
Ġcoinc ident
b old
Ġgl aring
Ġcambod ia
ich t
Ġrecy cled
Ġmant ra
freed om
Ġgun men
Ġec b
Ġdisappear ing
protect ed
) "
Ġgraph s
Ġpain ter
n azi
Ġep ile
Ġantar ctic
Ġ æ
Ġag on
Ġer in
Ġtrain ers
d h
Ġpresent ly
unci ation
Ġgoss ip
Ġsp ikes
em erg
Ġrob b
Ġbill ing
Ġoun ces
l ind
Ġscor p
ud s
Ġaven ues
Ġreg rets
aug ust
t ops
de ce
Ġwes ley
it imate
Ġscand inav
Ġwarrant y
Ġpar ach
Ġcur rents
Ġrib bon
Ġcard iac
w ash
Ġfun g
Ġflour ish
Ġl ak
Ġcircumst ance
as ia
Ġsc ent
Ġbre aches
Ġse ren
Ġve il
Ġfasc inated
Ġw en
Ġbrief ed
Ġw ink
us at
mah on
qu ist
Ġread iness
Ġastronom ical
n orm
Ġi phones
Ġant ip
Ġcal iber
Ġskept ics
2 20
Ġpill ar
Ġperm issions
Ġcarol ine
Ġant ide
Ġassault ing
Ġbrut ally
Ġinterpre ter
Ġvalid ate
Ġu v
Ġautop sy
Ġhost ages
Ġham burg
Ġimmers ive
Ġlist ings
Ġtail ored
Ġvenezuel an
asse mb
Ġpromin ently
Ġtreat ies
Ġvan ity
Ġted dy
Ġcontradict ory
Ġlabe lled
} {
Ġr ains
Ġsn iff
e er
Ġ" "
ff ff
Ġass erts
Ġlock heed
âĤ¬ âĦ¢
Ġfisher ies
Ġincorpor ating
Ġenhance ment
Ġvic inity
Ġsh ru
Ġpaul o
Ġtrust ees
Ġdep ressing
Ġgot ham
Ġuru gu
Ġgravey ard
Ġty ph
Ġshare holder
d m
Ġtun es
Ġcheap est
Ġbill ed
Ġsun der
ab outs
Ġperiod ically
get ting
en ko
Ġfl ank
Ġm ous
un ited
Ġyor kshire
Ġen ric
Ġb amb
Ġfo ley
Ġcros by
Ġy ak
Ġbow ls
Ġsi ber
Ġw c
Ġhus bands
Ġrul ings
Ġqual ification
Ġd uffy
Ġc ess
Ġkey words
Ġber ger
Ġarr ays
Ġmonop ol
sa ic
Ġlive ly
Ġspo ilers
again st
Ġvp n
Ġem it
Ġhond uras
Ġs sh
Ġk ry
Ġexhib its
ä »
liber al
Ġconstruct ing
Ġshi ite
Ġdem os
Ġreceip t
áħ ¢
col ored
Ġp ablo
Ġ) )
å ħ
Ġaspir ing
Ġdis charged
Ġsens ational
Ġroc kefe
Ġdon ating
in ist
on ial
Ġex odus
pp ings
Ġlog os
Ġ6 50
Ġ ****
Ġarmen ia
Ġle ve
Ġaddict ive
Ġn go
n ology
Ġde gradation
Ġ[ ...]
Ġ/ >
l ake
Ġsw ir
bl own
Ġfisher men
h ua
Ġathe ism
ag gress
Ġped oph
Ġpyrr ha
Ġan te
Ġmay o
Ġsit com
o ys
Ġban ners
Ġslo ven
Ġtr acy
no x
Ġa very
âĢ¦âĢ¦ âĢ¦âĢ¦
Ġsh ak
Ġwork flow
Ġ11 8
gr id
Ġspawn ed
Ġseaf ood
Ġtyp ed
Ġspect ators
Ġreplic a
Ġintric ate
Ġ[ ]
ar ious
Ġbi ologist
tr uth
Ġip od
Ġsev enty
Ġf iance
Ġconclud ing
Ġpra ir
turn ed
Ġin efficient
Ġcon e
Ġfe instein
Ġdar ling
Ġresur rect
Ġpatric ia
Ġor well
av oid
Ġafford ed
Ġel on
Ġstere oty
Ġfow ler
i ak
it iveness
at he
Ġbur gers
Ġhom age
Ġjama ica
ien ced
Ġam using
Ġind isc
Ġex or
Ġper secut
Ø ¯
Ġkn ot
Ġsc ots
Ġwhere in
Ġnor ris
ap o
orth odox
Ġse aw
Ġrep t
g ur
Ļ Ĥ
Ġreact ing
Ġslight est
Ġjun ction
Ġt ucked
d raft
Ġe w
Ġca usal
Ġsuck ed
Ġportray al
Ġexceed ing
in to
cont ract
Ġma iden
Ġh ikes
Ġwa its
Ġmicrow ave
Ġ2 15
Ġpeace fully
Ġc ic
e i
at ra
Ġscre ams
Ġ2 25
Ġrev ital
Ġacceler ating
Ġmemor andum
Ø ª
Ġbet ty
Ġauth ored
qu el
Ġsnap chat
Ġimmense ly
Ġfratern ity
form ed
Ġintens ified
Ġcomm issions
ger man
aust ral
Ġvirt ues
Ġscreen play
Ġat ro
Ġn ac
res olution
Ġri y
Ġintrins ic
Ġlean ed
Ġpolice man
Ġprov oke
bit coin
Ġsandw iches
Ġincre mental
Ġk ai
og ens
Ġsom ali
b road
Ġsn acks
sw ick
Ġbas eman
Ġalexand ria
etermin ed
Ġch imp
Ġar ising
Ġgh ana
Ġunde c
ch urch
fe at
Ġass ail
Ġbal con
Ġindic ative
id an
Ġopp ressive
Ġgl im
Ġmascul ine
Ġus da
Ġexpans ive
Ġo sw
init ial
ÑĢ Ð¸
Ġbow ie
Ġshort comings
emp has
Ġn ino
ser ious
Ġwh ichever
Ġunreal istic
l ocation
e ur
Ġag ile
gr ab
Ġlatin os
Ġcaval ry
Ġno aa
Ġdisc ard
Ġpill ars
Ġmam mal
Ġst itch
Ġdisp arity
Ġcounter terrorism
Ġec centric
Ġre think
Ġrecogn izable
Ġsuspic ions
j ee
Ġout cry
Ġdiff ering
Ġdoss ier
Ġpra ising
ab ove
Ġdisproportion ate
ar gu
Ġco ined
f oo
Ġcrus ade
Ġsabot age
Ġqual ifier
Ġprocure ment
d ia
Ġgeopolit ical
Ġsc ala
Ġprot ester
Ġby r
Ġfree way
d ings
Ġgentle men
Ġant is
Ġfo e
Ġcal iph
Ġot to
Ñ Ī
Ġdo dd
Ġpd t
Ġs sl
st o
Ġdev al
fr anch
Ġlux em
Ġadminist rations
het amine
Ġqual comm
and ra
Ġword ing
appro ved
Ġfab ulous
d well
Ġdesper ation
Ġma pped
Ġdifferent iate
Ġcam el
Ġpack ets
Ġdown right
lin ers
en as
z ene
Ġ3 65
Ġmir ac
Ġregister ing
rand om
Ġver te
Ġfed s
Ġflet cher
Ġmad den
Ġgr ays
Ġescal ated
Â ¢
Ġtreasure r
Ġder rick
Ġt n
Ġfilib uster
Ġ19 16
Ġconf use
Ġeyeb rows
ong o
Ġmanip ulating
re illy
t ale
Ġp ik
Ġnor a
Ġt ails
ale igh
particular ly
Ġuncon ventional
Ġj orge
olith ic
Ġre organ
Ġwork outs
do ctor
Ġtor pedo
Ġrub in
Ġinspect ions
Ġgrow ers
Ġbe ams
Ġco ch
z ai
Ġcompassion ate
Ġmem es
Ġdomin ic
Ġrecon naissance
Ġins anity
Ġsme lls
Ġunderstand ably
Ġbel ts
Ġlow s
net work
Ġconcess ion
m ie
m ut
Ġadren al
Ġbiod iversity
Ġbel arus
Ġspec imens
Ġsimpl ify
ber ra
Ġrob bie
arch ive
Ġhy de
Ġser um
Ġtermin ology
Ġse wage
Ġbart on
Ġfren zy
Ġbel le
neut ral
Ġnot icing
Ġcl are
Ġexempt ions
Ġmahm oud
am big
ra f
al an
field s
Ġhispan ics
Ġsw ath
Ġgut s
Ġdisgu ise
Ġdiv est
Ġslow down
Ġbo asted
Ġmand ates
Ġcar rie
Ġconfig urations
Ġlingu istic
Ġerr one
Ġsuper v
Ġsoviet s
Ġground water
Ġy uk
Ġweb ster
Ġhaw kins
Ġ19 34
Ġhang s
j eff
Ġl v
Ġnovel ty
Ġbefore hand
bre aks
Ġclar ification
Ġt c
me an
Ġsch ul
Ġsing led
Ġequ ations
Ġpac ers
Ġng os
Ġun ans
Ġcorrespond s
Ġsy ll
ess ential
uss en
Ġasc end
Ġsil ently
Ġab ide
Ġj p
Ġ# #
Ġspur red
g at
un i
Ġconstit uted
des igned
hor se
with standing
Ġcontract ing
Ġcl if
il o
s ar
Ġca us
Ġcomput ation
Ġtow el
Ġm aced
he it
Ġbutter fly
Ġfl ashing
Ġtempt ation
Ġsta unch
Ġ2 10
Ġclass rooms
Ġmis information
Ġadul thood
ur ances
Ġout p
Ġ19 35
p rem
.âĢĿ [
Ġres ide
x c
ag i
Ġjud y
Ġcraw l
Ġab del
Ġpl a
Ġrep erc
co al
Ġdig g
Ġunre liable
l iness
n en
Ġbath rooms
Ġcycl ist
rad io
Ġslic ed
Ġc ac
Ġradical s
Ġatt ribut
flo or
Ġorph an
br ight
Ġpar ano
Ġho ver
Ġbun ker
Ġlav a
Ġped iatric
Ġseason ed
Ġspar se
Ġnort on
gener ated
Ġape x
Ġair bnb
Ġtall er
Ġpersist ence
Ġfl am
Ġequ ilibrium
Ġsha ft
Ġo usted
} \
Ġn ir
qu ick
Ġantib iotic
Ġmon aco
Ġchamp agne
Ġstress es
Ġdess ert
Ġced ar
Ġpiss ed
Ġmar ion
Ġlamb da
Ġn oun
Ġreflect ive
Ġfa res
Ġse mic
Ġli ar
l ago
be gin
Ġdi as
neg ie
Ġfrank furt
j j
Ġthr illing
cor rupt
perform ing
çļ Ħ
Ġvol ley
zz a
Ġh ath
bal anced
Ġmir anda
Ġsl ider
Ġ19 29
Ġwinds or
Ġpass ports
ãģ £
ex ample
Ġwind ing
Ġprecip itation
Ġsen e
iv ist
Ġsy s
Ġtatt oos
Ġhur dle
Ġsult an
og a
Ġz ack
Ġmen ace
et us
Ġwater front
Ġveget ation
Ġk aw
Ġpolice men
Ġund es
Ġallevi ate
Ġcomm uters
o zy
Ġsort ing
Ġpet itions
Ġpron ounce
Ġhawai ian
Ġin security
Ġun ix
Ġsl av
.) <|
Ġwrong ly
c atch
yn chron
Ġrepet itive
Ġbomb ed
Ġmatt is
Ġresur rection
Ġg s
Ġab bey
Ġher bs
w t
Ġ19 2
Ġtherap ies
Ġse greg
comp onent
Ġmaur ice
Ġunins ured
Ġinvent or
Ġglac ier
Ġpri e
Ġbrun o
Ġ14 5
Ġmaster y
Ġrevis it
å ı
m ens
p ush
b usters
Ġe e
Ġg ors
Ġspr ink
h ate
Ġtrust s
Ġma i
Ġb ung
Ġle one
Ġmal aria
Ġast hma
g ren
Ġsn ip
Ġt up
fem ale
Ġ19 10
Ġell iot
Ġpsychiat rist
Ġbu c
Ġantide press
Ġped al
sat ur
Ġpostp oned
as ure
me xic
Ġinflic ted
Ġturn around
e ither
se m
11 8
Ġwa velength
Ġmembr ane
Ġmil iband
Ġroof top
Ġ20 25
art icles
Ġones elf
Ġcircum cision
Ġ20 22
j av
Ġfract ured
Ġu f
h ung
ri p
Ġopen ings
Ġbi of
Ġenv oy
Ġ27 0
( ).
Ġconnect or
so red
Ġdomin ion
Ġbak ery
Ġbl asio
po ll
Ġpriorit ize
Ġth ur
angu ard
Ġdeliver ies
p ared
Ġh m
Ġe ater
Ġc aves
int y
Ġdecided ly
d one
Ġpen ned
Ġmon archy
Ġdef iance
================ ================
oct ober
Ġintoler ance
Ġge force
Ġice berg
aw s
Ġshap iro
d ish
Ġbusiness men
11 6
Ġneurolog ical
ats u
Ġk lan
Ġmunicip ality
Ġm ound
con cer
Ġnat ives
Ġher m
ç Ķ
Ġbl asp
Ġj os
pp ery
p ak
Ġ3 20
Ġstere otype
Ġadmir ation
Ġern est
Ġlow e
Ġhospital ized
Ġworth less
Ġpengu in
Ġdirect ives
Ġamid st
Ġtotal itarian
Ġarrog ant
Ġbr at
Ġpodcast s
Ġsymph ony
Ġvi king
Ġweapon ry
Ġmarsh al
Ġeigh teen
Ġtheor ists
Ġartic ulate
: "
un ivers
reg ist
Ġscot ia
c ru
Ġm x
Ġz ap
Ġben ign
Ġincident ally
Ġ erg
Ġis ot
Ġer ase
Ġmc mahon
Ġduplic ate
2 30
al ds
den ed
Ġh inder
amaz on
Â Ŀ
s our
Ġappropri ations
Ġcompar ative
Ġfundament als
Ġspecial izes
Ġdispens aries
Ġtv s
Ġbatt led
Ġuss r
re on
\ "
Ġ ....
ad am
Ġanaly tical
Ġtibet an
Ġextrem es
Ġtr ill
Ġrec ol
Ġrub ble
Ġwor ms
Ġbrun swick
Ġadoles cent
es co
Ġde e
Ġpark inson
Ġpower house
eth ical
Ġgad gets
Ġbach mann
Ġcoff in
Ġwire t
Ġp atel
Ġbour bon
Ġdimin ish
Ġw ah
is ch
Ġbar rage
Ġfl are
Ġche w
Ġout set
re cent
Ġpay ne
Ġbo iler
Ġgar rison
Ġargent ine
Ġhuff post
ic able
il ated
Ġpump s
Ġv ed
Ġz er
act ually
Ġrand all
Ġfoss ils
Ġdetect or
Ġevid enced
Ġexpress es
ro ts
Ġsp arks
Ġhaz ards
Ġguatemal a
Ġdon etsk
Ġsim ulator
Ġlind say
Ġd oo
Ġdistribut ors
dom inated
Ġin land
Ġsand ra
Ġcast s
Ġun do
Ġhar ley
rac ies
Â ´
Ġdaw son
pt a
Ġyug oslav
Ġk atherine
12 9
Ġperiod ic
Ġreloc ated
docu ment
Ġcomp ressed
Ġdetriment al
Ġdisplace ment
op tim
ep is
Ġb itt
Ġfire wall
Ġconv oy
Ġhospital ity
ij a
Ġs ich
r ase
ft ime
Ġcogn ition
Ġaffirm ative
Ġmel od
Ġby stand
Ġcau c
Ġtoile ts
Ġan gered
Ġnot ch
Ġextraord inarily
r illa
Ġunder gone
Ġâĸ ł
Ġgrand son
ho ly
Ġjeopard y
p ier
Ġrespond ers
Ġafflu ent
mod ule
Ġqu i
Ġram os
Ġcarn ival
Ġexpl oding
ï¼ Į
Ġtranscript s
Ġbur ge
Ġnug gets
Ġla f
Ġpat ro
Ġhal ifax
ĠâĢľ (
Ġz am
Ġconst rained
Ġrelie ve
Ġve gg
Ġarrest ing
meth od
se par
Ġeis enh
Ġoutput s
r ide
Ġmetall ic
Ġd ans
Ġpe p
Ġsum med
Ġreson ance
Ġc ors
Ġegreg ious
id ian
' );
Ġtr out
Ġw agon
Ġ19 19
Ġcapital ists
Ġc tr
au c
p ill
Ġfun k
Ġfore head
w it
Ġk aine
h og
Ġninet eenth
Ġwill is
Ġdep iction
co on
Ġd mit
Ġcow boy
Ġundec ided
t d
pr iced
Ġbal tic
v ag
Ġbu cc
Ġmal ik
3 70
Ġpiv ot
Ġmast urb
Ġr ak
Ġlen non
Ġp aved
Ġded uction
Ġass erting
Ġdis dain
Ġmet icul
Ġbenefic iaries
Ġal armed
b row
Ġdoc s
Ġr aced
Ġch ast
Ġmicro bes
uls ive
Ġretain s
Ġcount down
Ġinfl ated
Ġremn ants
Ġetern ity
Ġt akedown
Ġdec riminal
Ġjul ius
Ġkinder gart
h orn
Ġdomin ican
Ġall ison
s av
Ġsimultane ous
Ġcar o
Ġhead aches
Ġtodd ler
Ð ¶
Ġup stream
Ġout ing
Ġnor folk
Ġsunder land
Ġdeb un
! ,
s ure
Ġy ar
Ġconfed er
Ġh ilton
Ġper ks
Ġ2 60
Ġsu icides
Ġel vis
Ġdocument ing
Ġmisunder standing
f et
Ġgam ma
Ġder ive
Ġcan berra
Ġstrongh old
z on
Ġrockefe ller
ke red
Ġdrown ed
Ġch ow
Ġoff ending
hy dro
Ġven ice
Ġcoord inating
Ġic c
Ġrese mbl
Ġcommunic ated
az ar
Ġna fta
r out
Ġmour ning
Ġlum ia
ze k
Ġbuff ett
pe g
el ig
Ġser gio
Ġkiss ing
writ ers
Ġhay den
im i
Ġwas ser
polic y
Ġic y
Ġwrest ler
Ġfare well
Ġcar negie
Ġexpect ancy
ane ously
go al
Ġin secure
met al
Ġconstruct or
Ġ19 15
rib ing
Ġgre gg
Ġdeut sche
Ġest onia
Ġrebu ilt
Ġdiscour aged
Ġd ime
Ġmus cular
cig arettes
qu ite
Ġcaution ed
Ġtand em
Ġmo ose
Ġta vern
Ġstro kes
Ġimm oral
j en
hist oric
Ġm ism
Ġapp alling
Ġno el
Ġv at
Ġstr and
not iced
Ġshoot out
Ġdiscount ed
i ola
Ġqu asi
Ġflo rence
Ġneat ly
Ġshrim p
bre aker
Ġc ctv
Ġrun off
bud get
Ġmot to
Ġguard ed
Ġsun k
Ġmund ane
Ġort iz
ang a
Ġsm ashing
Ġdolph in
11 9
Ġmess i
Ġst omp
sc ott
Ġd ors
Ġplun ged
Ġspan ning
ser ving
Ġfresh ly
ne ck
Ġpa used
s in
Ġvenge ance
l ag
j ul
Ġador able
c ss
Ġ12 2
Ġreferen cing
Ġco ats
ass ic
Ġbi os
with in
Ġmcc art
Ġn w
Ġsim ulate
Ġw ester
se an
olog ic
Ġcur ved
Ġma har
Ġhipp ocamp
Ġexp ires
Ġdiscipl ines
Ġkind ly
k ien
Ġc n
Ï ĥ
Ġrade on
Ġhub bard
Ġconsolid ation
Ġun seen
Ġprot oss
Ġplun ge
Ġac r
Ġstr ained
Ġsign aled
govern mental
Ġmort ar
Ġsquad s
Ġperm iss
Ġmog ul
Ġmeas les
Ġnar cotics
Ġhul u
Ġpamp h
Ġover shad
Ġenerg ies
Ġpe renn
re hens
Ġimpover ished
Ġf uss
ph al
Ġmind fulness
Ġpant her
ok u
angel o
Ġm v
Ġmon str
Ġpat hetic
Ġte e
Ġcr ank
b ble
Ġcrim son
Ġh umph
Ġkey note
Ġreim burse
g res
nas a
Ġc ate
Ġin exper
Ġjac ques
Ġcom o
Ġwealth iest
fa ith
Ġhum our
Ġpe g
Ġdal ton
ump s
Ġlesb ians
Ġdev i
Ġi ot
Ġhelp less
Ġdress es
Ġal tering
Ġrib s
Ġgraph ical
Ġgill es
Ġfl ashes
Ġprow ess
Ġge ared
Ġcru iser
Ġh ic
Ġv ie
Ġmed dling
Ġce cil
Ġaffili ates
Ġhe ct
Ġpercent ages
Ġlou ise
Ġa ad
0000 00
Ġcanon ical
am ount
Ġarab ian
Ġk ale
if ference
c apt
Ġunf avor
Ġembar go
Ġsket ches
out put
Ġam c
Ġpremie red
âĢ¢âĢ¢ âĢ¢âĢ¢
Ġsacrific ed
f red
Ġperm itting
Ġadd icts
on o
Ġanom aly
Ġtroph ies
Ġhom est
Ġsli pping
c ow
Ġbirth s
Ġsc rolls
Ġshort en
Ġb ounced
Ġad ept
Ġfet al
Ġconced e
Ġconsc iously
Ġhorrif ying
Ġexp oses
al ities
Ġg imm
Ġintu ition
Ġglobal ization
ting u
Ġwal ton
Ġre na
Ġchrist ina
ne e
Ġ12 1
ff er
Ġro asted
Ġrally ing
Ġf p
Ġh ive
Ġform ations
Ġ15 5
Ġwart ime
Ġinv ade
j ac
Ġturn overs
Ġ18 5
ãģ Ĩ
Ġavoid ance
Ġn ina
Ġal gae
j d
Ġex tingu
Ġli ly
Ġpan or
Ġl er
ang ling
l ocked
Ġr iv
Ġtext books
Ġye ll
Ġvi ability
Ġol son
st ed
Ġstrateg ically
Ġtim ed
Ġtermin ate
n ails
Ġw aved
Ġj pm
Ġval uation
Ġcorro bor
Ġardu ino
Ġinter course
Ġcas ually
lo ving
^ ^
Ġb isc
Ġback er
bl ind
ist ical
cons ervative
Ġlod ged
Ġasy mmet
ric ks
Ġfeder ally
b m
pe er
ind ependent
Ġniger ian
Ġend ow
Ġge e
Ġten ant
Ġsm s
Ġalv arez
Ġx avier
Ġhind us
Ġgive away
Ġconf er
Ġdisc ord
ro let
Ġflo res
Ġrecount ed
Ġis p
Ġprie bus
all a
Ġelement al
some one
me red
Ġder ail
Ġphysic ists
Â ±
at ur
Ġscra pped
Ġt resp
is al
Ġprob es
Ġlandsc apes
s her
14 5
Ġimp lements
Ġdispos able
Ġpon der
Ġi a
Ġval encia
inc lude
Ġeisenh ower
Ġmar ches
Ġs sd
ous ing
Ġter ran
Ġnick named
Ġnapole on
ace y
f ont
Ġmo lly
Ġmu ll
Ġexclus ives
Ġs ane
Ġsal man
Ġdisco vers
Ġsina i
Ġstat utes
oo se
, ,
Ġpro x
Ġdanger ously
dig ital
Ġazerbai jan
up dated
Ġpro active
Ġnu anced
sep tember
Ġreperc ussions
Ġc ly
scient ific
f ps
Ġpin ned
19 80
last ing
ish ly
Ġke ll
Ġvik tor
an aly
Ġfer nandez
Ġgood will
Ġhand held
Ġdisc s
Ġair space
Ġconvenient ly
Ġphill ies
alph a
Ġdis li
Ġc ooks
Ġcommon place
Ġad ri
Ġdis integr
lig a
Ġsant iago
» ¿
lo e
Ġrecept ions
gl ass
Ġs op
Ġapp arel
app ointed
ma res
Ġflu or
áĨ ¨
Ġparano ia
Ġsk ys
Ġmascul inity
Ġall ot
Ġ5 12
Ġprostit utes
Ġdis belief
Â ½
ht m
re search
act ing
Ġimp ed
Ġvague ly
Ġfilip ino
Ġa while
Ġlooph ole
Ġre use
Ġ11 9
Ġalle ge
Ġiraq is
Ġsa ul
Ġap ologies
Ġp ity
Ġg ins
Ġimp lying
Ġmoder ator
Ġnr l
Ġh ips
ru it
Ġ9 78
Ġoutwe igh
Ġem blem
Ġp ike
Ġtele port
3 20
Ġtr uman
Ġfac ade
Ġunans wered
Ġappro ving
Ġdevast ation
Ġconfisc ated
ul k
? ).
ren o
Ġaqu arium
Ġscholar ly
Ġp iles
Ġreleg ated
19 9
Ġbroad casters
Ġrock ies
Ġrepet ition
Ġt idal
cc i
Ġhydra ul
Ġopt ing
19 0
Ġbib li
Ġlun a
Ġdeb ugging
in ished
Ġow l
id is
Ġmouth s
li k
Ġmarx ism
d aughter
m att
Ġpro to
Ġgener osity
Ġcig ar
Ġsequ encing
. _
Ġb oun
se ctor
Ġla h
rain e
Ġo ber
Ġsal em
Ġstor med
bl ank
15 5
Ġpun itive
Ġbag gage
chic ago
Ġy ad
Ġstand out
Ġfantas ies
Ġmil ky
Ġor ion
Ġfre ud
Ġwood y
Ġfib re
end ered
ux e
Ġbo on
Ġcounsel or
Ġsh ocks
Ġlot us
Ġesc orted
Ġplate au
Ġstem ming
ga ard
Ġbl asts
Ġmay er
Ġd rib
........ ..
re ck
Ġnot withstanding
Ġin verse
Ġprohib iting
cor rect
Ġrivers ide
in ence
Ġseam less
Ġ< -
[...]
